/**
  ******************************************************************************
  * @file    network_1701866511190_data_params.c
  * @author  AST Embedded Analytics Research Platform
  * @date    Wed Dec 13 10:49:25 2023
  * @brief   AI Tool Automatic Code Generator for Embedded NN computing
  ******************************************************************************
  * Copyright (c) 2023 STMicroelectronics.
  * All rights reserved.
  *
  * This software is licensed under terms that can be found in the LICENSE file
  * in the root directory of this software component.
  * If no LICENSE file comes with this software, it is provided AS-IS.
  ******************************************************************************
  */

#include "network_1701866511190_data_params.h"


/**  Activations Section  ****************************************************/
ai_handle g_network_1701866511190_activations_table[1 + 2] = {
  AI_HANDLE_PTR(AI_MAGIC_MARKER),
  AI_HANDLE_PTR(NULL),
  AI_HANDLE_PTR(AI_MAGIC_MARKER),
};




/**  Weights Section  ********************************************************/
AI_ALIGNED(32)
const ai_u64 s_network_1701866511190_weights_array_u64[13202] = {
  0xb169087bbbfbf820U, 0xf7ba3e216c980781U, 0xff1e03eee5a6d039U, 0xdac69022fddb37c0U,
  0x6b58085ddfe3ace0U, 0xc741da9dcdf8d31aU, 0x39c05029b0c1941bU, 0x41ba596815b1e87bU,
  0x3f9d0148f117d508U, 0xb123ff6292929db4U, 0xb29fee86090b7cd1U, 0x67d9f03cad94f7bfU,
  0xf44d1799fd048a33U, 0x1193555d48e50bcfU, 0xdd3b4407ab641f4eU, 0x63f2f75567f69ec2U,
  0x1bde3605ffffc557U, 0x57ef3bb638daea29U, 0x2ae26a8c04f4db6U, 0x282714dac8bfd31bU,
  0x3ece09704f1baccU, 0x9aeefae222fee9baU, 0xf9cef909acfbd2c2U, 0xc8e840d6dbcf39abU,
  0xffe8faeff5c5ccbaU, 0x441013fa063250d7U, 0xe63ed7c14afdd230U, 0x3e2f635f69522415U,
  0x2267161ce9f05845U, 0xdfd9df1c482142c2U, 0x21a73226cec95b4dU, 0xffbc9dac09360035U,
  0xfcca4b96afbadbebU, 0x2413e797f03109d4U, 0xee03d904c0c7d6e5U, 0x45d83fc830f72324U,
  0x49a62a5a51af0fe7U, 0xd4e8624d462343ddU, 0x1cc4a196328570fU, 0x3b590414dd166144U,
  0xd630ca3a4e59f60eU, 0xe0bb2924bbfc4044U, 0xc838db3b5106a418U, 0x1bce2d3ba9142defU,
  0x6412f1cfb24c5662U, 0x1e651bf142feba5eU, 0x30bf2313303bdf3bU, 0xd721b11a19c04357U,
  0xb55114c74e27f116U, 0xbdc623e1eccedfa8U, 0x2aa7c34b47d4b6a3U, 0xf1b538159cfe2a0aU,
  0xf0ba02eb38ee21f6U, 0xf61e5df9b5b2c5e3U, 0xb5ede0c5aeca4aa7U, 0x51fff155ac092b0eU,
  0xcd0b4c39b20a511dU, 0xb254513b27efec28U, 0xbbe5dce838a437c1U, 0x9fc55f4c547d43aU,
  0x18fdfb2844ef4a0bU, 0xf7a736d745f9f552U, 0xc7aac3e75953ccc2U, 0x1a4e120f3a1956c6U,
  0x3b09c50052beddfbU, 0xde1f060fca52d2adU, 0x5303a653a401daefU, 0x20c3fecad72e0509U,
  0xf0f6cc42bdc642f7U, 0x23b30e5ad8431c26U, 0xbdd0c13942fadcc9U, 0xe7e556b24900532cU,
  0xc7e6d8d808102850U, 0xc8fccf054110a4b6U, 0xb042d0f8cd4e05aaU, 0xa3f449c03cc7d4feU,
  0xd436220925ccf0b8U, 0x14200e29f0047cdU, 0xf3118c9a6fb0226U, 0xebd3bfa054c3840U,
  0xd3cb2309f204343cU, 0x48d437bcf0df10c4U, 0x60b5bf4c56c521d6U, 0xb54a230e39d4b101U,
  0x544ad038f960f73aU, 0x1ad10ddac4a9f3a3U, 0xe5c61511abfa0efdU, 0x272ee4179aef24f8U,
  0xd896f1f71830a60fU, 0xf4bfa8f8b33635d1U, 0xff050297a8b71399U, 0xb6c2f7f62fc310f4U,
  0x2c2dd1d0a8dabef5U, 0x1343c5130bce164bU, 0x9f15cdb7f2e19799U, 0x482f312d01e2ba3aU,
  0xf246efc4abbcc7f1U, 0xeebdf5eb1d0bdb32U, 0x350447becd28a858U, 0xfc3fd61931ec1953U,
  0x3e33ef244e5e54f4U, 0x3dbd1a2609426a5eU, 0x64db5de967cf2664U, 0x2ff4e3b736b04036U,
  0x3104adbd8c1f328U, 0x8e2c85ae55709c0U, 0x4e43ba1510bb41a9U, 0xb5b2d30bf4c1d3ddU,
  0x23d75349db5950fdU, 0xa9293fd0b741ec15U, 0xe951fbe7f2e7f021U, 0x3c523af5020d759U,
  0xaed61ced430d571dU, 0xdcf8f7a8a9d6565bU, 0xc5dfe49fd7e1c827U, 0xa347df2b23dce440U,
  0x2949beb9292a9facU, 0x4d239e33bb4f4d4aU, 0xeced54c1c4ef1fa8U, 0x491c13abcd42dae0U,
  0xc736244e22aa32feU, 0x14f839530150a9f7U, 0xdf25b6af29470852U, 0xa509383caaf52eb7U,
  0x31e5fbc2f03199a4U, 0x3adaeaa691ec9f93U, 0x8b262fc9afe3200cU, 0xc01fee9e25db34c3U,
  0xad3612caacc41b2cU, 0xa857de44010e01a7U, 0x480a4a32abe9d7b6U, 0xa1ea059d4d46abe5U,
  0xf3f9181506f6c0cfU, 0x22b925349a30f9a8U, 0xa0a806e939164ef6U, 0xa758cbdedd09fb24U,
  0x3812484628b8275cU, 0xaeb7302e42b5c6e1U, 0x66e122e4e6362334U, 0x1f5a5c1f62b34303U,
  0xf032c2fbedb55722U, 0x48c95f165cd6f534U, 0xe352babcee60e624U, 0xb806562acbe4e4d4U,
  0xb91f2348e044d1d3U, 0xeb47ebe83fcdf227U, 0x4110421eac022853U, 0xebf804e3122848d3U,
  0xcf1e5938221f44d1U, 0x19c2dcd2f4285242U, 0xd903f8f0c5326e57U, 0x6170443740fd6669U,
  0xb23e42cbf10bfbeeU, 0xa33f2ab750b841e8U, 0xc02144b5ba460be2U, 0xf73aa748fbeddad5U,
  0x13d4e6c7204dfcf5U, 0x92308bb13a136d7U, 0xdcfda6c11238d60fU, 0x4eb90aabef1cc9cfU,
  0xf1c5c7291ee90c0dU, 0x1cf5b33f26eb1504U, 0xceed0bd3e7da5925U, 0x3d4d2841353a693dU,
  0x55ffe13ad271645cU, 0x1bb6bd0204db1652U, 0xce60f8fcff402a57U, 0x40efc1f0d3a2bf2U,
  0x512939e5f4b9cddbU, 0xa1dda2030cd22021U, 0xc54dc1cba40e36d7U, 0x70e05de54abce22U,
  0x4b5fcee2005e372aU, 0x5adcde0959505934U, 0xad73046b95cb5U, 0xfc3a495dfdeee641U,
  0xb453c3cb58e63eddU, 0xd3e8c9fb04ba54dcU, 0x30fd1bbccdab1f4fU, 0x1b2fd026c52b041cU,
  0xd0f94bd2e7f830U, 0x16e41ff01916412bU, 0xeded35f647101826U, 0x4543f44bfb4cefe1U,
  0x520524b01062af4U, 0x3624b1ff2aad094eU, 0x34a4a9dede42f303U, 0xeabda9d2a0a93344U,
  0x453a1ec807fa40d1U, 0xfbcf24cdde34b12fU, 0xcc2ab82c1ebfffb5U, 0x1f43fd1e49cda6a3U,
  0xea4ae81f26e94ad2U, 0xfcd91548d340c944U, 0xecb2a8a4ff0f503fU, 0xa9b1bbe1b2f90747U,
  0x3830535427082fe5U, 0xf93feb32304314eeU, 0xc5cef4f8aa0cdac4U, 0x3817492a012a340aU,
  0xdddb9114f091c4aU, 0x5518d6f9f920b404U, 0x502e14dde5e3dbefU, 0x3648183d1dbcc714U,
  0x3a14ce0cdef718d8U, 0x25af403bbd23b144U, 0x8c807e407185817U, 0x5f38b10ef8ffdbb1U,
  0x3930cd16f5dd35b5U, 0x572be13f5b39e123U, 0x525021d9c2fcc8edU, 0x61f94663d4ed38ceU,
  0x4938de633e33dff1U, 0x22e7c9dadc332becU, 0x6504f209564a56cdU, 0xd95cf3cfbed906ffU,
  0xc1ac2f2add10b9d8U, 0xea57552705510739U, 0xb5e0f7ceb0fc32bdU, 0x1ca6524d493df9f3U,
  0xc135f1d7f8c11effU, 0xeffae8b2f9c106e2U, 0x551d2c4e4152b8f1U, 0x461b64c834e55930U,
  0xc9fef72a340d0d66U, 0x435295d10346cc8U, 0xbf4a6f1a50e31c62U, 0x9e40262f4ec2aa08U,
  0x3fa1cc269b0f2bb6U, 0xcbe64015c84a27c4U, 0x14e9dc4b04f0f4a8U, 0xb92cacf3cb3a1712U,
  0x4f0c07e01848d052U, 0xe0e7312054140e17U, 0xbeb122aff0e7ea11U, 0xd604f80b25faedabU,
  0xd9aac74506344b1dU, 0xd5a9dbc9e7ffd5d5U, 0x390cd502aabaf8f2U, 0xdbf6a6ecc94ec0bcU,
  0xcf35f656a7d6b4d5U, 0xed02410e1b2d46edU, 0x3142e60230c7f4ebU, 0x2db29c48f2f7bbfbU,
  0xe6b6a626c7e8304bU, 0x114d05d619fbdf01U, 0x2de705d15003a405U, 0x331713ab270b3d38U,
  0x51482bb925bfb0d3U, 0x1cce18e458b3cb43U, 0x131f33fbd4e74cebU, 0x2b12fc415d6508b4U,
  0xc7e646cceabcee0bU, 0x4c21d5f7a7e7a329U, 0xee06b4cb2a1411c7U, 0x272914abe343292dU,
  0xb12931d1e43be9e7U, 0xce3b95ef32bf280cU, 0x1ffbdeb99b311234U, 0x35bdf6160904a450U,
  0x3910e2af29b448c5U, 0x411e292d604b5f18U, 0x12304838f643295cU, 0xd82024272225f31cU,
  0x34d1d92dfb2104bdU, 0x3cab1de7100c3a06U, 0xc8f8f1b2c30ecd41U, 0xcce1d3f3df1b0c6U,
  0x35300cf52adf1e10U, 0x112337483d31a0c9U, 0x14bcd6d6201e4322U, 0x5003bbcf424b421bU,
  0xbf1edd53db52aa2eU, 0x53e22bf133ae02f0U, 0x1aebedd1e25f00bfU, 0x270256f25515043dU,
  0xeefba2b2bb020d51U, 0xad6035148cf39b5U, 0x4e24cbc236b4d0cbU, 0x362548ff06f32644U,
  0x6ebd5213d42492fU, 0x63be5b0fd4c3d862U, 0x49595eae190c61e6U, 0x57c75acf11bd18b2U,
  0x6d933cfd120db4cU, 0x2635f31fc0c04d17U, 0x2a9db724ebf44007U, 0xdc10b3f01defa44eU,
  0x2e1a0d8afea9907U, 0x321ab2e407353bc6U, 0xe1eba2fc28b9ff1aU, 0x39e2f141c9e8d6afU,
  0xd116dfabd7c1fd02U, 0xce46f3ec4fad5ea8U, 0x20a3e82d382e3333U, 0x70cf0ff480a18b0U,
  0xfce6f73eaba7e0caU, 0xe0713e98f2536f0U, 0x8eca1ef83794b28fU, 0xe8b296fef7cf8b21U,
  0xd587aa86191200cbU, 0x98b3e5f1bcd8c5b9U, 0x3c99d11b174a1decU, 0xbcfe23411dad1421U,
  0xc6e6d54ca52136a1U, 0xf8fbc2571406a8fbU, 0xbd4b3d12fb16f4ecU, 0xe817b2500a0f3cacU,
  0x4820b8bc9cfc29fbU, 0x30c12544231a2632U, 0xa2ba1df2cfbcb104U, 0xdcebabd42af11fc7U,
  0xf6bb33cc0998aac4U, 0xdcc2d1008139b2c9U, 0x50accd31f2a5d603U, 0x49223453b7441c1eU,
  0xced0ee4fe9c2eb0eU, 0x155b61caea7f847U, 0xc3bc16c124bc36afU, 0xeebd2540b3eba2c9U,
  0xef50cf411b523d3fU, 0x5346e13eafabfbfeU, 0x1d473e4c4cca12c1U, 0xa84531ee0804c95bU,
  0xa7bcf811e7b93ce1U, 0x4155e9c6df4503eaU, 0xdfde4de8a444a251U, 0xf35bda26162d4e3fU,
  0xc3320b24c0ee2ed8U, 0x5105cdafceda0d62U, 0x2f6263d94744da26U, 0x572e2fd9e147e624U,
  0xedbaea402af816e1U, 0x474c243ac7003716U, 0xa2c10044edcf3ecfU, 0x1f3203d19bb0f0a0U,
  0x16c8dad3a9ef3ab7U, 0xa805a59aecc9919fU, 0x18144d2c402c173cU, 0xfdac130cfb200941U,
  0x27d6c1e501fc4934U, 0xbfb1c31f02f4bd32U, 0xd5c80831e4aa110eU, 0x304b344d6f4fae2U,
  0xda001228d84053a9U, 0x41f1f8a82905250aU, 0x1cf3b1545f0fe32U, 0x39dce5a6d3d6b0ebU,
  0xd13ceec2ba9361cU, 0xfd86e50d97c3133aU, 0x191bb9c1c2c79b03U, 0x2dae5925f61854b6U,
  0xf34a421dadea2630U, 0x3d1bacdf7f9c5b6U, 0xa741154429ab2924U, 0x46e22ed451cefa54U,
  0x3c4f3abab3115d12U, 0x17eaabd3de5e00d4U, 0xe620155f13ece8b3U, 0x63d00d20c709ca55U,
  0xcad344bc451d0ebeU, 0xae84dd1502e4115U, 0x3b465aff0fdf350dU, 0xc60a4c1ae6e04105U,
  0x1d3a2a1a1df9ee3bU, 0xb849b7520db2eac8U, 0x38a7b41b4b11ed26U, 0x42a8b5abdc24b8c5U,
  0xd425c1c6a2113c38U, 0xa00cbd0fb12f3719U, 0x4ea79ea600100ea5U, 0x9e4ce445412c094eU,
  0xe8d896e8250c27bfU, 0xee15eb072df82a8eU, 0x881bdfb8f03b1b16U, 0x5f64ff61f8899ed4U,
  0xd2c15100585d44c1U, 0xe6fa52aae62bbb37U, 0x3354f34d264b5422U, 0x4355385239d43ae8U,
  0xd1b956f72dfb2d2aU, 0x5dd6bee3104946d0U, 0xb2b41fb7e1350a0eU, 0xc533cbec4d470bd3U,
  0x525d63e108eb25c2U, 0x471ecc20ea12460bU, 0xc669541548dff66cU, 0x32e36247073443dfU,
  0xb6c7cad9f4cd1e47U, 0xcc1bef2cb1ad95dU, 0x45acbbe6365ad7U, 0xac3c34d301e22f4dU,
  0xe90c2afba945b3caU, 0x29ddba3b43a20aa9U, 0x1250ca29d84a2127U, 0x35c9b7f70421bc3eU,
  0xe55a42436712f8e4U, 0xfec921be50d9ef19U, 0x5c0449511d28526bU, 0x2ce446f1e836fe65U,
  0x2b39454b3548c24cU, 0xfe0eeb1db8ba1e16U, 0xc94017b9cdc31300U, 0x304d33a5d608acefU,
  0xb1a9d93c53dddc45U, 0x1d203930aef5f7e2U, 0xb8ec17543202f1eeU, 0x54f40818fbd2fec3U,
  0x3aca085e30e328eeU, 0x3dbee805b2f642e9U, 0xb661fc03c0205ef3U, 0xbd341f37f0eb6df7U,
  0xdc9c33d958620a64U, 0x4515d6f4114c30c3U, 0x3904e6314c3c4126U, 0x46be4a29eb074027U,
  0x2d3cd121b01d044eU, 0x1393958b4def95bU, 0xb53def2eaf3e042eU, 0x1fc405c0ab07f72cU,
  0x9ef4380acbbabbd4U, 0xb6a490e9a49ebfa3U, 0x13adf59fdc97f889U, 0xaca8bbd1e69f33b5U,
  0xd486e5f12494b9ffU, 0x3906fc2649a94537U, 0xb9079a1444d03097U, 0xf3d90019ddb49b4dU,
  0xcf4e4ee1dc3d5635U, 0x13e01c414854ade5U, 0xd4cdd710fb282eb8U, 0xbf3cc4b8f8362c28U,
  0x27b62ee91408d7e2U, 0x26093c991912d293U, 0xf3b4ade317beaf3cU, 0xa586d80f92c3b8dcU,
  0x992a935a0cccba6U, 0xebccbd1045d80684U, 0x4c5ef6b64e371f6aU, 0x5103d152e75eed1dU,
  0xf0c94419c8503227U, 0xaae5a50457b95bd3U, 0x16baf10ad43ad4e1U, 0xc427420c3dc2bd2eU,
  0xbdcee6361b0e0531U, 0xc84b2dc3553c575bU, 0x4dc22e4e2273ee57U, 0x72db6752ce0ee22aU,
  0x3a26c6c80e0b36deU, 0x4bbd07f26f04d340U, 0x3057bc57fef9f6acU, 0x2f4a353cc3eeaffcU,
  0x4dc01bb9b3e8f1abU, 0xd9e348c135fcf9c4U, 0xe9ce39dfc4e7d002U, 0xd5fee715da4a48f2U,
  0xc90af208ab10471cU, 0x1b250a142e33c0b3U, 0x181fb24152631102U, 0xe5e454a10ddbf4cU,
  0x1f07c3134a446d33U, 0xf06cf024cdcd6220U, 0xefb250a62835029cU, 0x5125aabaeb2f162aU,
  0x1833b1ef3fed3d26U, 0x5503bc1f0febfc00U, 0x27ad27c1aa38b502U, 0xea29da5f2b13cfe6U,
  0xcd381712d449a408U, 0xe31fc2a941461403U, 0xc5d8c4d9c11d1010U, 0xee5c8fcbf3fb4b2U,
  0xa4ebc6194521df4bU, 0xa700b4a4d89e3e34U, 0xfecffd4f5fedacd0U, 0xdc16bb04ac4ac6adU,
  0xb60efe000c4f5cfU, 0x1bf05c38a53128b6U, 0x4f12efcc4ee94e1dU, 0xb7dbc6ce43041bc5U,
  0xa534f3c133ed2ec7U, 0x31fdced842e42925U, 0x2bef57c42aec5b5cU, 0x26f2361cabbe0b36U,
  0x3dd6e61ad95ef0f1U, 0xe5094af1311a1d33U, 0xd64fbae90d26175bU, 0xbd0bd7ddbfface12U,
  0xcc0e4b3033daac06U, 0xb3cfe154a10ecc38U, 0xe5cec621134637f1U, 0xdea3dceb0cdd46efU,
  0xb9a9e3bbaf084411U, 0x444cfdf21ccbfac6U, 0x4447fa1857cd5cbbU, 0x2804c361390f47faU,
  0x1d5dc9f1ed08cd68U, 0x2e50d7222b4435dbU, 0x2fbf2a6257375c6dU, 0xa2a2e5bdc4f0fff5U,
  0xab3aec4e551ae11dU, 0x2feb25144b432ccU, 0x9bf51f9adb2f45daU, 0xc83c0a2a11269fd0U,
  0xaab2ba16303ac92aU, 0xc1f9f7d1d3174df8U, 0xfa4ecac00fd7a04eU, 0x30d63814f6b0f20cU,
  0x4d42f326a5b8ee07U, 0x3203e2edfc101106U, 0x5cf0d21726534537U, 0x3061d5be4dd01abcU,
  0xb022f6e85cc7e6aeU, 0x2d192bd5fbdd60f2U, 0x3842a63322f5013eU, 0xdf33ae1031aafa31U,
  0xa5d6f9e511c9132fU, 0x112635fec7dfa6f7U, 0x25d92b3bbd2d5606U, 0x31aa2814de03fd56U,
  0xb6132009d8cc0633U, 0x4d5fe81d59cd4c11U, 0x6b171c26f4c621ceU, 0x1b44c825f5216949U,
  0xbf52fac6190b5250U, 0x17552a30daa2f1b8U, 0x2a17af3dc3c2e9e3U, 0xc941d300c4d95aeeU,
  0x27f22bb0cf2a0e49U, 0x3ae651ea01295bfaU, 0xeed2b3595df31518U, 0xbe1bb24f3220d0a8U,
  0x3008fbf8f217b30bU, 0x1bbfe7aa9eb7f5edU, 0x7dc0e4cf0031634U, 0xe82fc995c19eff2aU,
  0xb49d22139ee71e0cU, 0x47dfb71b1de53eaeU, 0xc7c831e3a9a62930U, 0xb9f01f4532f03ef0U,
  0xf1382ce3400c3d9fU, 0xcc454abfa5e0f0d0U, 0x51e37fd2fe4e42eU, 0xdcbbedddf41334cfU,
  0xc11293e72720a731U, 0x1404af43149ce844U, 0x9126f889b4a49607U, 0xcfbaced10122f28eU,
  0x21e2b686f3c79719U, 0x3214534e0d55dfabU, 0x4f2ef1d70c1bee15U, 0xf5021ab222d32349U,
  0xf93ae7d9c0370403U, 0xa9c942a70b46dbdfU, 0x24fd30e6f55da5edU, 0xab31ca091b1350aeU,
  0x1f5f065542c5c54fU, 0xb3baf3f31e56c608U, 0x4dcb463ffcde463dU, 0xd7d9ca41d1ece339U,
  0x1bdcc50d37052701U, 0xbab927ae4f21fcfcU, 0x47dddc0dbcb84cf0U, 0x2bc12bbcf62dd51fU,
  0xaee0e3eb2b5aa4c1U, 0xf9aa3a4a3c39190bU, 0xea5a03fbfa0cdbfeU, 0xad5ce0c0aacd234U,
  0xcd5aa2332352f47U, 0x2eee06d8361ad03dU, 0xaff1f14f31e72fbaU, 0x5436b93dc9a252c6U,
  0xbe45e4a4f1291bb6U, 0xee4b24b21dc7371fU, 0xb80cff3328dfdeacU, 0x39fa50fa0f18dce6U,
  0xf936c82d423b1aU, 0x3cd2cea6c8091bceU, 0xb8f23b1e4616c512U, 0xde59eefcfae3946U,
  0x6e6fa304825ee2dU, 0x2dbf3bc30fd81fa8U, 0xc4b5d2522457bde6U, 0x55c70448bc293534U,
  0xfe6237dc2849bec8U, 0x6751fbee46d2102eU, 0x2fefd33353ee8e7U, 0xef1123c63f2be21aU,
  0xb2f0c306c6561d03U, 0xda448a2dfe61710U, 0x55d926a4c734cedeU, 0xda24d44c412ecef8U,
  0xffeac1e4cf59eca9U, 0x53c561d7c8b529b9U, 0x29eac9c421e1ee28U, 0xaf5db392b581b63U,
  0xd14c3c0c532c15f8U, 0x523a040bff7846c3U, 0xddc94dd11339b66cU, 0xdc0e50be5913bca5U,
  0x442a3cac390fb53dU, 0x482dc7d103c6cf2bU, 0x531e0e13d54e0212U, 0xb55be0595ae7e4a4U,
  0xf53e5304d4afe702U, 0x1dc247b4b5fd58d0U, 0x47d2d3aaadd5e0aeU, 0x1ec71bd44dec2e38U,
  0xfbec1b1e1c2cac0fU, 0x5b3cc74cbf314bf8U, 0xecfa1539e00aa104U, 0x392c2e591d44fdd7U,
  0xaeffb9b30eae0337U, 0xd9232c9f3f0929f7U, 0x40b3c19d54e716b9U, 0xa4a1391f0ae60022U,
  0x16ad0db3d0ad26c6U, 0xd634bec7f14ad32dU, 0xe5b338390b45ca0eU, 0xc0e44a29f1cec32fU,
  0x254c55abaf04750U, 0xb1f7564164d525cfU, 0xc5bf0e1b5054510dU, 0xc3b42f26b1e00b36U,
  0xdbfd3d1550b834a7U, 0x2b45fd2131f4aad5U, 0x301efe18e0bd55f5U, 0xc641e052b1adb523U,
  0x1fd93b50294b38fdU, 0xd7a94b1ed2df2109U, 0x452c0ccf0707ef38U, 0xc00faaac080d96aeU,
  0xf804d730fbc0ab95U, 0x2a320e141ceb9ce7U, 0x1a0e94dcc2d8b9a4U, 0xab5d2babe93412b9U,
  0xca0247d8f63017e7U, 0xa3bbb7bf45b8feceU, 0xa1ee052f0aeba9e2U, 0x41cdb3c042ab4be5U,
  0x15f851bb2da4de2dU, 0xa41fe0f651e1f2c1U, 0xcb5c3458cca7d020U, 0x273df35a3628e212U,
  0x3d354a45081e54caU, 0x34b715e1112e540fU, 0x15c6432c2bf069b7U, 0x513d829334c3f33U,
  0x4c0d30f2213284fU, 0xe7dce4c2c2edd920U, 0x38253616ea0fab29U, 0x5435a90f38fc0c11U,
  0xef134e0eca3233dfU, 0x30fb3e385a54a0b0U, 0xc345e3e72c07c0f2U, 0xd116cfaf6050b33eU,
  0x111b13ec200d1ac4U, 0xcbede14dede51b33U, 0x1547315b2ffcef60U, 0xf13dbd472edafae0U,
  0xcdd5efc9c1d6452bU, 0x140835daf0adb8e8U, 0xd101b63ef7b0a3b7U, 0x1b1400372e56e754U,
  0x2b49c85bd0b8b7baU, 0xff210630f2e8bd57U, 0xd2a44ac90bfbd4a6U, 0xaf7df0047e0eac2U,
  0xfb5e3a7b6d9fac2U, 0xeef39b1acea28abU, 0x96f2c5a6d84536d3U, 0xc1d138e9e438f49aU,
  0xc52d5ab1db1b44dcU, 0xebc008b8e407ee4aU, 0xa02de1ff0cd70ba7U, 0xb8503cf1cfce56c6U,
  0x512ab650ad2ec5fdU, 0x20de20b509ba01a1U, 0xe2fbbcdfb83e17a6U, 0xd3f4b90753ac480dU,
  0x120de5fec0c11920U, 0xb0301028fb3c2759U, 0xf7eab9fe0ee2be11U, 0xebfe51d817b037f2U,
  0x58e6ec1e2740643cU, 0x1a0f24376ac350faU, 0x43cfd9b715b318b3U, 0xa50cc05003add1fU,
  0x3ecbd34fdc60f60eU, 0xa744aebe2d13d5b8U, 0xe10608aa1edfc4c8U, 0x4eb2ca043bbfacfaU,
  0x28f7cabb2f1d433dU, 0x131eee5ede5427f7U, 0xe4556efb32e9c92fU, 0x6af1133d47414121U,
  0x751fdb5c79fd117aU, 0x8274edefeb205f4U, 0x56a0f3e9c2b45051U, 0x21ebfa3bec3a33baU,
  0xca0d6b29d150c06U, 0xe2dd8c8c5c0c7bdU, 0xf945aee5a10efbe8U, 0xf0b31d1a4a3434a8U,
  0x201fb0ba31fda0fU, 0x2fea06d2a1af1740U, 0x565ae4b2f64929fbU, 0x593bc62b183d501aU,
  0x45f42b34b250ae10U, 0x1542eef244b500e0U, 0x43d00b2e52a47dcU, 0x3e3215eae119c9cfU,
  0xdefeaff92523321dU, 0x308e35318d43815U, 0x1527fdafd54845baU, 0xd748efcab1eb2d5dU,
  0x23ecfcbebfadcd39U, 0xf9544ff3c5351ae0U, 0xc740d551d1fc1cb8U, 0x390129ba1aba2c36U,
  0xd70501ecdde665dbU, 0xdc005f511719e8c7U, 0x454f03c6ef2cccbbU, 0xb046341af527bfb3U,
  0xc537c3cc2ca6f9e3U, 0xd6a722af02ecf81eU, 0x21ae2cccd9a9ce45U, 0x1f2342c2ce3eb4efU,
  0xa81ece31381635dcU, 0x9feac0c21505ac15U, 0x22b8eee0ae9d10f4U, 0xa4019f40a1c0f2a0U,
  0xbda52b069fdc4909U, 0x9fc9b1a5a808e708U, 0xf349d84c2cc808f9U, 0xc16a5e00c72e2db6U,
  0x63471cfce909beb7U, 0x9e256bd57dd1eafU, 0xe0e7deaae8554612U, 0x3ab508f1140cf3e3U,
  0x3cc0af11d54ca5b9U, 0x594441edc3574dd8U, 0x15f30e1d50242040U, 0x9d5f64d6669e02bU,
  0x6fe06b50e8302450U, 0x5532dd79e7fc02dcU, 0x3416cd6b0f73527eU, 0x632d2537081939f4U,
  0xd81550bcc9c1c422U, 0xdb55ebdd9325621U, 0x5536a6d9afc63224U, 0x54c1dac428b9e555U,
  0xd8cfd3ead31d1e02U, 0xb44ed2bed32b620U, 0xea3211d5ce37d5e3U, 0xf3bf22f4501c6c1cU,
  0xfe4856d6c92a385eU, 0xefd230c9fd55cf27U, 0x4577c956ea6d2e27U, 0x5c33fe1af157c05aU,
  0xd9cbebabd32fd5bdU, 0xada6444ffce40754U, 0x2209fe020824fc1cU, 0xae59b430b0a1bf58U,
  0x2ecfe0f7f707b127U, 0x5ad00d4e17b5ac50U, 0xdab33d4ef211b1f8U, 0xf0ff6f3c5c0bec0U,
  0x2f336507095142c7U, 0xf0c031152441e555U, 0x1722190f3d25db59U, 0x23b8f535d31b3ef3U,
  0x19332d2a3fa501fdU, 0x3cae8c84cdf18U, 0xf0f0082ead1e47bfU, 0x1cfab3426e8364eU,
  0xae2eef06ca09bdb2U, 0xa3b01eab163ff80fU, 0xdec20c1dc935c508U, 0xb7b6beb01103d4f3U,
  0x3803ffa00fa0dd20U, 0xfe2ce20bb33f9dc1U, 0x1aabc82fe19cc11fU, 0xed1bc9bd9aebbe04U,
  0x3db58ebe725bf57U, 0x10b3592ced30ef41U, 0xe44aa7ca08eaa72cU, 0xafb547ca0235043cU,
  0xf6d85005a8a41619U, 0x425cd53a291a01e1U, 0xc10dda2b28f4efafU, 0xa048a5c7fcd737e6U,
  0x3efac6122daef9ceU, 0x2e9c1740dce1c825U, 0xae163407c2d6b828U, 0x3eafef32bdb3a331U,
  0x3c0affd038dc033aU, 0xf7aef2a7fd2befafU, 0x84912d0a407df22U, 0xff5da6d40a1f07b0U,
  0xcb4f5d13efca34c2U, 0x4f32d916fda50bc1U, 0xb7ccab54b0b7e3c2U, 0xa0abbc3aa408f5afU,
  0xecb0f6081452492aU, 0x9bb1b89bbd0bc049U, 0x24360d95aacddda4U, 0x22baa1d746d7e5f4U,
  0x3b1bf63cd0c8a3c6U, 0x280ee8290dc0eab3U, 0x53e04236053d11c2U, 0xb941202d52e51e08U,
  0x583449d9d44400b0U, 0xdedfc34053f54ffcU, 0x1555110415d8ceeaU, 0x4657c5c9d1dce805U,
  0xfade410fc9e8ef10U, 0xa7ac2ba8ace7d52aU, 0xa939043643e9cc0cU, 0xa2aa120f232c29d7U,
  0x1f0bd81a21d311fcU, 0xd241d012272904b8U, 0xebf927b007ddbbefU, 0xfa9f4b4340a120c8U,
  0xd0ae39c4ecf338a0U, 0xe9f6bef92d1f3133U, 0xdf42d6ce2020500cU, 0xabcc439bac2c38c5U,
  0xd931fb089bf8f94cU, 0x17d99fb12aba9a26U, 0x35b902d1153e1ffcU, 0x3c98b188b3220db9U,
  0xe69234deb4919ebfU, 0x2726b6e8c847e314U, 0x1d44d1bfca7c53bU, 0xc2dfc824eeb732caU,
  0xba19d734121a11fcU, 0x24ef4840fed9595cU, 0x3b494d3f6bb4dbeaU, 0xc63c0f52e9082f02U,
  0xd8fed3bffa49ebaeU, 0x28f03a3a18ffb0eeU, 0xeac2a5dde19aa3cdU, 0x9fe1979bfbbac0efU,
  0xab05c6da0c0a1f13U, 0xbddae69cd406e0a4U, 0x242c2bc70004dce4U, 0x3fded4f55037e4f4U,
  0xb82327fcb0bf550fU, 0xc6c3c0d7b0ea45dcU, 0xe7b8e3ce132bf10fU, 0xc64c1f2eaa10c7c0U,
  0x46b7b33afff0eeb9U, 0xd3e3f0e531c3be26U, 0x37bab61e16a9c556U, 0xcae6235af15d3c21U,
  0x55194fb7fed1c0b6U, 0x54f0f0a5dd0afee7U, 0x592405c6da16c9e2U, 0xbf06c0025d155845U,
  0x3228eb484efb0d12U, 0x4959b4e9c558ebf3U, 0xb518cf13f7ce3c58U, 0xbbd61e25ce124c21U,
  0x300db7271b4dafd4U, 0xeb450ad83e1b43c3U, 0xbf49384e09ea3ad9U, 0x47174a15b95137ecU,
  0x2536a366d62b818U, 0xdc0dfd184fcd62fdU, 0x5acc00b913eb0706U, 0xc02d5eb4b32807fbU,
  0xe30d3dc328155002U, 0x28f93249e807affbU, 0xca31b1a53b32b24U, 0xa8d6bbcb373f21beU,
  0xe912b0501ac92128U, 0x3a2ed2c00bb5e43fU, 0x3dfd58b8e50334b5U, 0x27bdff02e7d1ba40U,
  0xe55f5bdb4e64156bU, 0x544c2351d21540d6U, 0xc0be2849472adc3fU, 0x44a800fa0baf59f8U,
  0xefadf5c35bd32818U, 0xd1c2cf1fb2c5ba6U, 0xcb362524ac35a721U, 0x5933a206ced23cd2U,
  0x1109b6f5f2ac12afU, 0xcaaef1ba2a2738eeU, 0x1ac1e353ed3bf604U, 0xd145c212353838f1U,
  0xea021ef9bd5f26cdU, 0xaaf0c6d9d247295cU, 0x1e07d5e7e0130112U, 0x58e1e5c24139633fU,
  0x12b75a04ee41b5ddU, 0xb35bba9d93efc41U, 0x2daefc311544f2d9U, 0x484244ccf1f6fab7U,
  0x15344245f2375904U, 0x57321f1c0d0159b1U, 0x19dcef2d0c57abf4U, 0x41f9b22b20dd3bbaU,
  0xc2c4623c5ffd5bd7U, 0x170a5d5deaff2855U, 0xc8d6cab9f2f7cc05U, 0xfcd1d34143492b6aU,
  0xc2d2551412d0c200U, 0xa0aa09aaf523dda9U, 0xc055fcfabab749b4U, 0xc418072d2aaeef0aU,
  0xb2332a1dda2f217U, 0xa4510ee00511c7bdU, 0x3a4e21e72d480fU, 0xe1b7a0f8e0afd115U,
  0xa5aa3252640030fU, 0xc33af9f05baaae43U, 0x424b55aede26af2cU, 0x5a1eac1f0d02b915U,
  0x164ada12b0e40f3bU, 0xfd30102f0027f74cU, 0xd724ce0e32a4df4aU, 0xc3b2f92916f700c7U,
  0xb445190f141fa915U, 0xd951cb34463529e7U, 0xbcfe2f3810c5d634U, 0x28b2b4cfe80f0c58U,
  0x10d555e5b74219d2U, 0x59e430f7200b5ed2U, 0xcdf2266a614f43e3U, 0x44d2700615fc2be3U,
  0x24cacdf319004c25U, 0xfdefa2b19130c17U, 0xba392dc53a4f3142U, 0xaeb90d31ce0daacdU,
  0xccabde0034c822c6U, 0x4232b7accaf40418U, 0xcffaf45a0221eed8U, 0xf5521a233d40fa5eU,
  0x5b4cf35ce8281501U, 0x1d0ee1e1244db37U, 0x17cd3cca4619e7d0U, 0x3c631e05556f16d5U,
  0x38b545480137fb48U, 0xa50d2cd64dc7e39fU, 0x515809052f39b4b1U, 0x544e5e50a7fb5210U,
  0x29e5bcd842251246U, 0x3845f8da0fce5d49U, 0x4bbf2ffcb13435bcU, 0x55b7e1543e48b7f2U,
  0xe7b6c3b0173a28baU, 0x143c3c53fae3cbbU, 0x40f4eaa0d9f4dafaU, 0xed8cbdaf2b31a0f4U,
  0xf1d207f4baa6b9fcU, 0x22b1edb7ef26cd09U, 0x1c4339403345103aU, 0x2b46cf00003ed75cU,
  0xf3aaf64f26e5afa9U, 0xee52beba1d5acbeaU, 0xebc0e23a15b814e0U, 0x3bd9f327b5d9e1e6U,
  0x5ee93653afc1175cU, 0xcd510af8e1010301U, 0x410e26146004491aU, 0xd5b8de014f4e65f8U,
  0xb4c16239dde05d61U, 0xf3c9d6521a635dd4U, 0xe9092d39cf193741U, 0xb44cc21ebf25c24eU,
  0xb7dafecbe046e8f8U, 0xe7eeeed4fc3af615U, 0xf749fdcbafbfb1f5U, 0xfb033efb105ae41bU,
  0xf5d53016d415f0dfU, 0xcdc065ce2fedd74cU, 0x4c53f234f01a4226U, 0xfcca634852591428U,
  0x76eb2a243cf32d35U, 0xb5d637de1bd0481fU, 0xc4483cf630c0a3acU, 0xfe025100ac059faaU,
  0x105135cc33cff7c6U, 0x241526f147491dacU, 0x3201a650bd23e8d0U, 0xa6fcfed2b454a72fU,
  0xe127a7a44a43ff48U, 0xcdce13d24a0ffdd6U, 0x36f946344743bf3cU, 0x35a69be530ca0498U,
  0x4ae7cda2b5a14317U, 0xe6323cfd4bf33fb1U, 0xdd3c3232eeadc8d7U, 0x5ddd3a3c5c53c83bU,
  0xc64300f1c0bce90eU, 0x533fd9c55af757c0U, 0xe6603bb91932d75dU, 0xf9f7130ec32f2b21U,
  0x50de504fc455122aU, 0x1df1070cfbe4f5c3U, 0xd4e452cede5e80fU, 0xadd79ab115d5ba33U,
  0xa2fb08c145c9f5feU, 0xceae9114b50507baU, 0xd07d13fc2b39ba2U, 0x52184cfd3012ebddU,
  0x4fbdb515f1c1fd3fU, 0xf9ccb94314c8f1cbU, 0xd70817dfa518e434U, 0xa0d83431d81fc304U,
  0x30a3b4c7a34dc94aU, 0xa10ae01c05f8a6f9U, 0xfb5d422b1ac3b5eaU, 0x59dc5b0514b6bcceU,
  0x540f1b01ef2324f3U, 0x18c36960c3bfc5f6U, 0xc421c3f16b62d138U, 0x54c3ba56da541909U,
  0x47b4b208e0cff4c5U, 0x3ec45917bd2a4311U, 0x1a674d59261a4323U, 0xbf021e5c3c1ef409U,
  0xbcddf37120f1aefU, 0xb1bf39fcc86354eeU, 0x29b2bbb51333e249U, 0x17db1c1b3e462f60U,
  0x38acddcad8f24ae2U, 0x21b74d52aa1a52d3U, 0xb8e301a8dcad484fU, 0xdc4e3b4e064bee0dU,
  0xdda3d32bfca3c157U, 0x1de4e1ae354427feU, 0xfd27374c1bb93035U, 0xcfb4d8a9ebc95114U,
  0xd2c4e8d2d54bc2bbU, 0xe7db2eb9e5edaff8U, 0x590322d6b9abacU, 0xa4bacd20a1afbc2cU,
  0xd516e8a12d4a2aadU, 0xbc509f1a07aa31b6U, 0x9fc9f007c30dfdeeU, 0xaef02521b7bcbfa5U,
  0xd44428252e48b5e4U, 0xcc0bf8c2eeeaffc4U, 0x4e7ec23c0f83139U, 0x3cf5e0b236afaef3U,
  0x2c1ca3adc74b4c5bU, 0xa9483abab9c711f0U, 0xac2623a4d4321451U, 0xef56510ab3beaebbU,
  0x450c1fc5b042ec1fU, 0xa8d5a3c2021e0b12U, 0xfb35f03dff9da0e2U, 0xc1102f09d846091dU,
  0x400a95e9ec473304U, 0xc2a3f364ba9fe17U, 0xcc52fbd99b4704adU, 0x6e2eb410cf2e955U,
  0xaabca7c1f5470a2dU, 0x28e8b5c72959c64dU, 0xc625baa54bf8a1f8U, 0x10159bea41aab4f6U,
  0xaafe240f1899a51aU, 0x20a0e3c2cf201ba2U, 0x1b08edb2b890138fU, 0x8a190a19fb30fd9bU,
  0x42a2420cfbb52ce1U, 0x99ca2bb200ec95a8U, 0x3a3f0f441ddcdf4cU, 0xe4412a4cc73d45ecU,
  0xd527abd6092ba7e7U, 0x4725e42f3be611f8U, 0x14a3b95235ab25f8U, 0x3a262cfececf17e0U,
  0xbfc9c444e899cd92U, 0xb9d88809b4e50baeU, 0x1c2a9de52ad6149cU, 0xd7d4ec16dcbf8806U,
  0x10e1170031b28d01U, 0xab36a60749afd04cU, 0xb7dcfc3aa3ede5adU, 0xdebfa905052546b9U,
  0x493bd6e4cbec1e46U, 0x5746eaae1b074dffU, 0xb1a7a5d4e8273f5fU, 0xcffc0f42bdccabe7U,
  0x16e840d8f62dd9edU, 0xd3fac2e4d0c49f36U, 0x41251cd73c41f837U, 0xace3c6eec8fddf33U,
  0xc2e71bcca61931a9U, 0x3603471f50f216f7U, 0xee4f2b12b8e8ef0bU, 0xeb2ef43339312747U,
  0xcff83eccef560fb7U, 0xcaf3c99dbfbb0b12U, 0xf3c6f1d4d0fcbcadU, 0xebee330014baa9caU,
  0x3271dc838293a4bU, 0x49b4dc2cb253eaeU, 0xadff4acba3aced1cU, 0x219d48f53ebef5ddU,
  0xfaf5362e2b9fc911U, 0xd1d0a69d2c4a5801U, 0x3dc92cb1cca127a3U, 0xa6fcee2301183022U,
  0x2d31e3d0f739a5f8U, 0x3c17cc56c82b1c11U, 0xca0dbd373f1dd2ccU, 0xa4212047bbfdf330U,
  0x2bd7de19edca2923U, 0xe7bfadecc1023c1cU, 0xccd1c89ab89ac5e1U, 0x95999af09419483cU,
  0xbdc2191d9393c6c5U, 0x47e4c0db1a03990eU, 0xb6dce229565842d8U, 0x193a0158254cd326U,
  0xccab2efdb9ca3531U, 0xae12133209fa2011U, 0xd2dd13d3abe2cdb7U, 0xf7fc360bee28f930U,
  0x500949dc2fcbe2ffU, 0x142c1327d9d1cef8U, 0x491123ded1bd37b3U, 0xc90e3f42eed71913U,
  0x55dbd703bf43ae15U, 0xd7de16193761d63bU, 0x3b0d22ee522a16b9U, 0x22db39fb3b4ee5aeU,
  0xc85c31cfeddbbbb1U, 0xc46cf5dc73bdd35U, 0x32e7302147292efbU, 0x5031ba273c5a35fbU,
  0xf2aec44f5bd8b8e9U, 0x5138f9b00844a853U, 0x32282856c8382250U, 0x34db06354317d92eU,
  0x113db1a0e15849c7U, 0x5a4edb6cdf6eecfU, 0xcb4b3fddabd8a71dU, 0xd3e3dcf50702c9d6U,
  0xa7d2a74ce6cf59b0U, 0xd39f64bd8151f04U, 0x162106203258e209U, 0x1414d8b7baab591aU,
  0xb3420848a7441fb9U, 0xfbec51e615b3520eU, 0xccae203125ce5923U, 0x444bd433c617f216U,
  0x614dc03ec961394bU, 0x1b62cf1957da0507U, 0xc5f0e3d44e45281eU, 0xf2dfd859001c29e7U,
  0x5f33042e2eaefcf9U, 0xa246c5d157d957faU, 0x15d10ddbf4efdb57U, 0x47c64635e11b550dU,
  0xc6d9d557a12eceb7U, 0xdb2ecdd20eca2a43U, 0x317f90418c6f2d4U, 0x24f3b456105835U,
  0xd06ceae12dbd2008U, 0x6334ce396adddec7U, 0x704df7eb61cbd21eU, 0x3812e40c2ce7d075U,
  0x4baeafe5f6ec44beU, 0x1f26fd3fad4537b6U, 0x2d2bd34800ba0cb9U, 0xb40caf4db2fef7feU,
  0xb4c2d03cd7a7dda5U, 0xfe55eae4b443e3c2U, 0xb3d74b2f2fefe332U, 0x5e1bf6d7474e1521U,
  0xebfe05f81bddb44fU, 0x26cddd40713e66cfU, 0xdeed48d267c4fb00U, 0x3ef7f8761a7738c5U,
  0x21e6eec3b85f1306U, 0x5756c8053abd4afdU, 0x3856b12c52c616b2U, 0x22a216452b110008U,
  0xfaae022908c72f23U, 0xf8d0a74dadcfaaa4U, 0x60f615b406e5c526U, 0xe3155aca63fe47b4U,
  0x1355cc33fc655fb1U, 0x532b31450a57c83eU, 0x7829c52bcac14567U, 0x6453f61677206246U,
  0xc10040fd379fff6bU, 0x3e1c403153ae3a58U, 0xfcf4115611cace1fU, 0x5ffd650de905ba15U,
  0xdd22b662b4c924c4U, 0x4836515f4c34492cU, 0xe71237d2070bf1b4U, 0x170b3257b53b55e0U,
  0xb817f7289dd10de4U, 0xa1a9bfebf7dba548U, 0x31cfb0e99f1d4393U, 0x362220ab44c2e209U,
  0xbf19c82996398bf7U, 0x574a3c1d221b48d7U, 0x4d000be01e190240U, 0xc9fdf239caebd9ffU,
  0xf9cd4618b9113559U, 0xb44bc6efe86862d0U, 0xd7b12161d02b015eU, 0xd336d4ad544aca10U,
  0xf5411bbb333e5ae0U, 0xb7f69ee31ff4c9f7U, 0x4899c1b23403e90eU, 0xfbc8910cbbd71822U,
  0x48d03fbcedef9e0cU, 0x2b0a5a1610adc119U, 0x46e33533e5332cb3U, 0x39e6f7564eea425dU,
  0x56ddccd6bff608b0U, 0xd936a8e549b3f751U, 0x25054fb0a6caff4aU, 0x271f27333e29f5e8U,
  0x2a1642fcfa4142e4U, 0xdb140929de2a41d7U, 0xd7d905bc640e0caeU, 0x2b23265b4434df47U,
  0xfcb6f641dfd6c966U, 0xec505a48db1c1a65U, 0x535059a8dc381129U, 0xf0cc0acde7d8cbb8U,
  0x5d8c21b31b90ef8U, 0x149e1f452dcedc1bU, 0x9d4552c1a9f33de6U, 0x1d15d1d5f5a81d30U,
  0xaab1245be6c6dcc8U, 0xd4d6d6aeb2e75f29U, 0x28c90b62f3ef060fU, 0x4cb095671d324c4U,
  0x5467d756cb164663U, 0x13dbb56acf027559U, 0x7271533f5180964U, 0xfdbed5ccd5ea060dU,
  0x51f5dea8c5e910ddU, 0xa3b8cd52270755a7U, 0xc7d8c0082ef22a20U, 0xa5abe7c41f3c2846U,
  0x35f14735d352f22eU, 0x4759ececd53bd710U, 0x66ba2e6ccb364565U, 0x5d4cc36df82dfe69U,
  0x6df7df3046521100U, 0xd3c6e74f31fecbf2U, 0xac6f8390adcd005U, 0xf9279a1c41fc2b30U,
  0x361a3c2dc2d53b2eU, 0x2cabb5e803e233d6U, 0x513ad5e7dcdd545aU, 0xbad2ec043bd8bfe4U,
  0x62d2fa906f94122U, 0xf70e0db1122d9a29U, 0xd2f7ece640a22ec7U, 0xca8912c19e33e6a1U,
  0xdddbd58cd488891cU, 0xcf052df9b423359eU, 0xefec4c62020288d3U, 0xfb1715f827bb28baU,
  0xc2fa3a2648da11d3U, 0xe41949b54fb9335aU, 0x42cb01ce19eb152dU, 0xfbcb2f39fd22c80cU,
  0x60b6364e4133f900U, 0xb70d38bdd8e63fddU, 0x8583760d135f022U, 0xe5241c082dbfe9d8U,
  0xa04632254ca6552U, 0x79e0560ad226d372U, 0x401039fe066ae744U, 0x45bd3fb031a5e5f6U,
  0x330f481215f7aab8U, 0x30fb30a9c31a49d0U, 0x4bfdd55a4a1ea410U, 0xdbf0b71ffdf2e4bbU,
  0xe00cd22fc1e90a28U, 0xbb3d312a085234eaU, 0xc8eca43c434fcbc0U, 0x708e8d2dfc707edU,
  0xd111312ca001992bU, 0xcf17d5f7ff97ab08U, 0x15c29afc38b804faU, 0xffd457ad2b174809U,
  0xe0cadbd85913d1e5U, 0x19fe510647471708U, 0xceb9ed5f5b27bf26U, 0xcfc83eeff907dc49U,
  0xb2b84b514ec70257U, 0x562050a7ca5ef938U, 0x28281bac06a7f23fU, 0x40e134fad93be854U,
  0xe053f73c30abcadcU, 0x56211ab023bfe41bU, 0x5cf91ae1cf1320bcU, 0x1ea8b3b53624e32eU,
  0xb331fcec2523eeddU, 0xee4a13bf0147443fU, 0xdbbde7bab74c3b47U, 0xfc45df23d0fa47bdU,
  0xbee747def3f5e99eU, 0xe8d047c6cf533214U, 0xf036bebdb22a25aaU, 0x4db523b8cf4bd3e9U,
  0xa2fa2fbc48e4dcfeU, 0xef11171709b2bd56U, 0xaae62a09abfde3c8U, 0x1f4846e93ddcf0faU,
  0x39ee0fcc5ef65a11U, 0x35d1b2553b084eb5U, 0x5af7ea1ad7ddbe39U, 0xb5e20ff4b3ff241U,
  0xaec3c85db03df6c8U, 0xfce2c812de0fd0e8U, 0xccd0260aaad8cb52U, 0xc752553ed411500cU,
  0x1bb246e0f75cabffU, 0x50f30fc0ad4fd644U, 0xed4e5610c241ad5U, 0x2253ac004cde3f0eU,
  0xdf63202dfee07adU, 0xb63aafe3552ec1cbU, 0xed0dfd22bee4bedcU, 0xfc9de1121aea1b11U,
  0xf7abfdc74437ffdeU, 0xf42522dda0eea19eU, 0xafdde5fbcdd6e120U, 0xfaa622300bb2c612U,
  0xc444ccf9d7e4e43aU, 0x385c4aef3656f54fU, 0x133cb55ae3104affU, 0xb6e616f00906353dU,
  0x1d09111d35d25d32U, 0xb64a05d8d03c01bdU, 0xf9ceb1b3c411e5fbU, 0x3bcf40b21cab37f4U,
  0xcde8d6ba4217bc3dU, 0x2fe4ca4eb26e6bbU, 0x29a74957262c432dU, 0x22c9b8f9cf13133dU,
  0xca552e00004d56e7U, 0x590ab2392f1aed1bU, 0x4fd36d284ef52c00U, 0xf1f912ee4f27d651U,
  0xce0f024bcccc4a1bU, 0x4b49f754433c373eU, 0x3d47dc274de633aeU, 0xdfb2446e65aa631U,
  0x3b7edf125f1df0eU, 0x64d012ec3afeba9U, 0xa535f0c61eddb213U, 0xc82046d65bc1482cU,
  0xbfeb8ff35583c18U, 0x54ec12b54f44224dU, 0x1dcdbcf4bb5113cdU, 0x202b1232dcb0d827U,
  0xece91c5bc2503869U, 0x1135c30ad1e45567U, 0x4744c71f4de9c51bU, 0x43001d3dab2eb9e4U,
  0x29d1d34e53072b5bU, 0xf501160456021b2dU, 0x41f1f1e5e13d37d3U, 0xc6f9ec052a47b952U,
  0xcdd50c3b60f2b8ccU, 0xf94f0cf823e3d04dU, 0x5efdc6165ae03c25U, 0x17e83e60c5ee385fU,
  0x311a230234165ae6U, 0xe53903e704323972U, 0xf2afd62114d2e916U, 0x3c11450950343b16U,
  0x422bd848aaaceb06U, 0xbdb7d6b8b03eb7f2U, 0x31c528e70214c7ecU, 0x4c403efc06305357U,
  0x44c212657fa2b3aU, 0x40b65458d4d02a2cU, 0xb22e5556e11ab150U, 0x4227640b20333836U,
  0xd92f3ed5dbcc48f8U, 0x5f5138e1f44d6137U, 0x2b37c4499f2dd356U, 0xdc9d2d33c7e7e8b7U,
  0x58da1a3ff8b006f1U, 0x4627ab1dfca92ffaU, 0x51013f03fd5ed902U, 0xb7b0b8dcb532a604U,
  0x47cc1ace2138b5c3U, 0xa132ccb4c44acc46U, 0x11f0d5e9fe0c9fdcU, 0xebdc131e98081ee8U,
  0xe040019e95e93c26U, 0x2835e2dbb2d299a2U, 0xfdc7a5af981e04bfU, 0xa4fcdc1850ff14c0U,
  0xb0baf2fee119fe04U, 0x3d1cccbea7030340U, 0xcda7b5a331041befU, 0xa329cf9a07d8c003U,
  0xc5c5d95045132446U, 0x46d6d7bda03af7a2U, 0xf858ba364a25a858U, 0x2fb0ad2bc704e704U,
  0xafd1e0ea5cec39f2U, 0x54f1171d4c305e1cU, 0xb9f747b2524edabcU, 0xc728500427cdacc8U,
  0x5a25163121f14eebU, 0xe9cb30a8eabdd32fU, 0xc2dfa9f5d600af0eU, 0xf4cbb1b9ea3ef513U,
  0xa2f91dbcf64e1850U, 0x384edeced53ece57U, 0xddff59dbbca120c7U, 0x1be8f250325118f6U,
  0xe2220650afecd3e9U, 0xc8c815b35100e8a8U, 0x4ae2435425db2dc3U, 0x37ed1118c63affd7U,
  0xb80b083b33292fa7U, 0x17e24cd9562bfb1aU, 0xc22b1047ec2ea2fdU, 0xabc9cd29a1b20faeU,
  0xe37e92ebff5d728U, 0x35fa5119fedb12e5U, 0xebdef8a8f75438d1U, 0xaceecdcf31303d44U,
  0xbc27d0a54b04da57U, 0xe3b7f0e74aeb113cU, 0xe906cb3ba613d4b4U, 0xcfcfd4c537a6b616U,
  0xd6f1ffe847ee0b0fU, 0x22a8cb47b807cc98U, 0x56453c30ca4c46c7U, 0xf826c9f14d4b5028U,
  0xaa3b001b0856fbU, 0xd413a73c543d2637U, 0x2bdb9f4e07e6fcffU, 0x9bbff63404e2d3caU,
  0xbea0ee0dfcbf302fU, 0x3b170a01e0179ab0U, 0xa938f4fb92d329b5U, 0x38c8119faf2e8d2U,
  0x4ff1b141c10cf99fU, 0x16f93c3e16e257a0U, 0x26bc08fb061abe2eU, 0x4912293924f99e19U,
  0xd1be05d5c443babfU, 0xa3ea2f2d2cdb4948U, 0xf504c4ca10cef422U, 0x30ac4909d6e1e64cU,
  0x3bfc0925ec2721f5U, 0x292afba306291023U, 0xa1f7bd2d4605b422U, 0x1624c82f59a5d82aU,
  0x1841bbe13aedf425U, 0x21d307211b51c914U, 0xc0eaddcfb22bb31U, 0x19cdaec9e1c8b74eU,
  0xc528bcdd5ecfe128U, 0xc75dba29e3ad45d3U, 0xf65717e10047513cU, 0xcbcb5bf94f47c0a9U,
  0xb124a739e102f42bU, 0xd01cf1fb28aae12fU, 0xf317fc2c0bc2a52bU, 0xc3dda048a41d2a30U,
  0x582cdf1b06fab7d3U, 0x285f0c2efbe0b4c4U, 0xb5b537b8391e253fU, 0x3d37af00f4ef44f5U,
  0x5ecb2443e71ad30dU, 0xdfe434c740e0621dU, 0x7e44a5fb3faf317U, 0x37d255d731c313c8U,
  0xf0cbde3e31bc1abbU, 0x561139a8eae92a43U, 0x2ddc322ce4de4b43U, 0xe4d14cb7dfa9cfa7U,
  0xeba6dbccb1e4aa01U, 0xc95fff2f1432159fU, 0xfc81e283a4c4445U, 0xf95bb72631be0b10U,
  0xe9cbff0bfb69c8b8U, 0x1eedf9c5d9f96209U, 0x28e115ea000663f6U, 0x5507ef4aeb5accf0U,
  0xc7b93330b85a1bc4U, 0xf227dce01f1bf9e0U, 0x54e35a5cb511adecU, 0xa720551fc3f7a9e0U,
  0xe704ed24412437c3U, 0xd0acf69dc355b62aU, 0x9eb6abf2d2a537d7U, 0x3adce9cd0a482217U,
  0xfe82bfd5b1118ccU, 0xc4f537d73ce1be13U, 0x1b5fdae7c254bb1fU, 0x12eae7444345d2e7U,
  0x1542393813c80c20U, 0xcaa326c8dfebab47U, 0x1fe8b6c9aedaf3c8U, 0x11b19f2940b2efdfU,
  0xb5a9441edca0b8d8U, 0x22dd38b923f9a6e9U, 0xca0510b8baeede01U, 0xaf61edfa132dd6cbU,
  0x54bfc507042a02e5U, 0xf3c868e431eac36bU, 0x3765d46dd4c5f73eU, 0xbe642859d0bf6438U,
  0x6314ecfeb6302520U, 0x2320b10715283436U, 0x57c350e4c7c92603U, 0xea9cec10ef7db05U,
  0x15dda1c595f0ff44U, 0xe2ea45232bcfdffbU, 0x3acb1f285ce19c17U, 0xd4ab5a260a583c33U,
  0xeeed0a02e954df48U, 0xedd5dd4a3935d94aU, 0xa052431beb44dc4U, 0xe5c14230ae2c6dbU,
  0xce13ab52e4f0cf01U, 0xce1c4c05e5b5f92fU, 0xb7d9ffc93252daecU, 0x13fac73335d14facU,
  0xe11043b9fcfce2b7U, 0xad56e33bede0a947U, 0x1f53e95b1c23dd49U, 0xe1465deeaeb6d343U,
  0xf3560c24c24300dcU, 0x9ecadeaaf947201fU, 0xc7b620e8f5bcea07U, 0xce1babf9dfdabc10U,
  0xc62123319d4faba6U, 0x3c2efbc92ed5a7efU, 0x5bf141b0d3ed2ecU, 0x121bb2ccbadbdee1U,
  0x4b3e6031fc6c6651U, 0x18000fe0cb696bc5U, 0x536856122d5b441eU, 0x1e365c5cf43807afU,
  0x600156071929aebaU, 0xb2e1ea14e037caU, 0x4dbb0da5d20a27c0U, 0x24d6c71ff0dbd6e9U,
  0x3e4728e137f2e4c0U, 0xf037b7e808ffc21bU, 0x375e63260df0f3aeU, 0xe9c5e4b5ca52051bU,
  0xee1869ca32266afcU, 0x1cf36f16ef08d4dcU, 0xc3cd5119d81c4963U, 0xe4fbd8f9c400e513U,
  0xfb3e5063e00a2f53U, 0xd6bb03d5f83bfddeU, 0xc5cac65816ebc80dU, 0x82f59efde5dabd7U,
  0xf9e9e61d11ba01fdU, 0x21cac6ddb959f141U, 0xb9120254cbdb4029U, 0x474b2713bb434e18U,
  0x315e51d43a46d552U, 0x1f5f33deeddcad06U, 0xfb61404f4dad60e0U, 0xf853b3f230fadc28U,
  0xc0ce492cde3846ccU, 0xcc18392440ad17aeU, 0xbab70cbaf227ceedU, 0x40b70f3e432bdcfdU,
  0x44d8bffdcdb6f6a0U, 0x98f324ce2efe2034U, 0xbb221bfc0b97e3d7U, 0xa1abed08b1f34fadU,
  0xae0a1d4b2cdc2934U, 0x21ed372bd94a352bU, 0xe24558bf2b0db641U, 0x51e32a0c24e1c0b7U,
  0x58ea42d13dba1c3aU, 0xea2328d23235a53aU, 0x3359f42fb431f4b8U, 0xafc6bf116525e706U,
  0x29d4464ae5471660U, 0x201c6434b7501dc1U, 0xb14a0311cd3b3dbcU, 0x454eeafb14da2729U,
  0x453549f7deb2fa2dU, 0x30cad2bacb4acbc1U, 0xf6c0b62e099be900U, 0x15c4e2ef2e98d89cU,
  0xd8c1c322U, 0x0U, 0x0U, 0x0U,
  0x0U, 0x0U, 0x0U, 0x0U,
  0x0U, 0x0U, 0x0U, 0x0U,
  0x0U, 0x0U, 0x0U, 0x0U,
  0x0U, 0x0U, 0x0U, 0x0U,
  0x0U, 0x0U, 0x0U, 0x0U,
  0x0U, 0x0U, 0x0U, 0x0U,
  0x0U, 0x0U, 0x0U, 0x0U,
  0x0U, 0x0U, 0x0U, 0x0U,
  0x0U, 0x0U, 0x0U, 0x0U,
  0x0U, 0x0U, 0x0U, 0x0U,
  0x0U, 0x0U, 0x0U, 0x0U,
  0x0U, 0x0U, 0x0U, 0x0U,
  0x0U, 0x0U, 0x0U, 0x0U,
  0x0U, 0x0U, 0x0U, 0x0U,
  0x0U, 0x0U, 0x0U, 0x0U,
  0xdbf8f86b00000000U, 0xf96503b83d7fb0eaU, 0xe2f0ec74d8d3394fU, 0xefb7edde0fa1a4dbU,
  0xf4328c9d4ded51f0U, 0x65b193591edfbef2U, 0x5f20f97a45f509efU, 0x3b5bae4dd769d6deU,
  0xf6213ba6aebd22e7U, 0xa319df462d4dbffeU, 0x1cecc2199712db39U, 0xefdc4db2519bf831U,
  0x593805dd24e10459U, 0x9d020cd26131423U, 0xddeb9cd00e5c527U, 0x5b5d23fedc1b1051U,
  0x5c17c6fb3d67d12bU, 0x20ca062f3ec9ebb2U, 0x4a0ffc3b2563445cU, 0x5d37d3e0bc0e015cU,
  0x3b0c22f524d453fcU, 0xc2b2fc5bd8c20f1fU, 0x51084c102655b21fU, 0xc1efb48c116ffffU,
  0x41f81225c845c6d5U, 0x3f3b2418aec22260U, 0xd0f59e00f1470a01U, 0xeaf4d5c0f5b7aad3U,
  0xf7fb00dbaeb958e4U, 0x72ed4de011429fbU, 0xba15f9f4d74bb6d9U, 0x5a19e5a10d03b0deU,
  0x3132fd30a1f94cfdU, 0xbcc9bab2d13cfe37U, 0x66fa2407b2b1ef38U, 0xd1d63e0e3e38a031U,
  0x62b896e548235bb1U, 0x5bf33e2b0ec7fbe5U, 0x30f0e864aebc4654U, 0x211d1341601626c2U,
  0xb6d51d2c3e17b857U, 0xcc5314e4b5daafdeU, 0xfe22e714fecf4e51U, 0xf110b0cc24f42e57U,
  0xcd5624ccaa5a392dU, 0xbf5eb4df13c536fdU, 0x26cdf037e745c5fcU, 0xd0f631a43b3917b8U,
  0xc34d28ae4b6adfa8U, 0x2fd6e03e16f1610aU, 0xe74ff19da3c6d7d8U, 0x3fbc345755270cccU,
  0xebcf41340d41cdaeU, 0x453500d912c4a834U, 0x1ff967274daaaf02U, 0xa19bc133b0739c3U,
  0xe808ff46f40342a4U, 0xf99f3aee25e5adcbU, 0x5401d328fdc19f1bU, 0xf2eee0f72f4efd06U,
  0xbc970a3658c3aaf3U, 0x38faf0431cf4ee5bU, 0xccd1e2df12de8aa5U, 0xf923061bc0d35eb5U,
  0xea680103c4c1992aU, 0xa03c1631219ff617U, 0xc1e73701470c2119U, 0x2402d2bbb711523aU,
  0xb614cad215a33a50U, 0xdb54bbd48fa71eU, 0xed0b4823d8f201eeU, 0xa3a7cd1f40fd9f4fU,
  0xf66a55f1db4acf0bU, 0x2a9cd3ad070ba148U, 0x191ec2af07ea1127U, 0xf2b530d13740edb7U,
  0xd9fec3642529b1ecU, 0xb21120ed24450a19U, 0xfb112cf844b1dcfdU, 0x25a8b264a9d4c24cU,
  0x2b4808ee614d0f31U, 0xbabacae122b801c4U, 0x3b48b124ec3af0b7U, 0x494c453924d2201eU,
  0x3bef2a552bbf3510U, 0xca582c3cbcc3f2cdU, 0xc5f5e849c0d8ebb3U, 0x42b4eabe0f2813e9U,
  0x26013ddec1bc1b0aU, 0xda0bca09f5fd0b0eU, 0x3aa1411b9d48cb53U, 0xc72c19c0e5dfc64fU,
  0xa9eec1ffd107bb2bU, 0x3e591ec0f31b352fU, 0xe7dd1508e056ce13U, 0xb6b9c7e4e94b4309U,
  0x31f0a5b4d0bbc94cU, 0xbdb70a67608d171bU, 0xf2f25d321abcda12U, 0xb75d6b230127ed06U,
  0x95ca4b0f8ed4a8f5U, 0x47de610b15ef9be3U, 0xd230222f24ead5f7U, 0xa7c755de91c6d30bU,
  0xe66451863133515U, 0x36a79615acf131b2U, 0x5802c7542d222cb6U, 0xe9c4d00d41254b1aU,
  0x10abfbbace889f37U, 0xd391292baaf532ccU, 0x6d43d318cf0e2248U, 0xdbab0eee0547f44eU,
  0x57fb01073eb5e1ebU, 0x34b3f1c93db7f532U, 0x13b03306a9f0269aU, 0x37f759183efd1fedU,
  0x2de62433a409cac5U, 0x212269e0e3f1cccaU, 0xed3c425351a2952U, 0xf3cac5c8eb23dec9U,
  0x1ced43d8c42753f3U, 0xf73c2b59d02fbf43U, 0x5a4e0ddf5de223edU, 0xbabbfc18c2e0edb6U,
  0xdb169cbdeda1b227U, 0xb43a1124b50ba313U, 0x5f0db4f5c61404d8U, 0xe0df4f2c2e031232U,
  0xb200dd02f139f825U, 0x1743c82df3b243bcU, 0xc8bf21290b4aeee2U, 0x3641c31b63f34cfcU,
  0xadf22c02190c19ecU, 0x235355d3ec41d651U, 0xd6fc15174fe604daU, 0xdab7c5513cce2a59U,
  0x935e43b20394238U, 0x1fd70b474afd3025U, 0x2ca63fd1c4bca7abU, 0xc117fef213bc5f2fU,
  0xfcc7423d1a25034dU, 0x5703c05e53381b21U, 0xe1f710f0c2a80c53U, 0x99fd010c202e4a46U,
  0xf257a6ea30db47efU, 0x3ec3260344dff0b9U, 0x2de90c9c2e0bf324U, 0xb0485ee815fa25ddU,
  0xe6caf1473012e93bU, 0x39f6d601b6fa042aU, 0x3fd3f2a93efcecd6U, 0x48ab26e6b9bac0beU,
  0xd00ffc51b9a6fa4cU, 0x31fd1a35c1d73506U, 0xa94ac0c1e7d90650U, 0xe8e3c821ee545a3dU,
  0x15f69d615efd0513U, 0xe326d8e8dcd2bf75U, 0xee35f2ab48c8af4fU, 0xa6cdf3f41640f9e4U,
  0xbdfac295151e07d6U, 0x11bec95633eb16daU, 0x1810eac42c3b1cecU, 0x1c62163d73d22e41U,
  0xed46b75dbeb3a3dU, 0x5b240e202f213d1fU, 0x43fb71b9fc945a04U, 0x1bb1f231a5a14d1bU,
  0xa64d49effe21279cU, 0x62eb15c6e6eba2c5U, 0x511167000af0bde2U, 0xeae11d26e5340d10U,
  0x44a824f356b9d427U, 0xace704c04f4c15f2U, 0x531c37285a2dd4f5U, 0xab05581aa939d621U,
  0x1a13472450161005U, 0xc41b2042dbcae0e9U, 0xd43a3cc851b91e4bU, 0x23bc20b1c29cbd55U,
  0xf35131294c6633bfU, 0xd59dba4109e23feaU, 0xfdc5f33dc72f3ba5U, 0x430cc9e3e1bec3b4U,
  0xf4dbd7069ae23454U, 0xe139d33c3af0d4deU, 0x42e50ee1c015df19U, 0xf7d3ea91c4d721f9U,
  0xd0ea403bbce2331dU, 0x81e24dbffac09f7U, 0x382722beb715492cU, 0x8ce491b1cf5e0afU,
  0xf8b70ef8d3424dc8U, 0x173ccb91e610a701U, 0x5c3e10210ac4edccU, 0xd20fa7e7e510442cU,
  0x5fdbc2bfc248efdeU, 0x4ec14656296eff8aU, 0x2670add4dcf95a29U, 0x22f110ca0cc3d725U,
  0x4e1da9daec053167U, 0x2e204812e14853f4U, 0xb4993110f6ae56f6U, 0x6245efdfc7e9b1b9U,
  0x380d1bf0c1f50a55U, 0xbf1715e12cf02b96U, 0xd5fd0cf30ad2e1c3U, 0x55320f2dedff2bbfU,
  0xb0dd413fe6f6fabaU, 0x30d6e4f1fec726e4U, 0xc4eb3eb43104c1bcU, 0xdbe0b816fe642755U,
  0xfcb83d71d001124fU, 0xc805243cf2f1bfe0U, 0x26a5c7455692ce48U, 0xad22c92c26980ce3U,
  0xb8164ccc4cff303dU, 0x291deaaad506b2bdU, 0x22e3e145d43a9bc9U, 0xb05402c7441436cbU,
  0x41ca3411b301a11aU, 0x45dbdef8d5d5cf35U, 0xde0d359eaf18383aU, 0x96134a070e1e101aU,
  0xb63426195dabb3faU, 0x2b4dc5cbe81b33d2U, 0x5005261e5303c9bcU, 0x49cfacb82036f134U,
  0xf504b4ec6b055ad6U, 0xcaa0deec06e54ad4U, 0xf81fc4030e17262eU, 0x6955d43e624d02f1U,
  0xf9c3a9e511d19bc3U, 0x3a560fcd28ef6126U, 0x11fef11a22af46dcU, 0xd7bbbe310cc212a3U,
  0x320fcff69f2f002fU, 0x2b334151fec2f0c8U, 0x2e20eb3eae3b4a48U, 0x4f3b43483f290d27U,
  0xe05938da1d1a10d8U, 0x3fd04c4ee5e44ba9U, 0xc8f444d614a206d2U, 0xd305ec49303dfbadU,
  0x18f95907e80a0f08U, 0xcf165707210104e2U, 0xa243ac4723212e14U, 0xc0f5b2a7e9bdb02fU,
  0xe4e1300958b21cdbU, 0x5d21a1e5ffabccc9U, 0x2fe9f8bbb7e43838U, 0xadf50736e13af91dU,
  0x6bb4a165c3da406U, 0xc123f302af5562d3U, 0x2f2e50d53f03d5b8U, 0xc1340b1631e901adU,
  0xf51c00b4c8a73e42U, 0xa92d402b52cb5bf2U, 0xa5d91b110b354de8U, 0x35f7f20b59c20b17U,
  0x1bf32b47e2c9b950U, 0xdd0ed0edfe473dcaU, 0xff9cf7ba0e320e63U, 0xf2b90c469e4a1719U,
  0x28272e16bddfd23cU, 0x26d340e6f704fd40U, 0x16d7041ac54ccebcU, 0xb705e60d354b3a0eU,
  0x1008bcfcbdc6b210U, 0x3b32e3f201efd33eU, 0xf009e75e5de1bfc8U, 0xfa4d2753cf1fb728U,
  0x3b27cd3b36ff0bd5U, 0x61ea213597bec00fU, 0x465401385dc332b6U, 0x79cc52627118c2eU,
  0xcd16c786ed0a2805U, 0xabefeb5f5a4f4bdfU, 0xec258d4bb5da4daeU, 0x582cc31ac96a33d3U,
  0x45f038bd24e3dc3aU, 0x4760639d50836dcU, 0xe9f4a2f1ba1d040aU, 0x143e0ea4442a401dU,
  0x5fe736f9f95626fbU, 0x10d847250b39081eU, 0xf0361ae8dbf9f1c8U, 0xc8e13afdde06adf0U,
  0xf907992fbe50c2d0U, 0x95b5a33d5c954944U, 0x9cf6e1f2b2b2d8adU, 0xf2c30cc20936b3f0U,
  0x33b6d815f71fb6ebU, 0xf2bd53e6e9ebff39U, 0x44c38ae3ae5e80eU, 0x580eecc7b62a37f0U,
  0xee6b4a3c5e1930cfU, 0x56c9122dc03a14bdU, 0xf84b333df72b1a09U, 0xaa38d9153a42f0adU,
  0xe00e5b02a10f3fdU, 0xd9bb3830cf3c1c53U, 0xe2ae4edd395056dbU, 0x3cfc46415bec47f9U,
  0x43bd1f1accd2f6e5U, 0xd5f4cca0256e9d47U, 0x92cb6574a2d0f5dU, 0xd1d2ef05c8e2ba43U,
  0xdd0290e8fed7e93aU, 0x3baa5d9216c1fe9U, 0xf15dde54d5622f1aU, 0x375deb0ec23f512bU,
  0x2eafaab944eb10faU, 0x17503d2c12e851faU, 0xb9f2dbeeb3323b2bU, 0xdd2ac2ee24b6d02cU,
  0xcbf72cfcbbea02e0U, 0xb64edc1abfe03122U, 0x9b21fdfd372f5eebU, 0x13c60520b3f242ceU,
  0xc2b0c428c61b1dc8U, 0x39b4d231589b28ecU, 0xc5a5ffede441b73eU, 0xe717dfae1924cb25U,
  0xfd4c1ff59d3a97f5U, 0xe511e3d4a1aaa36aU, 0x9ef5d812a6cb42e3U, 0x5fc69aa19a9deb5U,
  0xd9ff40ed0327bc0fU, 0x5be0afe0b0827e2U, 0xc046d20ad6b3d21dU, 0xdc2e4d52551530f1U,
  0xb6ff0ad5e6ba9944U, 0xeb9944a8e93fc72dU, 0x3254ea1cca9f03beU, 0xeee71a5eda574101U,
  0xbbdd44fb4acb154dU, 0x99b3b91dbcac0a4bU, 0xcde129be452218cfU, 0xa2e7b242162d462eU,
  0xa2ba3bc425154b4dU, 0x1f0ef2bfa6b0eb41U, 0xb1f13dfae8e1e417U, 0xbcd23c9f04dcec08U,
  0x12da1d47ec26541eU, 0xe5ba9f32b4255311U, 0x4cec500aeedac61cU, 0x3ad2125be737d349U,
  0x352f16c43f11cca5U, 0xdbcafddcf4e90427U, 0xf7e1bf19fa2752bfU, 0x45d3296626eee717U,
  0xd70ea92f41e72fcaU, 0xda63f6f85e07c2c5U, 0xbfb43d22ed5dd8caU, 0x111d236815d216d0U,
  0xd6d8cfe947125ee2U, 0x481a49250b3dc7ceU, 0xc44d08033b2cc8c1U, 0xe1c0b34f2cf442e3U,
  0xdc1106c00e42cb21U, 0x500b2bc62e0b3d12U, 0x1d4ea8ccc2cfdeb1U, 0x64c9f70035a4e721U,
  0xce1e16be22e0e4c3U, 0xb25dbe2258feefc9U, 0xd126a3ae24b922cdU, 0xd1a23a24d0a90de3U,
  0xa54f16ce4edb143fU, 0x57c6c0c5a1c3d34fU, 0x80fe5343d4fd8afU, 0xd8d4182d1015b117U,
  0xba05f2d34b5ae3f4U, 0x3c5f070e09b1c326U, 0xce6225ff571f314cU, 0x1751dcde3a33b0baU,
  0x1acbb9b253353450U, 0x2e461c1bd522a545U, 0x3a4475fdc132504U, 0x56183947b2e41d3cU,
  0x3c36ff394ce838bfU, 0xf43f19db293e36f9U, 0xee22e8d6ee4d3fdeU, 0x63821a5479c09eaU,
  0x2bc2ffb10c72b9fU, 0x11f92a0aefeafea4U, 0x5085560cfe8f8efU, 0xfed7f9e7da37a90cU,
  0xe333e9483041d4e4U, 0x4a10d46df7436528U, 0xc53dfc8c74c40c5U, 0xf4f148ed59b847bfU,
  0xb9bfcfce29faad6bU, 0xcdc7d3fed642444fU, 0x229af1113ee64709U, 0x36bbf64401ddf42aU,
  0xf659cd4f2d2ef5e3U, 0x1ee3dd8252efea8U, 0xa9c0021a0905350dU, 0xb037fb401f9be8b5U,
  0xc2f5ecae19d7c3eaU, 0xa119bb0729f2fd14U, 0xcb4429c5dcaff320U, 0xa46012c1484ad729U,
  0xf8c1ebf4fb90b7c5U, 0xb8df1c16c78d091cU, 0x4834f1f841a1e628U, 0xd8e71e05541703c6U,
  0xc0c09b03ff9c502U, 0x158a13c142622a34U, 0xd1aafa203c1c47c9U, 0xba1102193dc244e3U,
  0x4fcaf1d01910e446U, 0xb4f830cfcd55fa46U, 0x2bd2f9a2f117161aU, 0x3f4aba17bb12f1U,
  0xdef5de46622941c7U, 0x152f303832db153eU, 0x80a37c99f20e90bU, 0x4bb907d56a253836U,
  0x4946b26d3fa14411U, 0xa4c0de2b46bd40b3U, 0xfa19e5c1f503e104U, 0x42e1044de52fc5d3U,
  0xfd3ce61afc39292cU, 0x5d2cf54a51bbb525U, 0x1bf2d83156f3e13dU, 0xd75a0604045843b3U,
  0x2c0ec0a3d4424d5U, 0xb117d8bdd1f8c80bU, 0x121aaecfb4f3cecdU, 0x54205570a201cc8U,
  0xb39331d90839b22fU, 0x3c3533ef1a3bfec0U, 0xe1c9a7df22c524e9U, 0xf096e30c9704f609U,
  0xba48a727ff6d60daU, 0x43aaff46602ce313U, 0xe8668e17304ce127U, 0x6e3abc913ec4620U,
  0x1fa8cbc7e83d34c7U, 0xfb64f8c6dbd704f6U, 0x5a4f1cb8f3d7133cU, 0xc4b4fa42f72fb1abU,
  0xf1442929215b2704U, 0x42c010df584b76fbU, 0xaa620da48fa240dU, 0xdd3e533767f5f730U,
  0xc1a43cca39c61f26U, 0xdef417dcbcd712dcU, 0x5ad026c619ff244dU, 0x481c38eacc8dd200U,
  0xd0f91fc2c6612749U, 0xcb4fadb02693136U, 0x59c6d65d426a140eU, 0x3c3300e5620308e0U,
  0x168dadf1cdb12c00U, 0x973fd53fed2e5ff3U, 0x3635020c94f842b9U, 0xca15d7cfc6d316a5U,
  0xedecea2c270f4530U, 0xaff231e8f736452bU, 0xbaee121f1819305eU, 0x305b9c15cf2e6f2U,
  0xd12cf8be2cbbd55dU, 0x6044960f207ebdaU, 0x5914f0deafb7b84bU, 0x2902c21633523adfU,
  0xba41666ed094eeb5U, 0xf4e7b4e6ab1be0dbU, 0xc04e66ca1e04b7fcU, 0x385eee309db741U,
  0x37050648215a46a6U, 0xe52bba220cada124U, 0x294b5df0e031a81aU, 0xf858ee54e2d8fc4cU,
  0xf99cc383b9315e1U, 0x21c2c9434bc8232eU, 0x6c695122da3abb4cU, 0xfec6a8bde9145c30U,
  0xa60057ff43ef0014U, 0x47b9e315d3549d01U, 0xe8aeddc2d23bc24dU, 0x54144aaf1a3360bU,
  0x16231dec16c52cf3U, 0xc3c7b00e0f414925U, 0x1d53c4b3cbec02d2U, 0xfb454ac22dee36bfU,
  0xe42cc6f5ef43a946U, 0x30ff1d13b4ba30e3U, 0x3acbbd2ab735e560U, 0x16ecb4e156e704b4U,
  0x27c339abcec91a2eU, 0xee4dce30be32c0f7U, 0xc4e3fb4b2ff559beU, 0xfcf916060f0aaea3U,
  0xf0086e0ba811a50dU, 0x65050bbef0284dd5U, 0xd76030363f13fbc7U, 0x5dc9d351a9d5acdaU,
  0xe9fde4c6115869d3U, 0x2fc61234f9e563e6U, 0x523d325df75fe3bdU, 0x33f0d108ff285735U,
  0xe8c083801cf0773U, 0xe2e7eaf33abcc216U, 0xe837a1098bd720f2U, 0x53da3be4fd20f11fU,
  0x14d7490d115c5568U, 0xcc3b4bba651eb2a6U, 0x454601e7b3434d04U, 0xf7c494371214304eU,
  0x3b05edc1ecf86254U, 0x56d868bee862e83aU, 0x26e6262d5306db42U, 0x1bb6b045b0b69c46U,
  0x4cf29c3e0f49e63dU, 0xa59710335bc8e2baU, 0x32faccb7b8c74a21U, 0x29cdeeb02636eab2U,
  0xfba224eb570ac03eU, 0xd219becbbf3631e8U, 0xd7fa03033e0a26e0U, 0xae1359231df49748U,
  0xd83321ac04021102U, 0xc5febb0be700df23U, 0x96a028ff3e3a3c19U, 0xedf127b404351a0dU,
  0x9d06ef920f8c7cbU, 0xd2502cd898378feaU, 0x511a1a093abd062eU, 0x47fec6dd2fb5dff5U,
  0x565cef0eb9fc00fbU, 0xbacd193e07d4b098U, 0xcb5ad9e55a46acd3U, 0x30f6ea312742df52U,
  0xb894afb532daa5d1U, 0xa3695964e238f869U, 0x7ce3a68a0ce55b4U, 0xd7df00cd5826bbc1U,
  0x6afdbdb93639c71aU, 0x1b23ff04f5373b8cU, 0xd3ce54edf20cf31dU, 0x36d038a146cc10f7U,
  0x45ebcdf6a5c62417U, 0x5015cb2904c2c1c5U, 0x5109271d5e26f423U, 0x59328d1a9c8ab7eeU,
  0x3152c9cde5635ed6U, 0xc319d3ce665e1a9cU, 0x858c9652e391f51U, 0x6c2cacb5fc1328dfU,
  0xf1b31faa96114839U, 0x952a01c9170c251aU, 0x6035e2230fb637c7U, 0x4c9ece216bdaa1f2U,
  0x663bf3cbd40926daU, 0x124edae043f14b95U, 0x250315aeb3db68faU, 0xd3c5ab0f428e31ebU,
  0x393cab9390f35befU, 0x16140ebc1f314bb8U, 0xe5dcd59b2fb64e51U, 0x8e5642eede43b04U,
  0x2d134c6b01d3e72bU, 0x3e8fc17f4bb483cU, 0xfd3a364d07995b2eU, 0x17210d2ddf9dfb48U,
  0xa8f8f050ca1357c8U, 0x75f53f0e2e22b99fU, 0x447dd34d4279028U, 0x31beeccdaf033c14U,
  0xc9d1483cce9defd0U, 0xf5b8b8c7f0f5ca05U, 0xdf6c03a734cbcfbdU, 0x9ef554b402ea140bU,
  0x381f420b49b9a2deU, 0x283f18412427b2c1U, 0x52bccb54d81b49f0U, 0xd03ee0e494c1b0c6U,
  0xc4dce906cb444e05U, 0xf02a0df2f909ef23U, 0xebaca05de3bfe09U, 0x2a3cb247f04bf739U,
  0xebdeff25042bc711U, 0xab09bcde49d1bf12U, 0xf0b4be43104002b0U, 0xd309d6acebf834e3U,
  0x175f301ade3ee2f9U, 0x4e1ec09dd044502cU, 0xd1eb23ed23ede61aU, 0x34d3ea24b9171a4eU,
  0x41e969f4a607cbfdU, 0xd90cf4bc05e81db7U, 0x110fd72ce04be2deU, 0x140531f610c544caU,
  0xf14b0a1a2cc860e2U, 0x225bcad5ed1fe027U, 0x35651e640916362cU, 0x3f473029f73162b5U,
  0x3dc5420beda89d0cU, 0x14e8beaff5fee5c5U, 0xdd9e334794cc58b7U, 0xe417a321cf0ab35cU,
  0x8aedf3320fa3b5cU, 0xf80cf6bad8dafbeeU, 0xc7a9affa0658312aU, 0x23f9f7e34eb009f7U,
  0x17e0ec8e41c0651cU, 0x95a1a734c02e1e0eU, 0xea1718211923d2b5U, 0xb5c7cd4f00d02610U,
  0x253c1c544900ddb6U, 0xaee2e043288e1020U, 0x25312338d224c7fcU, 0xfb2334a9abd32945U,
  0xae0d32e6d1ff03c8U, 0x5513a23da923880aU, 0xdb3261a340119329U, 0xa3d537d0092ef4b9U,
  0xa821bfece39fee41U, 0xf2cdeafcf45fc813U, 0xce442605be9b06f1U, 0x338e366054e1422U,
  0x33c2a73765f59c99U, 0xde4feeb32deb4d27U, 0xb8cf2d422f1c30faU, 0xa5ff6051dce5e55eU,
  0x39154a71e8a93becU, 0x4dd7382626f4c9adU, 0xfda8390e363d3ae4U, 0x369fd8d7ccc0d456U,
  0x29e9055ae7cd42c8U, 0x5f38eac0b1806c2U, 0xa45b213533b3e032U, 0x3fd82defee33dbcdU,
  0x1d321c1a00c83dcbU, 0x4ef7d4d244c02c55U, 0x43edfa2acdb39cecU, 0xd6f7f9ce4242005dU,
  0x1048c4c054ca0b0fU, 0xcbef055ae55df4eeU, 0xe4e84bf32f335008U, 0x48ad25e8abe6c929U,
  0x6633cde2afb8e7d1U, 0xd842320bfeb249b0U, 0x553d5b33cefa00beU, 0x4616df25fd2fbb18U,
  0x23eaf423d2e2d9baU, 0xb3c4f2c3e73f0024U, 0x47d5d052cdcabcfdU, 0x57d10fb6f0fd2d05U,
  0x6dde0aeb6edbfdbU, 0xceca00c90120beacU, 0xf9e9e7e12d5707f5U, 0x331da3f30ad0c6e5U,
  0xd63de05add5dafcfU, 0xccdc2c3724e5eed3U, 0xcebb41f7ff262055U, 0x3c2d11360d0d293aU,
  0x4b4af7b653b5f2c9U, 0xd7d4e6ef33c7c1cfU, 0xabf02ec6eeba22aeU, 0x5128490a44151732U,
  0xabdb4c37b7d44eb3U, 0xbff5c4e9cdf2cc56U, 0xf2743bd0e19f2e7U, 0xdd25b01ff1c5b5b6U,
  0xc4b4e803f6dd08fbU, 0x2959e22b3fdf2cc0U, 0x36cfb2d5e9d2235fU, 0x3ed3b605cac1411dU,
  0x5f5979148c6f4e7U, 0x3ec30bd4cfa55b2eU, 0xb8546adeb3e83fb6U, 0x24484a16db346e31U,
  0x44266e12b191351cU, 0x246ad81dab8dab2dU, 0x5333dd48d92165beU, 0x23c3e144179043deU,
  0xb42a711748dafeafU, 0x7139c00cf4df8b36U, 0xce5f35a60415ec1dU, 0xa6daa713aa4f08f3U,
  0xf0aa3ef031fa43c7U, 0xbc9ba3f8321de7e6U, 0x294cf0bf0ffc20feU, 0xde3a3dee47d3ea35U,
  0x151b3bb25cfdebcfU, 0xbcac09ca6727d7caU, 0xd2ddd4e1de15b5fdU, 0xc618f7dd08732816U,
  0x240b0e1d2b90f863U, 0xc3efd6401eafefd9U, 0x2fae09c753b965dfU, 0xcfab4d27a3ffd05dU,
  0xff6f37ccbb5a003dU, 0x4a15db09dc0f94a3U, 0xa70713efbf1bb9ffU, 0x24e1f55fe0eacf55U,
  0x3fe316126837e5bdU, 0x4d81b2b5a2f1a42U, 0x9dcbd17bfa71e55U, 0x2f23474d2625f219U,
  0x192327134ac11c04U, 0x4c4f40cc43552fe4U, 0xb12bc64239b40a3bU, 0x485f0222f05002daU,
  0xec9ecc43ac3e0a4bU, 0x245e6593a292025U, 0x395ddf4a05aef1f8U, 0x423a30b344c6ae4aU,
  0xfe30ce130bce50c9U, 0xc0315ffce304a42fU, 0xf915adc2215f03d0U, 0x28c70e06fe3f37f1U,
  0x1a5a3eec0cb6ec19U, 0xea2dee6152b02c14U, 0xf8350fb5f6f6ff24U, 0x3ed950e0a1abb82cU,
  0xf3e6311836ec0f4bU, 0xa5071c013a391c4dU, 0xcafcc2d16e2c7c9U, 0xbe3f1cf0f53f3d49U,
  0xf1fb3e26073fade0U, 0xc7bfba55584917cdU, 0x46b42aea095250d3U, 0x6a0ed0d85316c1dbU,
  0xc2a4d32b5d0ab7ebU, 0x2cd4c4baf8e2fcdaU, 0xf3210614c74a59edU, 0xd5e2c9d52e57d4eaU,
  0xff2b23d2df3d5511U, 0xb4254426c434350aU, 0xdc9ed50b264e3b26U, 0xc5d9b9dedda3dfa8U,
  0xc356c8019fde0219U, 0x4c3d3322f2e10cd1U, 0x1bb0bda8a5c1e912U, 0x4d6b3030b06fccdU,
  0x2349233fd0e02416U, 0xeb3ede09ebd7f2e7U, 0x58c2f9253f084a25U, 0xe7bac233d4bc4324U,
  0x25ed2af1d7e25e3fU, 0xf0b3bed80cb0dd9fU, 0x57eef7f0be4802c3U, 0x44282e5aa857c640U,
  0x112db3e0d09a3907U, 0xb3394bedff4c3135U, 0xec2014fac4bc1952U, 0x35e2b4ed0f252b25U,
  0xa91a0c333db6b62eU, 0x510a0c1d3b48f627U, 0x3c9024544cda647U, 0xbfeb9fcfe9b82b01U,
  0x57f64af0f8dd32e8U, 0x6b95701b54e3c3aU, 0xff4dd8092d40e4b5U, 0x4633f3bb1cda55faU,
  0xe547bcb0d8dbdbf9U, 0xda50db35e921f517U, 0x33c8b0c6a2e90b30U, 0x4a010f94c3a38aeU,
  0x214805aad3091aU, 0xd8b5b545dc0d09e5U, 0xa2f2eb2555f509a4U, 0x2ecdce3b5a08ac17U,
  0x583a1c033e30c3feU, 0xabded95825db2d3aU, 0xe79b5ebf381d12f3U, 0x22f6d3fcda40e732U,
  0x98f213afe49e1742U, 0xba1b1fb73b42f22dU, 0x45ace01a0323364bU, 0xe9d147d7ecbbd941U,
  0xb3c34a5c02e4cdebU, 0xed3eafe40b50bbbdU, 0x3d19d4de1d30babcU, 0xf3dad9b2d111e9d1U,
  0x27b44407cac232ceU, 0x301d019cdbb3bc4bU, 0x20ca121b3f6e317U, 0xd3efe743f839603dU,
  0xe2aaf32749d72bf7U, 0xd945122b36d8cc11U, 0xfaca272e0ab9dd1eU, 0xb0e29229e4cacac7U,
  0x2dc3fa280f2dc9b1U, 0x18ecba3cddf89e0dU, 0x413adec5f7c510efU, 0x6dd3fdb7bc024bb9U,
  0xf1aed1d643f80429U, 0xee20f5f524eb2becU, 0x13ba1af1e832d7b4U, 0xa0c42acbe70bafc7U,
  0xd6cf4e810cd1feeU, 0x22d549a22d152e06U, 0xd4e8f604fe07c04cU, 0x6f22d24cffd21efU,
  0xd6b6312c3ac63d41U, 0xab04a4d04bde3042U, 0xbefcecd5b7a9dfe6U, 0xb4c7bdf651cf0b2dU,
  0x1da34241cd37b7dbU, 0xe40cfb4529514f2aU, 0xd431f42012f41fd3U, 0xb5ecbdddff1d05e3U,
  0xd8caba12fcc0171cU, 0xbca54726a64e0a33U, 0xefcaf2fc13ca2913U, 0x2c18db4dc82920e0U,
  0xc4350faf433bd649U, 0xbc2dc035dad41354U, 0x43df14193cec2ed9U, 0x232fed1e06acfd04U,
  0xe3a916f4e1e4e39fU, 0xd4e523abbcb92bf0U, 0x590bcd40b93ed7e4U, 0x1d0fdacf26015523U,
  0x31ceeef4f8514132U, 0xaec94c2445171ce7U, 0x4902113e333d46ddU, 0x5ae42d025916ca06U,
  0x5e83ed32deed81cU, 0xc726305bfafdb30dU, 0x32a9d74429e8ba0dU, 0xcc2fc336e536f002U,
  0xc64b09cfc2e01bdbU, 0x352ab65ebfb4da33U, 0xe7dce718fbfd4859U, 0xe950fff1b5c925d6U,
  0xd662fea2f8bbf94bU, 0xd0528fd2189904e0U, 0xc41e3ee0e232c63fU, 0x162e3c5aef3112dfU,
  0xd5ef4970132cb8daU, 0xba61dd3fb59be914U, 0x3b011520f5882628U, 0xaa2644c8db8650cfU,
  0x436f7bf5655ade2cU, 0xf017a128adc7bd1dU, 0x3f35125d82a0e9aU, 0x2173973dd9c92f43U,
  0xfc16ee4d57a5f5d2U, 0x36d9abbe40b11768U, 0xf1f5a3c8119c9fdaU, 0xd33e4bf829354108U,
  0xdd0a09db732b2bfbU, 0x3959d443d034151fU, 0xecde352ac2e9b359U, 0x18c7dbcd35a63cd7U,
  0xc3bdea9f51cb1f43U, 0xe48ba57d901badfU, 0xbb24c535451f192cU, 0xab699c04fced0c22U,
  0x1ac1df250637a0f6U, 0x71feaaff7b8f8cbU, 0x1f9abbcaef361c31U, 0x341eaeefad47d513U,
  0x12213314ddf4d6b6U, 0x532ef314c7ffdbdeU, 0x4a08d4ffb226fbf3U, 0xfbeeeea4af9be1aeU,
  0xe0489831344e3ebcU, 0xbf1fac620efc7011U, 0x44dcc20cc30f34ffU, 0x9b3d2fcb466af19cU,
  0x3f9af6749e27d931U, 0xffe4d4cbc4be3eddU, 0xfadc2aa5e2e7fec6U, 0x320b472c329ec24aU,
  0xcd0e37c86dee302eU, 0x5b8814f60e26aab2U, 0xf8c52aefeff719fbU, 0x37da2f31d2c6573bU,
  0xabd9c1671aa9ecc4U, 0xfef7074e0159ede5U, 0xf7d4dcd1321e8cc7U, 0xdcd0d3f4366101d7U,
  0x32e19a9154ecf5bbU, 0x9526e4426c42fa46U, 0x40072fb73111423bU, 0x19e162e0db31d640U,
  0x3c31cd65f0a1cb29U, 0x2967ddf4db2831faU, 0xcb986d0e5210cb3bU, 0xf5c8c201a096b25fU,
  0xedd80cdaebca27e6U, 0xf60a8adcd8f60cc4U, 0xdb05f91c58d5b3e8U, 0xfb68e8e0bb2c3123U,
  0xa4d6c25e3da10a12U, 0x26cc2930025abfcfU, 0xd9facd204e43b832U, 0xeaf5e80c413d2433U,
  0xa59a1e2f62b11fd3U, 0x2205659a2bd8cdcdU, 0x33393e2d4e4e19a9U, 0x3e14df1ee438a1b3U,
  0x50589d87093cd82fU, 0x40e61fbcb83fb521U, 0xca0d085f081841e0U, 0x5604ab9d556bfebU,
  0x26d1ca4d0ee443b3U, 0x9be16f0cb7f7c906U, 0x205da502f3a5ad2U, 0xb40de0d407d1a82cU,
  0x146e5bec7214a4eU, 0x515f25efdfeecdc8U, 0x97a4101809f1d659U, 0x50e1123e2b99d302U,
  0xea8764fae5f13ec5U, 0x5eb2fb03260d18c2U, 0xbe1c3562d918e7f6U, 0xbb9aced3241baea8U,
  0x1a51e7871507e402U, 0xf0bed7ecc42ce89bU, 0xe26de70a37df2fcbU, 0xd46b03c9d53de0a8U,
  0xfb358cc641f2a21fU, 0xeb04314506174925U, 0x2ed7d85ee8f33652U, 0xf20f67415e01f534U,
  0xc53910189d1ce03eU, 0xe52c65b0b5423cebU, 0x1a95cfed5460c527U, 0x421fd744b8b91014U,
  0xc8ddefeefbf5ef6bU, 0x2bb10c26e7edcb5bU, 0x4cf0462605dcf4fcU, 0xf429e0dff7c930a8U,
  0xa9b313531ed9352cU, 0x25ae61bb392eb74bU, 0xf3f53dd7422af14fU, 0x3aed5ffae0daab24U,
  0x42e2c3615fbd405U, 0xfe5820e5b2e7bf53U, 0x3353611ae0042feeU, 0x46c0205d39b5111eU,
  0xb2e2fa5c2aedee44U, 0xab1210bbd8f350dbU, 0x1f372800d8c6003dU, 0x705cacb2f28f14fU,
  0xc9b93f4bb735f130U, 0x3a21d7352e010b03U, 0x3cfaefe00f01a9b9U, 0xbf2fc423ba274c08U,
  0xbfdcb4d0fedb071aU, 0x1cddd7f43606e310U, 0x3d4b1218ebe80457U, 0x134b8bb36d8e64eU,
  0x4dbacd4aeb15441dU, 0xb5486734d1e82446U, 0x522ab6f6cbb7cbecU, 0xd8ccf9242b42439cU,
  0xd7c1e219c65cbc14U, 0x5ed0c3eeaf4837adU, 0xd10b3ab8d54d5cc5U, 0x414828ade4a105feU,
  0xe3df9b37bd08fdf7U, 0x180d42c45d20b34bU, 0xa6e831cb2aea3dU, 0xbd16f8b92b171fa6U,
  0x2cd2b7d1283ee6daU, 0xc403d5a79b10b7fbU, 0x55a818cdedbbff59U, 0x34d936090fc601f9U,
  0x4a67b6374bd660abU, 0xd3fb3fa9bed1ee1eU, 0x96222d2121ea5dcU, 0x41c4f5bf1a5a3400U,
  0x19b413eee1e82fd0U, 0xb29d1e10a52bb3b1U, 0x4051adf301afb234U, 0xe620c2160f0ebb18U,
  0xe25db51fd59d2231U, 0x13cc163bd19aacc2U, 0xfc22a8aac3a6fc19U, 0xc54f1b31ece8f2b7U,
  0xf1192dff0ef61d07U, 0x3158c2e410b11516U, 0xe93d552d452def1bU, 0x12beb2b798c4b00aU,
  0xc32c0b2d55ffb712U, 0x16e1c2b341e8a52cU, 0x614c41adc3f3820U, 0x4738c569e5d7cc43U,
  0x23ecb3f55741ccd2U, 0x3025fd48a6f422cfU, 0xd4eec2ac5fbcc121U, 0xcdd933f04f31f6ceU,
  0xbce08fa9fbabb423U, 0xccebfeffef12130cU, 0xdd9ce6efafa9ff9aU, 0x2c3c4cce0f34c6ffU,
  0xcbca25ffb1ae3232U, 0xd74c2ee0b6cd245aU, 0xf4bac8d7eef353cdU, 0xabde1148a84dc25cU,
  0xd5ddc05711c0530cU, 0x22402008100af6a2U, 0xb523f5cec9424e94U, 0xd506d252f6cfd707U,
  0xb7c3a00a17d318c7U, 0xe43728d3a821215aU, 0xff510f2063f3490fU, 0xf2eec96a12ff3531U,
  0x46f73025d8dee12bU, 0x23ec69e4043ace59U, 0x124020df09ecf812U, 0x46b992350fa2e6d7U,
  0xc658e9e05216559bU, 0x25c14ff20266b608U, 0xdc3db5e9ca41b64aU, 0xdd4bb03aec5c36efU,
  0xc6473abc1e37efb7U, 0xbb10f51737c1c7c0U, 0x20a82b1dfc110a11U, 0xead6b016f04ca7ceU,
  0x5507c8feb968c552U, 0x5ffe65be3ab3fd33U, 0xa1b615d3f2dd09eaU, 0x7cadc28eaea1638U,
  0x50426b6c9cf9b328U, 0x13dfc7e8e278da26U, 0x3cbb65247f5c1dcU, 0x54e9bc4109f52c08U,
  0x4f5694c649f3de2fU, 0x4d0836243a6159caU, 0x5e01cbcb631642c0U, 0xe50fc71bf1f75bd6U,
  0xad861ee39d49ff1bU, 0xb0534add12335944U, 0x2d1909289e0f5b6aU, 0x593e273ae62805eeU,
  0xeb67f3a9e4555457U, 0x2707f74843eaf040U, 0xa1e4b92e96446a32U, 0x1afca8ad32bfd632U,
  0xec3f4bbf21250df5U, 0x184319ad041dd8d1U, 0x10ced3c2124a44dbU, 0xe7fbed27ac1d3917U,
  0xdae0c34ac04bfd1dU, 0xec40e6f441b1e303U, 0x5bc728f319df03f2U, 0x3747e045bdef1332U,
  0x2823efd1b6451307U, 0xef60bae5b4e83bb1U, 0xc620efd20f3e3cf0U, 0x3d2400ec1f43d21dU,
  0x48d3d45c54e21eedU, 0x55d51a292412de39U, 0xf229d954ebc2edd1U, 0xdf05013a54c05bcfU,
  0xa62a473f12cc054aU, 0x3749c8e9d658552fU, 0x10bc51d0c53a1e49U, 0xbdc0c705a3cf3a14U,
  0x202cd8b438fecf5aU, 0x1a59b0dc35d1261cU, 0xd9e2ab26f70b0ecbU, 0x2a44f2222743b5d7U,
  0xb4200d1f2cacd15cU, 0xd7f9fbc7601c46c0U, 0xe946f912054b3838U, 0xc22517eace0c0db1U,
  0x16be0a49ce575867U, 0x2edb57ed64be3108U, 0xa0cbb3b4d53fbc54U, 0x4cccef1c23b3ce5aU,
  0x5323e7d8220e3cd5U, 0xb2e410e28f2d9beU, 0x1031693deac5eb3dU, 0x2d0cff13c01fc506U,
  0xda0be66c3f2fcce2U, 0xa82f2a4b18db1ebbU, 0xbbd42adf18c0025eU, 0x8c3d9ef250be963U,
  0xc5602d271daef928U, 0x6ad62bfed756b32dU, 0x19b52eda0bf1fcc4U, 0xb2553bba20b3e10aU,
  0xbdbd34e02396b5ceU, 0x50eedcbefd63a355U, 0xfb4d0bae23c9310aU, 0xb41144214863320bU,
  0xdcec03484ff4ca04U, 0xf357f500e61a1b40U, 0xb545c42f3e010a44U, 0x2e3cd0220fa814feU,
  0x1aebf8a9e81a4fdbU, 0xffe34b57e2e9e01dU, 0xd2c5d8cdc8c304e6U, 0xc7bee04a1af3d70cU,
  0xd723fee9e738e358U, 0x30e1fc21f6034a45U, 0x5df344e7d1f35b4bU, 0x3bd9b2db340b30feU,
  0xdc2726c6b32fc534U, 0xed1db708ae37340fU, 0x2834423acb1ff843U, 0x4ce61d1806e91742U,
  0xebcf45b24c34f4bU, 0x4f44eebd441fb2ebU, 0x522241d729489d5eU, 0xe84099ee21f9d5d3U,
  0x3fcf363324d2d5d7U, 0xcac73c0cd63de2f1U, 0xe81c9a28bdf84417U, 0x667edd15057bce7U,
  0xfe0b90ab5ea9d2eU, 0xfa21c841dc0e3664U, 0x4ccf12d197e9594dU, 0x1dd86014289836a3U,
  0x160817b9ea432921U, 0xe0df3739b7ba5acaU, 0x1803a956f8236416U, 0x342ce33accb4d01eU,
  0x3ebdc9bca015facaU, 0xcde90a2920ac31d5U, 0xa2c243d243e904a5U, 0x343ad2f522f8492eU,
  0x43bf59a9a9f1b439U, 0xb0ea16cc2def33f5U, 0xf8dc1ad4c1c91503U, 0x1eda2144a23ed212U,
  0xafe7cd0bb8f140cbU, 0x27c0d438f9bf082aU, 0xa651b7db0f12adbeU, 0x4b625afbb8fc2cdeU,
  0xca41d451e3bbf43U, 0x32cb59100912d83eU, 0x22df21ddf1cb2b29U, 0x29d6611a0bcbbec0U,
  0xfc24a19d60a25a06U, 0xcf4433f351ab30adU, 0xa8f1c8aecc482520U, 0xe80f3fe8c50f24faU,
  0xb4cabbecdad7a93aU, 0x507043d4fb2febf4U, 0xd441f420f61303b1U, 0xef12e9dcf0f8dad2U,
  0xec3ecd4940c80be3U, 0xe1ffee4c0534452bU, 0x2932f0f9ee3ccbd7U, 0xba2516f743f8bdfeU,
  0xecf7bbed5d211af5U, 0xcbfac6e732280e6aU, 0x384c30d8e31adfe4U, 0x1d75a3eeb440537U,
  0x34402bed4d092107U, 0xa0bdffd5c15c34fU, 0xfd2c1d13d9ca0bdfU, 0xa8b7b13636d7c7beU,
  0x1dca225653bcb8c1U, 0xb122db24b12ffaf3U, 0xbaf4dcf733a5fdU, 0x28dce038faf5a718U,
  0x260c19d25cc65135U, 0x51af4c04e1addce5U, 0xb45252e629240a3eU, 0x3244ffb0d4a91ee5U,
  0xaf1711541af6eeU, 0xb69c10ea41de22deU, 0xf01daa3f2fc0c8e4U, 0xfc324bcb2e51e9c1U,
  0xd91549240dc6aa1eU, 0x2fc5f5e6db06a8aaU, 0x10d601d1ec3ee627U, 0x66ed4e1a2c42a7bbU,
  0xe34922bf28e352c7U, 0xab1c286d2cc5332dU, 0x2c57dec2c10d4be0U, 0x3b2d04444d2ff3feU,
  0xeada443d9f2f2f33U, 0xb8372b35bafd40f6U, 0xd2c0a4e9bf384262U, 0x3146b3b2f4f5afb3U,
  0x23b30fcdb02fc35eU, 0x13d350eb17f50eacU, 0xb14730cccec6ba15U, 0xe53595dc15b841c8U,
  0x3fb43cf144f762e7U, 0xf853d1ad21dcb109U, 0xfe359debb6facf57U, 0xab9ee024a918abfaU,
  0xf9f8272fb366a54cU, 0x42d12901f80ec2c9U, 0xaae6c105affdda28U, 0xb6c81ee4e9c3a3d8U,
  0x8ad112acf2b3b54U, 0x42e4fb5f390c51c3U, 0xc22e3e33f7d1c330U, 0xcdee01d0fff033deU,
  0x52514cdcee45192fU, 0x3d51e3abdc4b2622U, 0x3421fe59e0161401U, 0x5019334fc9e61cd3U,
  0x5bdd2dcbbaf5ec07U, 0x39f6000d25c6450dU, 0x272ccab61221d9f0U, 0x15a8e3384408f819U,
  0x17f1a6ecd8d83a20U, 0xc3b7a834194a46bfU, 0x4cd22bdd9f419beU, 0xbf0ffb2125c303c4U,
  0x420daee6f318db01U, 0xf8c6daaf2130394cU, 0xc1e4d058e909322bU, 0x5cdf413e5123230eU,
  0xb8e604b3af3af5faU, 0x4943f42e1236afcfU, 0xb8121300cb172d07U, 0x3dc6e8dbcb3b4601U,
  0x55bf2e08e9d8d7e3U, 0x3fdaba48039d51e9U, 0x3eeb0737be5e60afU, 0xf0ba1c0665d14919U,
  0xfeeafe55d5c83b2dU, 0x31c7efaa08ef3bd8U, 0xe71b06cded8e04e4U, 0x1895ead108205527U,
  0xcd5858fb28b34249U, 0x19309cae4755d616U, 0xb82048f6282e2e35U, 0x3542f40e2a58d40aU,
  0xdc0610d6c5c6cd52U, 0x2004fc08b2fd101fU, 0x1434bda44314c203U, 0xdb13f60c42d7283fU,
  0xf63e19b9300d19a1U, 0x9ecfc2906dedf3fU, 0xf13d1edc31d5180bU, 0xef133435fa1f67dfU,
  0xe7a66e08f3f6fa16U, 0xcf2f6031be223d12U, 0x7846535bb910237U, 0x118b06d416c92cccU,
  0xdbfaf0e5d93146caU, 0x67eea852c1a934a9U, 0x5c0cfbb0c817f8e9U, 0xf14f0a61b62b571fU,
  0xb3f31a200503b6faU, 0x4632bfd1f8ebc34dU, 0x2fd256fc19a6ca9dU, 0x38b03c6ff1ede835U,
  0x1710b12cda1a0618U, 0x43b2a5691fdb21e0U, 0x9ee42edadb00c1c4U, 0xb8446cedd93beccaU,
  0xb6b15974db0ce6cdU, 0x5002bebfad43566U, 0xd2a643d1c534ddb3U, 0xe2b803c008aceb39U,
  0xaf4279d63c2bd8f9U, 0xf502e43edf52891aU, 0xf7154eaf0b360103U, 0xb61e924d1097911U,
  0x2bb4104326b2b7dbU, 0xa21aad3076a142dU, 0x77dcb9a5e0e5213cU, 0x919d176cbbf233adU,
  0xf3f5aca7233f1ab0U, 0xef3599edfcb13c1bU, 0xe4d64dd20c450b06U, 0x122023db2509ffd1U,
  0x99c5f02b31bb62eU, 0x37de27d8bc0431c9U, 0xb80026064aa046d9U, 0x3d8f34ceac35d9e0U,
  0xf3f1f15e44b13a07U, 0x46c735e7bfed2721U, 0xefdc22ec3c2c18dfU, 0xc6d03de3d002501bU,
  0xf5d9c461569a0100U, 0xc4dbb14741d7e9ddU, 0xdecb14c02842a6ccU, 0x9b433a013427ce14U,
  0xc5529438bffa3914U, 0xb7172650fec05d32U, 0x39e65ee4fd5a2e33U, 0xd62c2d543674691eU,
  0x14eb007612090a25U, 0xbf38b549c9c30828U, 0xfd1d330212db3bdfU, 0x29ff3bd7a5bdb30aU,
  0xff3b104a26cf2627U, 0x3e196ba4225f90bU, 0x163709c24eebd6c5U, 0x2d5740fca03641dbU,
  0xa2e904452bde9e2dU, 0xa72439491357e640U, 0x77352ed3deb6e4c3U, 0xdb9c106931ee5be3U,
  0x55c81c43f8e03a14U, 0xf32939aaf113e3aaU, 0xc92dbccdc72a2b54U, 0xe128f2f39397c86cU,
  0x3921c49267220000U, 0x5f01325016e25132U, 0x6549b80aedcb021bU, 0x40deb2d0ff73c7a5U,
  0xb01028eb1a0bf955U, 0xc55b002ce3c5f359U, 0xd3da0f91d4f0ef7U, 0x521806a3afb59ec7U,
  0x591441ccd15b3307U, 0x366ac9d5bbab5590U, 0x30f10349d34954faU, 0xe1db94d3ba2baef5U,
  0x251206d336186719U, 0xc3f99eb9d8266af1U, 0x202c4ef1ba4ae6b2U, 0x326cc06cacfc19dU,
  0x8fe91364ae06fd0aU, 0xb36e09aad3fabc32U, 0xc935e7c8b5f6e027U, 0x2ac843f4a00d3032U,
  0xe8ed28c72137f49aU, 0x6303c8b0a52b2924U, 0x43b2bddf4fe7c3bbU, 0xa55c60a1b0c4eefU,
  0xeda2096c001934d1U, 0x5c234e81306f308U, 0xc6ffe1f3dfb728ebU, 0x9446d2474866e335U,
  0xbe3d0f225ea4d6faU, 0x7b035ed391ef028U, 0x48adeb9eb3c5f31fU, 0x40c1a0fda4c71c8U,
  0xbaa3f47afed008b7U, 0x172c4e1ee2f35223U, 0xbda4e332a4c6e328U, 0x33fb24dbd8230ce8U,
  0x105a62b91ea766e5U, 0x1939ffc558d8ebc2U, 0x3be30bb623c6fb48U, 0xac5cb8bf0ad06654U,
  0x1ae1de5ee7adf229U, 0x363a07f84e600563U, 0xec25a3c235d6e724U, 0xc81720f9bc645741U,
  0x84dec35704babdbU, 0x21ebe1d90e0e64fdU, 0xaaa735cab5cd40d1U, 0xd51cfc0a02ffd89bU,
  0xd6206839eac7cd05U, 0xa15230e4eaf6f5ffU, 0xce04b2d74ae3acc7U, 0xb0f61e1a3d30a537U,
  0xb043e214113a3233U, 0x29c2f7463d03fd42U, 0x190222155b2bc399U, 0xbf191040be36fcfbU,
  0xf4961c1e56ca0b1fU, 0xd98a45b4ce57a6faU, 0x64372db8baecbe0eU, 0x4104bec5f36eef13U,
  0xeb270be83e0605faU, 0x56fab6374add3104U, 0x3eadec6ceeb1419U, 0xa8f8bae84302ec39U,
  0xbba9eebfde501130U, 0x1a23c53339184928U, 0xd116b9d0324d19f7U, 0x15ceeecf0229bf11U,
  0xc43663b319ca1e55U, 0x16264acda9db4605U, 0xc910b1cc2cbbe92dU, 0x37292bc0fdbcf2c0U,
  0x41ddaac8c14e1358U, 0xf12d17faebf829f9U, 0xddce114bccd62a33U, 0xfd3816cda5e4b74fU,
  0xdecc491b04c43c22U, 0xd4c450a1ebfe22dU, 0x10ebc10c2bc3353dU, 0xfe5e8423fccf754U,
  0xff3825c4d0280f22U, 0x13f023002466add7U, 0xf9423a46f5f747f1U, 0x1c315404dd2eb755U,
  0xc1b39cb8e00cd6e7U, 0x4022d05bcbf2d6ffU, 0x20d8f4b6ba4de85aU, 0xaa8f7064d53acaeU,
  0xf61efac92f6a15bdU, 0x42133e51ff4f3cd3U, 0x38e0205dbd42e728U, 0xce0a44a0be3bb530U,
  0x5346a1051559f3e9U, 0xe5d308ea24be1115U, 0xdffa1c961b3f5116U, 0xf0feee1be962d927U,
  0x1abbed4aac0ef109U, 0x3dc02a1399aa549U, 0xbe94e2d743d4f2d9U, 0xe3ebdeb02897f239U,
  0xcd51013e5ebcf4b9U, 0x2696f1500e0ff5fbU, 0x5144500a6fda9eefU, 0xa40c1748f45e2751U,
  0xed340c51423236dcU, 0xfd91c007fcdafcdbU, 0x4bfa350304c4bccbU, 0x1ac2738f4e320e1U,
  0x5319378dff3c35e6U, 0xa409a4d55cd3fb06U, 0xf2bdfdce24ae40f5U, 0xb04d1807723c0f38U,
  0x31ae59ccb99bc564U, 0x4b48572c2fe70506U, 0x44c4e8caf2be0711U, 0xaff4fe1cf0f72fabU,
  0xee6f1534fbf3d22aU, 0xda08e90401fbe7e0U, 0xa427e0e760c02532U, 0x41e5163625b34223U,
  0xc30635261c3999a6U, 0xdebfd2b22bd2951fU, 0x1c32bece484dbaa5U, 0x7b1fcbaae5953d9U,
  0xe609e0f35c5df591U, 0xf80f1925454d0dccU, 0x2440d84aecd20424U, 0xd1d045d8cc31f12eU,
  0xa10e5b52dce1cf0eU, 0x4d162756faceb833U, 0xb0b72afa1b4a1ba7U, 0x8b01f3acefdbf40U,
  0xb73eb0cf423be42bU, 0x73f2608cd55a459U, 0xaa32cfd5031013beU, 0xbec233054fd454abU,
  0xd7e0f8ced6ebacffU, 0x133cb1da4ba634dbU, 0x1d2ddee640b704e7U, 0x1eafd8300e3ed200U,
  0x3523f2cb12b12a43U, 0xbb34a11723e96bfcU, 0x13354aefe73a31f0U, 0x196c57dafd1669beU,
  0xe8f21048e2dbab56U, 0x4e31ef223fa7e9f4U, 0x54c5c4b84009e0c1U, 0xa0f02af4b315cec9U,
  0xeb50d1dceddeb1caU, 0x2da2adcc3c22bfc7U, 0x1322209ffb808ecU, 0x2707cefbacf7fac4U,
  0xfcfe4a610ced30cdU, 0xda3dcc1819c5e533U, 0xe4cce9301d1ff818U, 0x2ba64feed742fa0fU,
  0xc2dee7efe911d4ddU, 0x62dc55aa1a5b12a0U, 0xee183a39cdb30009U, 0x680ca72ca4f6fff2U,
  0x105738e8241cd6aeU, 0xe7e54663cf083de2U, 0x15dcc370bbd9fa0eU, 0xff6b4ec003c13acU,
  0xc2b24927ddd3f024U, 0xe10deadf58adf705U, 0xc0010ed4d6e42859U, 0xee2afd0b8a5c155U,
  0xe71dde0128134816U, 0xa73b26c652a32daaU, 0x23fb74721212f43U, 0xd511130237e83d62U,
  0xb89141f1115ce44bU, 0x44ff40c2de0d2148U, 0x3ddd10d150dfe35dU, 0xcfccd644d1eafd0aU,
  0xfdf48edd0e00e7caU, 0x2535c80634c53d3fU, 0x372c952b827fccfU, 0x2c6bd7106047314dU,
  0xb3312df423a5f50dU, 0xb3f834cea92f2b43U, 0x24b0475ae33b6714U, 0x19b608423cdfcdf4U,
  0x472dc9ee0bdb4908U, 0xbc04c10e5833692dU, 0xbb0230e9bd66e2b1U, 0x746543a3ffdd98c0U,
  0xf7dde3d33d271462U, 0x434401b2ff05aedcU, 0x62ccbd5258461649U, 0x53ee09a828a3a7ceU,
  0x60c3f2d6df7d14beU, 0x1db02642b7f71e4eU, 0xdeee023efe40e40eU, 0xc63ec1a52e30bbfU,
  0xd4bfeee3b2db1c59U, 0x8fcf5003501a6e42U, 0x1539b63ecc0e56ecU, 0xafc10129d9473111U,
  0xd052de0c0d5eced6U, 0x3a1b5f0205de2631U, 0xb49b2b4eacf438e9U, 0x3804e0b81a291ad0U,
  0x1ef9b3f95c24dd9U, 0xe8c7b332b3e1bc0fU, 0x6b949e12f3eea25U, 0x12c56051f3702ab0U,
  0xac22c31eeb014f06U, 0x34c206e64aaf56b7U, 0xfe181c0f23a9f6aeU, 0xc9240530de9eadf8U,
  0x2d17c84ad9f7e54eU, 0x54f5b3eddb1203f1U, 0xd3f6d9b24eb522c3U, 0x18ddf007ffbc5ee0U,
  0xd4aae8f04f2ab027U, 0xb6c639b247282f2fU, 0x59e7494b254440e8U, 0xf70d5064c0ed57f4U,
  0xceab4810f1ea513eU, 0xe6d1f2e131072c0dU, 0xfb51d4dcdfe0c5a3U, 0xd7dadc39dedc8dd7U,
  0x1c2b35ae394fc116U, 0xf6c1afe831f0e6daU, 0xf3163d0307ee3d21U, 0xf7cdd4b2525ef3f3U,
  0xb62d32193722ca53U, 0xb7d423c1eee92b26U, 0x18edcabfa1c83dbeU, 0xf8efebc23dfd2d0cU,
  0x1f40d0b8c86b61fcU, 0xb0b763b6d4d8e9c6U, 0x92b338b7b864da26U, 0x214adea2c50fbcafU,
  0x3ed62842a2d93d2eU, 0xb4da41d06b4809b9U, 0xbfb766ebf5e9d8c6U, 0x51fe3d3e48665b11U,
  0xf02614dcd6d7255cU, 0x291cceb92e8f49dfU, 0x83e3939ab0562ccU, 0xe79951472914d840U,
  0x321dccf9e5de5bc9U, 0x1699d1cad342c3d1U, 0x1c100ee3ed22a228U, 0x8cd00aefdbbbfe9U,
  0x2d2e2e531d94dfcaU, 0xa49cc71653fbad58U, 0x2fe84da7d8ed0c31U, 0xa0941607e003e6aaU,
  0xae2cbd463de144efU, 0x6d52d0ec4fdef59U, 0xd0cf58f74a4ced4aU, 0x4944ab21fb56af22U,
  0xdbce50b7ffabb924U, 0xb1cb48bd3800a958U, 0x4ab2aaee0ee2c1bU, 0x373ac145e3dcb53aU,
  0x16332307654df51cU, 0x62553ddad332a53eU, 0xb2d6d0091ce7bc3fU, 0x1ab0e429f85e281dU,
  0x20d7c0d3bfdce221U, 0xeee4a292122eb01U, 0x14b0c2c160bf3001U, 0xe4d673cead11d1dU,
  0xb5b3be004642f3b0U, 0xb0226b3b49e5c3bU, 0x13e85c214e5115c5U, 0xa32c60362c32444eU,
  0xed175a21c4b60f35U, 0x5638bb31cb11f556U, 0xdbceb4a9d1e2d6ceU, 0x122dd9ab4c39e140U,
  0xfde4fbc8ee3c45f9U, 0x3e1c3f03ee7ac52U, 0xe71fcec0420b15caU, 0xd2acbe4127c3e021U,
  0xb6410026cdecc730U, 0xde24ee1cde372cf5U, 0xe54d57fe52ab124eU, 0xeb5348332bf21b0cU,
  0xfde8071557f5d1bcU, 0x72445b09fd500b48U, 0xf4ea0605f24702e4U, 0x66d6ce4213e4b4c1U,
  0x6326a6a360ce3204U, 0x30b00a03d51b10ccU, 0x2019ebd2d6c712bcU, 0x3b4899e7165b53d1U,
  0xb13a03b8aabea2b8U, 0x1e4948f3f3bf2d4dU, 0xedbe033db2cc37ceU, 0x54a6a8aa3ed15215U,
  0xcb552737e405485dU, 0x3bd9f5c1b425054bU, 0xaaa8542eca19ef17U, 0x5bafe2e31b3d1a2cU,
  0xe3aaf9c4060183dU, 0xbbb099db40a95ae7U, 0x242512b1ac0fb540U, 0xb2d4f84d44f051e1U,
  0x384d4351f49f3145U, 0x51c2ceca321bbe30U, 0xe92905e5eb005517U, 0xd0e86534f4372b1bU,
  0x2dc7d90e3a4d340bU, 0x319c1fba0bd8e2c5U, 0x3ae25eb1e505f61aU, 0xf4ed416ef96446c5U,
  0xcfdc9fdf043635acU, 0x1c2130ba1c3c1548U, 0x4b09b7f954bd3010U, 0xe8d8e9d44d6f0e52U,
  0xcae95f5b33ec11feU, 0x1a29249990f58c3dU, 0xa748a4d1f208e7e6U, 0x46ec19a4d3ee21c6U,
  0x19f09ee1b76cfa43U, 0x534e51ee52f4c14U, 0xb86cda241ecc2a50U, 0x4beaf32a1c0352f3U,
  0x2094859ecb493918U, 0xc3f5c3efdd9f2536U, 0xc8b5df68cbf441d9U, 0x14f4049e62e33e05U,
  0xc12ad837a91a55f2U, 0xfdfec03244432b2cU, 0x229ae02716292602U, 0xc939d3ab52414112U,
  0xbb33d862233bb0daU, 0x66616014b370cabfU, 0x59d6b0e0d65dd5cbU, 0xd3e5c7c943dd3949U,
  0x4205d60c2f5325bdU, 0x36b2142cfa1054baU, 0xcfdfd518d52fdef9U, 0x5e00bd4667580bc9U,
  0x59c32027b4e5bd46U, 0x24dd10e86029254aU, 0xe71d17bde9dfff36U, 0xa3c1f91e01bafc2U,
  0x48070db7e0cbf2d7U, 0xfa22c6ece9bdcdc0U, 0xef3103db4ae1d84bU, 0xef28a046d4e62856U,
  0x3a28a33c0eec5c2cU, 0x39c3b0bdd018500eU, 0x31a341a847471b30U, 0xc917c2b60819e1cdU,
  0x4effae1e93cfb59U, 0xfd4745c4c251b2cfU, 0xf5d9c59be201abf2U, 0xfcad58cf0d24b7b7U,
  0x5612bbe4d6006a6U, 0xf2cba60e3f11a711U, 0x337d02fd5b6119eU, 0xcbcc1fe54effe83aU,
  0xcd42ef27b04ccc07U, 0xc9fff9d4efff4ff3U, 0xbc2b0cf536cfca41U, 0xe247172502c9e5b9U,
  0xdcbdffefbac208U, 0x15bdd245510e6357U, 0xe12a0c9006ccc72aU, 0x304dd9085704fe17U,
  0xaa330e2648c516b9U, 0xe9de0af0ca3ce914U, 0x1c9e3c2fe5931acdU, 0xf1a4064a18cfd6eaU,
  0xa6155012601b1127U, 0x54cecb2cf8f015e1U, 0xe638bbc94c07e1e9U, 0x4fda266308bd16d8U,
  0xe7e02360df90e1acU, 0x57a509d74f09a3c5U, 0x2539dcc6c9aef8ddU, 0x96352a541204c625U,
  0xab30f72debc820edU, 0x42b6cc0f300a3505U, 0xdd01c7bf4c3427U, 0xfede32f100cf3e45U,
  0xf648e7abdfca5dbdU, 0xcfee834466abb11U, 0xd638f4d90df6acd3U, 0xf75c360929fc44fbU,
  0xeda40c3bd7c3c06cU, 0xb107374806e42b3aU, 0xb0431fc4052c5145U, 0xcef4310125c53946U,
  0x123c25cbd232d509U, 0xd211ffecc4f82346U, 0xbe32343df7c0e82dU, 0x3a3a2cccf03ed75fU,
  0x56fd9d1ef93912U, 0xc0c5eb1d07f20dc2U, 0xf01e20a11a4151f7U, 0xff00e716ed473b37U,
  0xf5c93d54e3b7aed2U, 0xcc484a133fe8c0faU, 0xb5e65c411aa9212aU, 0xfca2235046432231U,
  0xbe2b32082928a24bU, 0x47dcb53c50df3ec7U, 0xd11a1e232c3ecfcfU, 0x2cd8fcdfb6ca1d6bU,
  0x332b3d3d44ff0a10U, 0x3214f2fcde481d0fU, 0xf522f5a216dcb5d9U, 0xa7200803d8cb1c3bU,
  0xfee721f1fde03aebU, 0x3a2752d3ac0c50e6U, 0xf806fbc24823363fU, 0xeda9f50903561a05U,
  0xc448121e4595f8U, 0x47e43af024e5a345U, 0xa44d4000227b8bdU, 0x310314d4fb9ed546U,
  0x1659043cf917bc07U, 0x11335f31d2923b7U, 0xe3595dc7cb1be7b4U, 0xd948b0d95ac9bb06U,
  0x35c4d4f114c437b5U, 0x43c9bbb3454ab400U, 0x37204f13ba09c1c8U, 0xf72b2649361ebc2cU,
  0x25440a334cc0cc2cU, 0x3a9f281dc6a8dc26U, 0x2798b511bac33ebbU, 0x34432db03015c447U,
  0xbf0a39d6a1d9ab3aU, 0xca37cdc8a9cff628U, 0xbbc83040b8b4e1b3U, 0xb6ee2ffc1dc1e60aU,
  0xf11caed9b910d6ddU, 0xdeade8cea5a92921U, 0x225437b80e1adadbU, 0xbb0342d474826faU,
  0x26e0b80dd9cecfbeU, 0x40c44cda071b255cU, 0xc736a5cb670a22f0U, 0xd21e4d0df6241918U,
  0x3ff41fced40800b2U, 0xf94ef95bc79d6bdbU, 0xd4dc60b46e1f1aeU, 0x1043e70ade603bb8U,
  0x9a3059399abe1ff7U, 0x52dd33ac9cfec845U, 0xdbb6d20422d01055U, 0x8ef2ce92dfc0437U,
  0x2fd85f0fc0f6ef23U, 0x39edb433bbe42102U, 0xc551dd553cdcab8U, 0x14b8feec26ef030eU,
  0xe29e2e1e60bcb2f7U, 0xa8ead547baccfd6aU, 0x29eaf414c718de4fU, 0x12d0431345d562c2U,
  0xae4cfed51e2146a7U, 0xa199bff603e6ecd6U, 0x8d96620bd7bf27c0U, 0xd9abb219564a0bbaU,
  0xe3affa6df22b8d51U, 0xf5435fc030bba8daU, 0x9faf5a0ea1dbd55dU, 0xdf0a40dfcfe2f420U,
  0xfcf261dd60d161c1U, 0x2ad7e10b18a117c7U, 0x2b3e3f0a4332ca26U, 0xa958f8114f144728U,
  0xa620322dd0ab0fbeU, 0x5902da10b40f9e1dU, 0x58fa06dc521fb7a7U, 0xa5e4423ab5533eddU,
  0xf2064d19171032fcU, 0x42d45eee150438c1U, 0xbd1db0c662ba15c2U, 0xf098c633b9ff0628U,
  0xf807d419c46aaf27U, 0x9fc652e31543c2c1U, 0xa40340f5acec301bU, 0x1946eced1c6118f6U,
  0x53c8f8d856b72338U, 0x15e03ae2fafcfe10U, 0xd6abef440c206de7U, 0xc5b95ed1d71f2bfaU,
  0x665832e8cd2a57dcU, 0x2d1d4821005ae8d9U, 0xf09bc45ac3304d0dU, 0x5b3eb4c712e39d24U,
  0x4ebe48aab41236faU, 0xb4fdadb8b2d517b0U, 0xeadfb34a033ed721U, 0x15d84f1c0c411e60U,
  0xcbef325bebf9e8e4U, 0xc0d21604c8bce1feU, 0x35155b4d08f60e49U, 0xaf4c50a0cdbebd5U,
  0xa6b230c9a519a6f3U, 0x5eaeeaecd071e40U, 0xc8f75340aaf1a919U, 0x4927b42dabc5cfd9U,
  0xcff31e291ce23c48U, 0xc5021f25eb1dc1d0U, 0xb8dbc4aebac6b4adU, 0xd4ef4501f9114b38U,
  0xf21d42c95be3fbedU, 0x5d18d3d250d0c102U, 0x2464e2ed1bf9c008U, 0x22f6ff382f6754f7U,
  0xd6f5f6e721e5c9e8U, 0x12ca1c42fbe23f45U, 0xea2d0800da390c04U, 0x8b8362b3b09edacU,
  0x11e7d2f03218f442U, 0x28a64124525dc4e0U, 0xde1506ae21bc9b14U, 0xb441d3d2d0dadcd9U,
  0xc2f7abc9692bebf5U, 0xbe440b05bbf3eefbU, 0x603a5a62fb70f47U, 0xbe46cf292a31010bU,
  0x2f16b8f1d44651b8U, 0x113ae91914071affU, 0x509250e1ccf339cU, 0x7cdcb0acee3e523U,
  0x31d90cbef3fcd1ecU, 0x3218f1d335d4b6f6U, 0xa51b0e01ebc3fdc9U, 0xd555e0e3c90ec353U,
  0x92e40273b28ccU, 0x122356f3d116552eU, 0x13453c41d2bbd7e0U, 0x1a2c383e3fc9b003U,
  0xc16436b6ea22c8deU, 0x2d04d8cb4ab71242U, 0xc70a5d0339af2f2aU, 0xf51ffc21411226dfU,
  0xfdc2c8bb12d111e5U, 0x1d5632d2e2f7be36U, 0xc52e45d92831043aU, 0x3509aecf34464d0cU,
  0xc30ca7142ed7edf3U, 0x2eedcf2e28b805fbU, 0x16c4ff26ddbc450fU, 0xf80ad6f920624d14U,
  0x490121e9330cc4b8U, 0xb6100f411ab4195fU, 0x43b71beb444e6125U, 0xf2b71729331a4250U,
  0x2d3d05bc23413ee4U, 0xb2cd16f71df0d10dU, 0x2a38bef1db385527U, 0x40cb1f05243fd7c0U,
  0xd2986ae3c74b57d9U, 0xbef51200f9c23c16U, 0x66d1d72a0fcc0bc2U, 0x60bbd2d945da310aU,
  0x5f08fac5be166934U, 0xca5c55f4239ccc1U, 0x2e74f2f83234a207U, 0xeacf0524c4ee614eU,
  0x33e59e130625a529U, 0xc7d7755af23a042cU, 0xe0f0fbcebc1405e9U, 0xe4d4349967d8e4b7U,
  0x37c613e9cddd071dU, 0x4bdd5af9abb8bfccU, 0xb82e57adb82ed907U, 0x244bc5bc273810c2U,
  0x57bd0b56eaf02decU, 0x55245fbe3dc1132U, 0xef2bebcfaec8efd3U, 0xee58291ab658a756U,
  0x69ae07b0c75bff05U, 0xd351b2d90002d0c5U, 0x28f210e3ef035509U, 0x22d0ab131b210919U,
  0xe5c5feed003bd655U, 0xa43c0b2057bbb2bbU, 0xc0049b30961fb717U, 0x2cb3da9eb920ebb5U,
  0xf41c09baf33cc739U, 0x48f4105c41c6ddebU, 0x3f260dc30e014529U, 0xcd4e1c44ca001248U,
  0x44e00ad6383d6213U, 0xdfd24959c23e3ff0U, 0xa2e444c01eebc6ccU, 0xc512cd0f3e48ec07U,
  0x2be0b03d3bd9edeU, 0xd20a06bbbda2173dU, 0xed462b20f915cb2aU, 0xd903610df7fcf7d0U,
  0xe56e20db2f035d29U, 0xac0b064fe5ed4f0bU, 0xcc2346f83c0cb230U, 0x3bc531c443e5b918U,
  0x7e70e0f20431fd8U, 0xd3cd30a0f5385432U, 0xf333d7c45812e9e9U, 0xb5d81e3dd62b4901U,
  0x2321fcef58f0edc6U, 0x9c04c157eb98c7a5U, 0x49a9d3bcbcf7101bU, 0xf54f1039fb5c3953U,
  0x41c9201fa0c701beU, 0xb1c63112051443d8U, 0xb410d02cfc28ea4bU, 0xeb91c6b8f90b2defU,
  0x13ea11e2c8f71fe2U, 0x62e7dd143bca0603U, 0x4a5a2e3f12b8c131U, 0x3c631559b7221bc2U,
  0x570f2e1034361dcdU, 0x4efc20d50fd0de3fU, 0x3c45d8a831443bacU, 0x31e749bc0b3aefe7U,
  0xbcf4643c25daf1e6U, 0x6cc1e5cf24089ff1U, 0xc902b560e4d400fbU, 0xf84d1c21d630484aU,
  0xfb5b993de0245415U, 0x2d03eb4115a1f9cU, 0x9251ad8e42f443fU, 0x326cf1cdb96f0ed4U,
  0x19b52ce11906d857U, 0xcf8733ab71c5ff6U, 0xd6160a15c3d2e2c6U, 0xbfac52db53a798a7U,
  0xe23903a619580d42U, 0xd91362bbef1c610bU, 0xfdc70ffcbb666d14U, 0x2418aef81619034aU,
  0xd0b9f3bc0012dff9U, 0x8066cea2ce44430U, 0x57c22b44bf2f2bd3U, 0x301a0446d111d74eU,
  0xd20c5b90a2e07d4U, 0xbc2acaf4fa4f4226U, 0xe82709085c401d3eU, 0x1c30ce1c0af9e1adU,
  0x18201da1a520ed64U, 0x5cf08f5c10bf9eeU, 0x36ab30fd1147380fU, 0xff1a46c00ebe3dabU,
  0x1e316bedb314b607U, 0x496ce854fde8e614U, 0x8caf533fbb376410U, 0x44e4221c4fd6dd57U,
  0x3ef724b031071903U, 0xd3f7eac5061528daU, 0xc3ad390ec74932f9U, 0xc9ead5d053023937U,
  0xe1f2b3da13f2c1d8U, 0x23ae1b2043ddeb51U, 0xbbd5efe143bee7c4U, 0x4de03cabbb16efeaU,
  0x6b62bfbaffe4fc0U, 0xcf15ba503601eed8U, 0x10b2a18fce8acfeU, 0x43e5ed1139454bd5U,
  0xc5e802562805ecfaU, 0xb4bcc8e6abccc33aU, 0x18e6b24dbcb5e44fU, 0x1a2a2fe638ededa8U,
  0x263030e544e6c624U, 0x1034ed47f35394bdU, 0xeaaadcf646b3e8f2U, 0xbaf9b94a0ccdd450U,
  0x50fcf3242ed311f7U, 0xf0b1da365940da00U, 0x49062a4a4752dde9U, 0xd6511f523214ccadU,
  0xb630c74bcbfafc42U, 0xbaf84c680ab01011U, 0x57f513f0b1186f11U, 0xbc3906a4bbc739a5U,
  0xbf3921c3243ce734U, 0xf7b758150aa6ce0bU, 0xa5cbee172dbccad1U, 0x4a0ce4044635ed32U,
  0xfe2ee9aab0561803U, 0xecb71a2622bec900U, 0x15f0e628021c0e67U, 0xc5dfeb0215c4531dU,
  0xd4abda1949bac43aU, 0x4a352df24f96175bU, 0xb2c2eac4370c523dU, 0xf9f7f327d0ecdbb5U,
  0xeadc2c1ce6a21fffU, 0x5e12fbf7f7d0cc39U, 0x5ec14f200d5c734U, 0xc32b12543224550cU,
  0xc1be47374e91dd06U, 0xc9d545fc552e97cbU, 0x67d743dec30a12b4U, 0x19a6a2584a161034U,
  0xad050f0c240305f8U, 0x9cac1414ca47e312U, 0x430e24e0de3edd38U, 0xf7d44c2c3f2d5ab9U,
  0x4625f5ecb112d7e3U, 0xd72150b5abcb0133U, 0xef31abeab4c4af0bU, 0xf7fead36d2131e05U,
  0x4d373458524e05eaU, 0x2f08e3343fbdf207U, 0x157e4be4243efdaU, 0x4925564acee903fdU,
  0x9c5b3051c4410cdU, 0xfeecb322d1335af5U, 0x474ba3f225c2fdffU, 0xca4158cd4ecae3e9U,
  0x7c42061b03f5ac1U, 0x55bc39d111bbc504U, 0x51dc9acd39e6dd30U, 0xc06dc4908192501U,
  0x702cd7ce2e00e61eU, 0xdbc4c356116336d3U, 0xe5ffb5e625df0b4dU, 0x12f71649587349e9U,
  0x1706a0b5f40aa440U, 0xe4ee0a1cf4b9daccU, 0xb118c84cacc8d414U, 0x3cced41853abb012U,
  0x38594316903b59eeU, 0xfa51f7351e101728U, 0xaf124c34d0de00f2U, 0xd521034530c4b700U,
  0x486c39af02f6580dU, 0x3dcf9af06110fcedU, 0x31b4569130053e33U, 0xdbdef1351c673742U,
  0xc20c3c02021ce76aU, 0x4964d1250c8be33dU, 0xfb6c32bf31b58bdU, 0x9023acf2df274222U,
  0xd811e2ebb4190da5U, 0xdec19b05f839bb9dU, 0xafca19a9630ee7fdU, 0xa751fd3c3acee0bcU,
  0xf118f3e1321511f6U, 0xd6f315f3b0fa9e45U, 0x5bf8072f26a0dcd9U, 0xfd912bfb00f2ee0cU,
  0x1995631830f9U, 0x9abffffeb3eU, 0x22a5000020beU, 0x1aa600004ecaU,
  0x1c5100000dccU, 0xfffff4800000416cU, 0x4c2000001ebU, 0xffffe9590000209aU,
  0xfffff33cffffa4d6U, 0xffffc422ffffebc5U, 0xffffb2f2fffff2e2U, 0x5160000186aU,
  0xfffffad400001d1fU, 0x27b300003ce6U, 0xffffdb7cffffe679U, 0xffffced500004bcdU,
  0xffffd80700002fb8U, 0xffffdebaffffcf87U, 0xffffd15900002f0aU, 0x2cc100001806U,
  0x172a000007d3U, 0x15610000405fU, 0x54b600003a62U, 0x4e8bffffe683U,
  0xffffe6cdffffb561U, 0x1fe000000256U, 0x6042000038b7U, 0x17b200004cb1U,
  0xffffc84800002f1dU, 0xffffbea6ffffd1c5U, 0x1550ffffbc8aU, 0xffffe0d600001682U,
  0xb8ffffff93eU, 0x2514ffffdee3U, 0x1d8b000015d1U, 0xffffead30000187eU,
  0xffffc595000041ccU, 0xffffd5c800000542U, 0x236500002144U, 0x36a300000901U,
  0x19ef00002080U, 0xfffff2b2000007bbU, 0xffffda3300000bffU, 0xffffcd930000223cU,
  0x3e4600003174U, 0xfffffc04ffffea2aU, 0x8c00001226U, 0x3a13ffffc0d4U,
  0x339cffffea59U, 0xffffe199ffffe8f9U, 0xfffffc2200003a37U, 0x1e65000004edU,
  0x31fbfffffd59U, 0xfffff57b0000282fU, 0xffffcc410000105aU, 0xfffffb22000017ddU,
  0x7c2ffffdc15U, 0x7f10000052dU, 0xffffed64fffff2ffU, 0xfffff30600002309U,
  0xffffb063000000a9U, 0xfffff6edffffc72bU, 0xfffffd06fffff742U, 0x1458ffffcfc6U,
  0xa24cbb2500005348U, 0x1bd118f6fb97b451U, 0xdd25d501fbfaf6e2U, 0x2e79b4df604e5c4U,
  0xc06d73085bbb3b2bU, 0xc6421e44edc8c5efU, 0x4cce51f65c0957a2U, 0xddf968db399802d0U,
  0xca1a30d43a33c4f2U, 0x3e64ebe4cce1cf29U, 0xe72829b8ed3219baU, 0x7215369fbb05ddf2U,
  0xc731a917363fe1c5U, 0xd720d199e02af4eaU, 0x3500c704ce8f9e33U, 0x19ecf72a294f3aefU,
  0x2cfbe51e04b473cU, 0x3e1115c04f0b299bU, 0x2b065a21c3d3111U, 0x55ce3bedab5e2f0fU,
  0x37ffdc3862cad54fU, 0xd492efbedcd5dbe2U, 0x2d8322147c520d1U, 0xe525c7f19411a8e2U,
  0x92b7e3635ea318fcU, 0x29d533ea9f120ccaU, 0xdd311dc943009c98U, 0xc232ebbbca03dcc8U,
  0x612551332cdf162aU, 0xe3ef28fe4266e331U, 0xb9515243f8992252U, 0xd226e5224d35ac2U,
  0xec5a553bd3f8dd24U, 0x1abe3dd93f00ce0fU, 0xc0e258ce0400a2c7U, 0xcfcedcc3648eac7U,
  0x4b4143ceff3b0fcaU, 0xf5465816534968f3U, 0x1627031fb94c43c3U, 0xb73802dee59fd308U,
  0x11fcf552d10a48f3U, 0x63c20bbbecf02915U, 0x20bd59e93c9cbc48U, 0xdcb7dbbd2021672bU,
  0x640f222c605f23f7U, 0x51a6c69d0314ebd2U, 0xde06f2294d0425d3U, 0xad4fbb3e204d0b5eU,
  0x27544c21a0f034c3U, 0x5a0121bca60a06d0U, 0xb3a10e06db6dcfe5U, 0x44110ad12c1f0314U,
  0xe252cfd8724f3736U, 0xeb104b11f4b0514bU, 0xf12512d4ea46f4c9U, 0xbde0f83c9e3341a9U,
  0xa84b1034e1d2e2dfU, 0xa4e16a6ea8d3c2eU, 0xac90b6b329beefe9U, 0xeb91d7d2a865f8a6U,
  0x5413d3d23fbf6856U, 0xe732d8c2c76a2613U, 0xff41e634f4c80d99U, 0x47c514bcb5e24a1bU,
  0x105e4556a54f202dU, 0x5fac4949dc320ebbU, 0xd1f2ed3ea3d3c8eaU, 0xb40c4309d1291c9fU,
  0x3bfedf64c568e551U, 0xc3969519e7a44063U, 0x8e4a8f26b00da56U, 0xef016b419e303597U,
  0x9d1de00cda3aa34cU, 0x230b6449e620fbb1U, 0xdfd7001092a312ccU, 0x8bfa9fe3a67040eU,
  0xb40fdad53fd12f64U, 0xcab4932ccf4083fU, 0xbccbbee5643e9feaU, 0x2eede3543d362045U,
  0xa62df412f816193bU, 0xfda5ebed4ecbb55aU, 0xf117bd3ff2b7cebcU, 0xb30848adbdd81f45U,
  0x1ba1f6ebede35d21U, 0xf221fcd04d0feeb8U, 0x4acd4812260f31e8U, 0x3df13a002db9fa0bU,
  0x20315005c060dbdeU, 0xafd2c9dc29e413eaU, 0xe60a63c8f8edc2a9U, 0x4bd335fdb9452bbcU,
  0xb3dd46eeae65b3acU, 0xdbd016e8cbb2e53dU, 0xa4dc4c41ad4db5aaU, 0xdd42dbb53201d503U,
  0xad3da156dcf7fc60U, 0xfbf35cb44435df0cU, 0xf0a85fb842bb1d37U, 0x105ffde9e43248b7U,
  0xab5800cb55012859U, 0x8331dfb32ebe773U, 0x1fc2e4e5c5091413U, 0xeda7af3e46a62317U,
  0x57f9ca64cdfbb8d9U, 0x47ead0dc4030c76eU, 0x3233492e25a001acU, 0x46f0031035e5f812U,
  0xcd9603ff0c30a952U, 0xab402ae93ae5ce90U, 0x29f7aef412e4c0bcU, 0x3412e71ae4b7004bU,
  0xc7b2fc064b2de0dcU, 0x8751a4332ddc99f2U, 0xd604e10e011ea0b6U, 0xcd26c94938ff470aU,
  0xf2aba3fdb13ee8c0U, 0xfcbcb420f8e29efcU, 0xc51037fc51c9b6bbU, 0x2528c4b21d3cfb25U,
  0x34ff2c843955b110U, 0x9e4cf4cf14d5e4d0U, 0xb7c7ace105eae3ecU, 0xdfebde0dac28f63bU,
  0xef47e8d9054cce27U, 0xc3d1d39eea5e435U, 0xdfb5be3f40c54b42U, 0xc41de6f2de52a6f0U,
  0x223acaf6dcd1262eU, 0xc2c7cadaf2e6a69fU, 0x5d20e932e4d9f1e6U, 0x44e62b591dfdf83cU,
  0xb95c13f254660dd0U, 0xe035c80509ade7f7U, 0xe857ac23d0c73bacU, 0x5afa62b5ea03ac93U,
  0xe9d8286d0dd3ad23U, 0x2cf02c2e1ddcfe05U, 0x2f19d6c138c5930fU, 0x32c79e28371fcea1U,
  0xffe5b3096fe54741U, 0xa73646cfe84eb443U, 0x514c42235cd74804U, 0x39a707b8c8c84150U,
  0xb351dd0410dee3e3U, 0xe4ea03de3c51bd04U, 0x32323c2a41ff13feU, 0xd451caaf26e91af7U,
  0x4ea20047e1bcbbc2U, 0x1fe605c82123c7f0U, 0xe0b7c44ee70c172dU, 0x325c13f32f02a018U,
  0xcbbcb5b54d1b04d3U, 0xfe35390cd8fddb9fU, 0x5023604748c30a18U, 0xafe9f9e027f81913U,
  0x24cfe0bed1fe2657U, 0xd75211061c54936dU, 0x544e7091635f10dU, 0xeb94dfe30f648edU,
  0xf5fbe10e56e4c73fU, 0xdcc13f66161cccbfU, 0xb9581967fc0bf499U, 0x16142cd4532ed62eU,
  0xf3ade8d9e2df14f9U, 0xfa5cf022d2dc06e9U, 0xd0f627d4ae2519b4U, 0xb24018b61afd0c3dU,
  0xff090bbe33a2bf23U, 0xc23c28d8d2bfdcb1U, 0x53b2a65956bb2336U, 0xbcb2e1292b015b2aU,
  0x5419cf2fe32190a1U, 0x54aadadf36d8d624U, 0xe4361d5698210ba4U, 0xf9b9c12148b5db02U,
  0xbae3e9d3660e0645U, 0x4697cc32d8bb43ebU, 0x1c4c80a481ee0d8U, 0xea17f2cbc60dbd54U,
  0xcbd659e4282ef010U, 0x10eac442fda4b6bdU, 0x35e39ff324dacd34U, 0x5a1742fad5410096U,
  0x10acd7f11abae007U, 0x9001353a2b8cefeU, 0x205506fb42231cebU, 0xd2bbf7d0dfe60250U,
  0x4701cdd1f5d2e5f7U, 0xda1e0bbb033cc410U, 0x2fc74b324db4a1edU, 0xf5e960c91df12831U,
  0x311ff1ff02c7f2fbU, 0x42fdec0cea7c3246U, 0xb0e2fffcb7b103baU, 0xe64f57eeac0d0902U,
  0x6736a9132005cbffU, 0xe7c90d0703434fe8U, 0x2ef92b61bc3de55aU, 0xc334e44df3e7a73fU,
  0x2fb8a1da4140ef66U, 0x56aa9e3bc8c420faU, 0xd651ed4d3ad859f5U, 0xc8b6bd47d429d94dU,
  0x19dd4bd450582ef6U, 0xccb25f04b504054U, 0x1529b72a311741e8U, 0x5d4d392053bacb16U,
  0xb1ae15b1cb41faddU, 0x24de1fb35a5650b2U, 0xa0b93eccf72108deU, 0xe1e7cfbd4543313aU,
  0xb24c28e1dc01641dU, 0xc359384e982eadeaU, 0xdd2bf7d7f0263baeU, 0x14e73bd5cbbd14daU,
  0xdd39dac92de0eeceU, 0xaac198cbaafaf151U, 0xc9bf10da45d9f0ecU, 0xa34aec07cad1f74bU,
  0x5afdfdb9b8e0a4b2U, 0x512ccae654b7eea5U, 0xf547d708af4c4ef5U, 0xdcc63db647fa3ee8U,
  0xc60955fc4afed321U, 0xefc3d0a4341aecb0U, 0xb73a5a50424fb94eU, 0x14661145541c492aU,
  0x4d1ff4dd0916541cU, 0x1aae2a501411ecdcU, 0x4edbb235a659d428U, 0x2ae137d93ace573fU,
  0xcf6838f1f08db6b4U, 0x101abcc9c6d34fc4U, 0x4dd5d141e3c0eaf9U, 0xbc0d35ad08c643a4U,
  0xd69d09cafefa532bU, 0xc34260add147eb38U, 0xf82412063c9beba2U, 0x64351445040136ddU,
  0x51f80009b4412a23U, 0xc904450f2be21fdfU, 0xc233482207dc60f8U, 0xf7fe50fcf52b1d2dU,
  0xe3f23fe8fda6c72cU, 0x602ad003eff11e3cU, 0x2eddca412323cee9U, 0xa3e09ccb1a502a62U,
  0xce3519a942e2f444U, 0x319e151854d335a7U, 0xa3913f7364afedeU, 0xef271ab64430bc4cU,
  0x47e1e2ef4df6d0e9U, 0xe13590aef12b060U, 0xa7e6d76fba7652d4U, 0xec4f2fb0c2144aa8U,
  0xab2b065647b0f5dbU, 0xb83e1e2cc4d305d3U, 0x46d6ffcf9fb6d6a0U, 0xf2dea8f2bfa5d5c2U,
  0xec153123ee52dbc1U, 0xb30d1d5de91acbd1U, 0x22430408a15c5805U, 0xffcfbbebaa00e827U,
  0xe14d0325edf757dcU, 0x3d1ffbc1c8e31b3fU, 0xffba1712ce1caf47U, 0x322ff7e3032b48edU,
  0xb6bfb519fc1ea3b0U, 0xc3b75bb316e2f6daU, 0x7392d53cf0bd322U, 0xde145ced18b12bd8U,
  0xc1ed4fbd28e23d42U, 0xceca0c3fb7d614e6U, 0xbb50bbe7f5e4fd05U, 0xfd0617c2ae5bde01U,
  0xc293fddeac0ade51U, 0x4ed61c0aff440f20U, 0x229349280237adU, 0x2d365423e262c162U,
  0xbebdd1e3ef72f6c8U, 0xdac90cb8b6c10402U, 0xfd419a00af33ed4cU, 0xbd309542de20536U,
  0x89be2b28f4f5f73fU, 0x4830aaaf35bf1f30U, 0xed281707bbfb4923U, 0xcbe3b5cb2ef9c632U,
  0xcf4651f30cc2473bU, 0x1cacb1bd0a95ebe4U, 0xbf305ce5133ac564U, 0x6cb150c5ef22e9ccU,
  0x9452240cfd0ea157U, 0xaef5ff5710432942U, 0xf602db00d9c74c29U, 0x3ad825194398188dU,
  0xca5b29d61eb5cfbaU, 0x56251050ddc1c142U, 0xb103319b458e1a08U, 0x27afe2d2ac12e2e3U,
  0x35ab05d55d9dfa59U, 0x351cf2c3e02639feU, 0x5c0fffe566bfe22aU, 0xea563d42d5e3ca25U,
  0xb1205956b5eb2b13U, 0x1fe51ea9033728c8U, 0x5ad228eb0b173148U, 0x5ba7271dd8ba05d7U,
  0x12f1bc460e05db13U, 0xd9d4245ae62b49f4U, 0xd9cbeab1293353c7U, 0x12efdb5f9aaf7c4U,
  0x3de8cd584ff6d2b9U, 0xf0d30f7bc99c51aU, 0x159fff00cbe7ba24U, 0xb9b9ad35e4d2f3fcU,
  0x660717c53744434dU, 0x1ad02ef3c224bb2bU, 0xe9c14eedff4c2a02U, 0x2dbb57f7e5fa38ccU,
  0xd6414894bf7237e4U, 0xf205d1d62266f80dU, 0xe4bdddd5bd3efb8U, 0x25551a2dae2966bfU,
  0x18a196032731b731U, 0x2bf50d9d0c0c0a3eU, 0x3206cf5f58acbf32U, 0x2157b7b8d8270931U,
  0xfcc01aa3f76d6db8U, 0xe641ebd1c20b9d3dU, 0x474f3d3bfd5c33c0U, 0x24fa072b4efbbc15U,
  0xeae818dc223f49c0U, 0xa5bac4637948d0aU, 0xe314aae7b1751dfdU, 0x1d2af7fee653f596U,
  0x35208cd580d5fd7U, 0x35bce048e4bc47d3U, 0xe7ac46a84365f3dcU, 0x1ff2632a5f0bc80aU,
  0xb26b5d101a84ef4U, 0xbae435bed60bba64U, 0x274c611e54fe1afbU, 0x57d6f90555ee65daU,
  0x5abeb719368c15baU, 0xf4e3e1bd0aa20e9U, 0xa4c6b9c6ca29d3b5U, 0x1d0ae8b8e213730aU,
  0xaeae65e31662ff7U, 0xef8cdb25f9c5ede5U, 0x39b699431df23ccfU, 0x28f303a9010dd1f1U,
  0x70c0af7e94036c5U, 0x8c105aa82137d22cU, 0x3e443fe0179155d8U, 0x46c10fcd9db533f1U,
  0xef33d30b9af6ff12U, 0xb00abd1e18be989dU, 0xb4b8aef925d43cb9U, 0x210127524a4dadf1U,
  0x20f1bee8a1db43c4U, 0x43f6412455430d8dU, 0x47379ed9fe072143U, 0xdff3d75351b10260U,
  0x96fe14aafb4709a1U, 0xb1f2391f152ea56fU, 0x4bf24cad39b331d6U, 0x204c9e21ee3fe19dU,
  0x29e6a7cf33c95e1cU, 0xbdbd2f1bcebcf4b6U, 0xabaef423ff55cdc3U, 0xa52c9cdd3d41fecU,
  0xc17a4d2a22aee46U, 0x1d4cd1a3ce17b20fU, 0x3330d432e31df1dfU, 0x31e7e0ba52e5c322U,
  0xfcbf4a2ec00bffe7U, 0xa713f832aefbad2bU, 0x4a13d1234c1deb0cU, 0xcb445a52c82ce232U,
  0x3b1e3535a23fc4acU, 0x1e03041df7b1eac1U, 0xbfcd211b9729caceU, 0xee5b155518322de7U,
  0x32ac470b0cf74569U, 0xc8484b1de910e7eaU, 0xa8a2054cb5bb460fU, 0x35c5dccc4d09bd36U,
  0xf7164ed8fc560228U, 0xeb540d3c3afbca2cU, 0x7b162b424d6df00U, 0xd0f2edbcd7b55637U,
  0x44bd2a57e7031dcaU, 0x40b13bed153d5b0bU, 0x3424040b4b22f8b0U, 0xd5cb3aef135649fdU,
  0x3642cac53cdbd01aU, 0x3dd209dd57384c46U, 0x32d43a1e0bc60b40U, 0x1de60da4ccec4d1dU,
  0xedcc47093ec1fa0aU, 0xe61ec4fe07f1151cU, 0x4ffa55e91833091bU, 0x4bd7640327e5dba6U,
  0x38f6cce22c4cdfd8U, 0x42c72b38eabbfcdcU, 0xde5f3e2b4cb44904U, 0xa1e32814c7c3fd52U,
  0xfa5a00e46bdaaaa6U, 0x493f099f46dbfa1aU, 0xb985f0ec13b9fbe9U, 0x33e8984829e2c738U,
  0x5db69bcf50dfd0eeU, 0x2dd9c4d60a2456a5U, 0xe14d483905dad4a5U, 0x1e2f15e1319162e0U,
  0xeb00eb50bb26cb03U, 0x222404a7f8c8982fU, 0xeb5c4ef0e64fda46U, 0x54b336fdf20bbc09U,
  0xf81a0b5555c31fb9U, 0xb9daa60dc64356e4U, 0x12b745bd1f47a732U, 0x43f93858b3bebfb6U,
  0x3f102f192f573ce2U, 0xa72650cacb32e937U, 0x3fd52aac0bcbac1U, 0xf1c4ae3a20612d2eU,
  0x1a21ae98c3bb571cU, 0xedf2eed309ce2be4U, 0x3c29fce1101deafcU, 0xdb9ea1a14ae3bdbU,
  0x18aa3397d5221e17U, 0xfa0fc4b408bd6110U, 0xaafc002335fb61bdU, 0x532e1434ac3ab54eU,
  0x5003deb33d21cabeU, 0x29c0cd0bc036acbfU, 0x14c0cde7c859e937U, 0x2a2e4c35cfecc80eU,
  0xb23fffaa07ed5c34U, 0xa1a79f281ffed2f6U, 0x6e16d410bb2cf30eU, 0xb6c562352e3f966U,
  0xb141c0bfda3aeaafU, 0xb522fe4ce93db7caU, 0x11f8530eaff1bb0fU, 0xbab31fc8f4cce0U,
  0x10ca473b10ae2515U, 0xeb34d4ac02c039aeU, 0x3113ca5328ad40a3U, 0x2e42ecf4b0336271U,
  0xdbc4180bf8bdef12U, 0x4d0bd6243218d49aU, 0xfad4011cddad4b2U, 0x202e1ae0c15a36aU,
  0x28b2d3a52053d23fU, 0x9bc99d5a1fea8a12U, 0x3f2b240dc676920U, 0x17d0e628b4ef19e7U,
  0xe508264830c03b04U, 0x435fc420ebc1aa39U, 0x7b3605bb157daedU, 0xb6e3fd001a5995f6U,
  0xe392d400b2a12d4dU, 0xb4e3d6e42ecdc727U, 0xf5efdde642af13a4U, 0xb00ed31fdff8e55aU,
  0x503a30458dd5cae5U, 0x152e3612bcc1b8dbU, 0xdab21007b915ba4dU, 0x1706bae9bd39cf44U,
  0xfaeef92a9cfca3e7U, 0xaa1f46550d4a90b8U, 0x49e8b8ca4c34cf1aU, 0x9f46cc082bf930e1U,
  0x8a07392df4a4bab4U, 0xe0c598422efefd16U, 0xe07192adee94dfdU, 0xb2492affc572a9b7U,
  0xce04e61ea1a55c54U, 0x541116af410eac8fU, 0x53e23211c914d9bbU, 0xdaae8e0fcac9ba1bU,
  0x93fe75ef5b66b0eeU, 0x33ce05444be745e5U, 0xd14dd218effab2c8U, 0xc9d41c002da052afU,
  0xfac6bd2c38c23f47U, 0x1219f81124f835ebU, 0xb9b229df32cfc02fU, 0xfd95412111e1d02U,
  0x28dce622d8e40e51U, 0xaa2b3f1dd75ab20bU, 0x6809e92464cb1fd2U, 0x32d21eebb0d415feU,
  0x6745becce9224f28U, 0xb76950fe21c6374fU, 0x3ca8a472d2e4b7eeU, 0x5525b2debd13ad9U,
  0xb620dededc1c6619U, 0x255ee03d6da3aeaU, 0x3107c1d8450ee656U, 0xacd7afb52e6308b5U,
  0xdc9a57302fd842b8U, 0xc5c0ae19ec43ececU, 0x30c390e84d2bfe14U, 0x1eea535bfd3d3a66U,
  0xeb305d0ed6410040U, 0xe161cb2a1bab3333U, 0xb4ea442be7fab552U, 0xc318b5245cbe2f01U,
  0x3bfb7e4c9ff383fU, 0xf426ce49e2014aefU, 0xbfffa566d7d20a2cU, 0xdbb9eff1c3ff541eU,
  0x2ac48e91a7200441U, 0x3d0d40fc0b012deaU, 0x162733b2e2bf1ebaU, 0xd0f2159e5473c40dU,
  0x43cb3edfd43c5cd0U, 0x43e1a509bf46a24aU, 0xe22e044c5d6cd14cU, 0xa317f4fdbecd2301U,
  0xa3443e0a9460b325U, 0xbe4ca70c4c43a83aU, 0xf1d69ec8c93cfb61U, 0x44c500881010f0d9U,
  0xad42a825209a000fU, 0xaf100fd5f63b2705U, 0x3228326806d35728U, 0x15f211ae30972ad0U,
  0xe5de18dc12d6bc54U, 0x14261dfa27bbc5dfU, 0xf5ba090f240ae514U, 0xb6e327a1ff4e2ae0U,
  0xf35613ea40a7d220U, 0x2305abd4d523deddU, 0x332da8f8e307e93bU, 0xbe0641350ce1adf0U,
  0x2408d22e6ac6e0feU, 0x2135fa461e4360d9U, 0xb6d8bda255dbc946U, 0xafd7c93edfbdfe55U,
  0xfc162552124b193eU, 0x31f62f253cd237f1U, 0x65d12bb5ae4be962U, 0xd120e35ebd4929a1U,
  0xaeef3e36cb401755U, 0x9d252644da250adaU, 0x5319c5d369d365a1U, 0x32e864c6dd1ce8e7U,
  0x9bcae0af63cf704U, 0xd0917b39f1363cfU, 0xd8a220e1fd28c2dbU, 0x29ec22dbe1cd341bU,
  0x5edaebbc653b28c3U, 0x1cd409b2c13ac6a3U, 0xf04ec0cc5d292934U, 0x50e1ff3ca31a13f4U,
  0xbc612309afdfc9dU, 0xe5234db20a425256U, 0xdcb644f4bfec27bcU, 0x3d3fd93f1047f92cU,
  0xb810a921fccc46d5U, 0xf22f5507f63ca252U, 0x175367d01b6335bbU, 0xd6a8bda234561fd6U,
  0x2539eb081ef7f311U, 0xd5d2a0ad04553acbU, 0x43cceebcbbfdfa38U, 0xb2fd5055ee5016abU,
  0xf7b62ed02f5306f4U, 0x55d0f6e01c302a3dU, 0x18f5f826543bb7f7U, 0xf624b8d9e0ff4320U,
  0x370316f100d3c5e9U, 0x2755e633c057f522U, 0xc10630f4fbfcd5d9U, 0x314a36f2fb253606U,
  0x40ab24c03616bf03U, 0xfb5231c64b43f142U, 0x139bb15758f354f9U, 0x44010d610fedb9fcU,
  0xef09fdf941b0f245U, 0xbdefeccd1fc8f1baU, 0x19523cbd4e08cdf5U, 0x4c3a3dc8f53125c0U,
  0x282c46373d0e17d6U, 0xe3bf45f5bc4c1de6U, 0xdb2a340ff1df4d31U, 0x5031d02c396122b7U,
  0x1d0acaf240ac2b0cU, 0xd92850c01365133dU, 0xd23dfed922e05d9eU, 0x303031019c21f0d5U,
  0x4622a109b0d9ce18U, 0x46cc4618b3f8d19bU, 0xdc48db624eb499a5U, 0xc6c2aeaa511a06f6U,
  0x46c154a71c67bcfcU, 0xc6d825c348bb38f6U, 0x281ac70a10dfc40cU, 0xcdeecfc62e7392cU,
  0x905257f10b339e0dU, 0x66debf543efa838U, 0x1d47e554034afee2U, 0x17c9f1fdea5edc99U,
  0x2a98ce1db107d1e5U, 0xd85745cd4d2f2333U, 0x2ceca9dd259311f4U, 0xfaef5dc14f1f4a0dU,
  0x31a398c5d5efbe09U, 0x90127c636efd6a1U, 0xe317f442073cb64cU, 0xe1c68f4b211cce4bU,
  0x6535aea2f5ba77ebU, 0xd5bfb4fe251e92e1U, 0x45679540f236195fU, 0xae0d2a1c063b5507U,
  0x5050968991ab7e0U, 0xbef9a03eb74ca63aU, 0x610e047d4fa652aU, 0xfa3dabe90b401cadU,
  0x600c03c6d025d00bU, 0x3dd310c1297eb826U, 0xc909fddf07305008U, 0xb05f61bdbfa3cd0dU,
  0x57caa319282b39edU, 0x2442ced331df28d5U, 0xd9c3c230d42e2a0aU, 0x9820b8ad52f8f9f3U,
  0x4d9d0a3d27560020U, 0x3f2f9bcd1a1faa14U, 0x3046201d0f58721dU, 0xd908cb6a49f550b5U,
  0x4943cf00a31308bcU, 0x30e12e084ab8a858U, 0xbfe91731a37837f0U, 0x284039aec0274debU,
  0xfa507322ee364a52U, 0x2ba3ffd3cb2148a4U, 0xbce405e10102d53bU, 0x36c3c31cdf461fd6U,
  0xe950362f471a8f43U, 0xc3181b5b47a20ea7U, 0xd5e6c52f1fe913bdU, 0x5c52c106aac23910U,
  0x17c3f501d4d7f446U, 0xe55245cba814be58U, 0xa0dd3cd5a6308f1cU, 0xfae004ca1cd90240U,
  0x32b108ddfc29edf8U, 0xb72732ecd557d912U, 0x25c9ec48d0f72c37U, 0xab7ca50a00b13eaU,
  0x8ebbed6722fc38e5U, 0x20af9601b21ed9e4U, 0x61d634d4f271c0ecU, 0x5dcfddafdcc349abU,
  0xad521a20cd59ac2eU, 0xc1c304cab5bf4ce3U, 0xf40217f00a18c3d1U, 0xe015211db588fba6U,
  0xf02a271015e0acfaU, 0xc4fb0e082dc136e6U, 0x44fe7721c833cea1U, 0xd53757ea077113a6U,
  0x2c1fcc4fb5a67205U, 0x20d81f3041cb3624U, 0x5717d1c4d5b422b3U, 0xee373417d121ac65U,
  0xba221deb9809ffa6U, 0x38f41fdcd847c4b0U, 0x941620673f0a2beaU, 0x4003501205bdc0eaU,
  0xf1fba9970a9e4ae0U, 0xee47f7184b38a72cU, 0xf242f44bf3e284dU, 0x11b21cc6443e3710U,
  0xc80c18a837fd0b0aU, 0xf0c5b1531d34b8bdU, 0x340de677d8675d4cU, 0xf9e90c64cdeedce6U,
  0xfe57ca15413a1c95U, 0x21bcde30bfad11d3U, 0xafe3c139dd3326d7U, 0xbdaaab970b0a0de6U,
  0xc7cb3244e7320efdU, 0xef75eeb07f35430U, 0xa204c8ca490ce2b5U, 0x14e9c72028500b98U,
  0x12f83106ebb54e55U, 0xe09bb043f27fc15U, 0x2ac0f5c4ed161f47U, 0xbffeda48ee5a0837U,
  0x315eb9e7f49b6156U, 0xe725d8e3ad3234e0U, 0xdfd12ee62d2d291bU, 0x4e3c13533d5b44bcU,
  0x45f4c04559e317e8U, 0x43e626aca73cc9aeU, 0x4642b2ef2cbdffa7U, 0xf3120b02c79ddf1aU,
  0xa0ecfb33e1ec0b3cU, 0xbe3d943f293aeabU, 0xd447f4b7a7faebbfU, 0x4d4d2b030869373aU,
  0x242ba36545bd30cU, 0x49d73950f4bae04dU, 0x1628db2a4451302bU, 0x6342fe431d093c25U,
  0xd927d7ef10a61f51U, 0xc12e01ece383164U, 0x154d44d8c03ba3b3U, 0x6ae0e9c5c81835abU,
  0xf1e9c72106aa086eU, 0xd02dac32d953fae9U, 0xe1c4fddb47e3d6dcU, 0x562b6468ca051115U,
  0xd45d2f1ca5b305f1U, 0xd0ce140b33cf4b17U, 0x35b81efdbf30d2e1U, 0x4ed8a11d63c33bc0U,
  0xd3172bc7e40b23f0U, 0x43c6320510121d42U, 0x585c38f8320b53b5U, 0xe735f9c3dfc916a5U,
  0x4c12075dc3f23230U, 0x1c584c04d1a10b52U, 0xfbaa4627a9c4fbd8U, 0x2a9e3931ca19371dU,
  0x3105dedd093f5dU, 0xd7395df5241f3004U, 0xb2ebcbba4b88a540U, 0x15355129d2ecad5fU,
  0xfba9f0bcd639fab4U, 0xe6c50bbade3567c7U, 0xf8b1ecb1b64b5f18U, 0x1e3e463e0bbc210bU,
  0x23b9b02b3fa3efa8U, 0xc325612d4de6efcfU, 0x5abf2929dbd8e1e1U, 0x3e2bbe27cdc2530eU,
  0x1d58d313253d2037U, 0xe4acfaa71548d4ebU, 0x46cf02f7e11454c4U, 0x83e2fcb42323eb6U,
  0xc0ee33e6e45dd5bdU, 0xfa1ebc0da750f6f6U, 0xf44d365d0d1d49deU, 0xdbb7e5dd1baa0513U,
  0x2b2ad0c6d8d211c0U, 0x35f26a2b3c484f15U, 0xcb4cf23ef51c4fbdU, 0xd9f8db060824e5eaU,
  0x3e41dce70402d928U, 0x56bf664dac394025U, 0xf24644ad3522c731U, 0xe4c1f8cdc5e832dcU,
  0x6bdb04a9f2355743U, 0xaad6c2e60af3011cU, 0x42538cef57ed7508U, 0xa6d2c04fcf10db18U,
  0xc3d4c45aeb1ba9d6U, 0x23ecf740ede404e2U, 0x3e4f4e6bab7d26f3U, 0xf9179bac69c3c404U,
  0xa4f331f52b3f343fU, 0x3ad2dbf2fbd6faf8U, 0x4d28acc2ddf44b05U, 0xf0f9d1f9c759bf4fU,
  0xe356d4e435c8282aU, 0x944ae6a7d113aaf2U, 0x3517cd54ffe546a6U, 0x9d768c52eaaff0aU,
  0x3d003d390846d7b4U, 0x38cae055b03a1db6U, 0x18f4031c00e3c4e4U, 0x41bcf5c6e70cdfd9U,
  0x2f08fba7c79d12e1U, 0xd5e2d49852b4caeeU, 0x564823a8cb340b19U, 0xade2de66e0f409cbU,
  0x3edcc938fdf5becaU, 0x58fc435ad5c8d226U, 0x20d1dfedc718f2f0U, 0xae3e454dfbd10ec0U,
  0x15e12543f1c8e751U, 0xf7e7ceb2f325d7e9U, 0x6b41de7f0e61524U, 0xdb5515f6ecbe010cU,
  0x46bd4d6b44c7d000U, 0x1916ac3052beec0cU, 0xe5f24db7ab9f44a5U, 0x4b31fc2cd622393U,
  0xe619f6ad010ac216U, 0x498e0f3833d469aeU, 0xae043212bd1e30a0U, 0x3b0c0af8a4b81ef2U,
  0x5da6edf1a674ddffU, 0x54f6c854fcd8edeaU, 0x3354a0620624dba7U, 0xd1566dcf331b4759U,
  0xf2aeed14ba0459c9U, 0xd4d84af5f8d8200bU, 0xafe6e00403f0d531U, 0xf91b3f0bca01ab4bU,
  0x63e824081a01712eU, 0xdd1899241238ca25U, 0x1354cdc7f3d56fd5U, 0x140c091375ddcc34U,
  0xb30ef6f3eaf199deU, 0x7c84dda2ae53235U, 0x47fb4a5f262cd418U, 0x5806e99035e41f3cU,
  0xdbf31f7bcbe7b7f9U, 0x5a338ea84da9aaaaU, 0xb40ad260a73a46eU, 0x30f0a721061ed5f0U,
  0xa32e5f2e094091f4U, 0xe4a7ba09c0e81aeeU, 0x3d1bb104c2dc1f36U, 0xc4cf5e64ddc51b1bU,
  0x195259535448c047U, 0xdb5038a92bc9cbecU, 0x40b245e1a6d2a542U, 0x36d53bfda22ae4c9U,
  0x5aeddf0d19f1483fU, 0x964bfc9646fd23edU, 0xbacbc01bfc0af4a6U, 0x24b8cdcd24d8ea66U,
  0xbaaf3eaeb023f3d9U, 0x1129f6b9567ee1afU, 0x37ddd4cad7e05515U, 0x1c4eaa2ce025dfe7U,
  0x1b6b0f2d15a4ab1U, 0xb2394720c3bfcd17U, 0x1318085dfcd308edU, 0xafab08c661272611U,
  0x172e410495e12e0fU, 0x3dfb85aa1f019d0bU, 0x50af1b22b30e6158U, 0xd4dfba3bd4cb442fU,
  0xcc5206e7fa4befabU, 0x2c2f1e0ac6f13753U, 0x38c12d2927c7694aU, 0x1417f6f022c4b9d7U,
  0xe9032bd8363d3fceU, 0x38ccdf46181af7ceU, 0x1fa0435315cb0feaU, 0xb8d8430f21004b30U,
  0xf4f8015918eb01U, 0xe51ff83ed2200538U, 0xdab03e1ae93abe5dU, 0xefe6c150e7eb2dbfU,
  0xdddcc1d0ccae4707U, 0x4cb9010048b1282fU, 0x4c99df154e0ce422U, 0x9b01aada1c253cf2U,
  0xceede54dc3d108bfU, 0xf9ef083c44435ce4U, 0x3daebd2c1629e7e7U, 0xde18243dc2a3ef2cU,
  0xe1acd6321d2da8c8U, 0xa9ef083fa313e8ffU, 0xbc1621ce4eeb1df2U, 0xfe5bdac9c74d1a25U,
  0x5ae8ca12c63c032cU, 0xfdd1952433fb7d0U, 0xb2d9d921d96100c3U, 0xb75e2c15d732d5c5U,
  0xc0d7ff22c83df521U, 0x80538d93721a04dU, 0x1f1b2320fb3324c0U, 0xf72a18d8112ed7f8U,
  0xa65f1ffbecf44817U, 0xfa6a45f55c95d22fU, 0xd236325492ea0037U, 0xd41c37d02d682e23U,
  0x90b446a64a46a2bU, 0x2f93a6f4fce917d5U, 0x4b03b8de474519caU, 0x4ebf8e3120245d5U,
  0xaa0bbb3908e8dbe4U, 0xef8bb751ebc7ee12U, 0xec24c30f15fb0e22U, 0x5ae56667fd0c3720U,
