/**
  ******************************************************************************
  * @file    network_1701866511190_data_params.c
  * @author  AST Embedded Analytics Research Platform
  * @date    Wed Dec  6 13:47:00 2023
  * @brief   AI Tool Automatic Code Generator for Embedded NN computing
  ******************************************************************************
  * Copyright (c) 2023 STMicroelectronics.
  * All rights reserved.
  *
  * This software is licensed under terms that can be found in the LICENSE file
  * in the root directory of this software component.
  * If no LICENSE file comes with this software, it is provided AS-IS.
  ******************************************************************************
  */

#include "network_1701866511190_data_params.h"


/**  Activations Section  ****************************************************/
ai_handle g_network_1701866511190_activations_table[1 + 2] = {
  AI_HANDLE_PTR(AI_MAGIC_MARKER),
  AI_HANDLE_PTR(NULL),
  AI_HANDLE_PTR(AI_MAGIC_MARKER),
};




/**  Weights Section  ********************************************************/
AI_ALIGNED(32)
const ai_u64 s_network_1701866511190_weights_array_u64[13202] = {
  0x1e93fb3efd18a263U, 0x7c9199dd3ef54511U, 0x326511ec2fa7c948U, 0x5f9eb388b8cbeec2U,
  0xa8f8f839a2b6f21dU, 0xb0f6f7b396964795U, 0x3c4abc6f356d7d4dU, 0x6c2a116515c6db95U,
  0x1f68452ac00bcba3U, 0xd4ebe9f82f99e061U, 0xaf83226e60cf38e5U, 0xf0556d1057a87fd8U,
  0x58c2f12c8da970e8U, 0x85b7c5d7bb5d6660U, 0x68276a22fbed23caU, 0xa31cb30ee4491596U,
  0x30ccf906ffffb76cU, 0xcaf252dd54dbf9ebU, 0xa2fc5f5c840cce3U, 0xd42b02334e29d02U,
  0x3fe04b43e028b60fU, 0xc6244d08f4db16f6U, 0xf18a0d011dcb43fU, 0xf33d1cff31112018U,
  0xa40715f04df3352dU, 0x512646e0c4f323deU, 0x650a1eb82fae26c7U, 0x325ee91f11430f60U,
  0xd3484a4f18cbf8f1U, 0xd4760e9c7201b2bU, 0x3bc626a83305c81fU, 0xd8c70dad02f0585eU,
  0xd1431252a4b6accdU, 0xa75df9255ce317ceU, 0x55daf428d4cf580cU, 0x17380504b8fb1e2aU,
  0xbd46fe04f04cb231U, 0x4312e560df71a3fU, 0x103c64664a10c2e4U, 0xc48d454702224e0U,
  0x1c404558d84fc50dU, 0x5203533e0fd6ed6eU, 0x2d11eeb7ebea209aU, 0xc6a01ef933b23dd9U,
  0x422dabcdbcb615adU, 0x42a8d12ef24fa9cdU, 0xd3eca44b302ea6e1U, 0x2de226fcb41c4732U,
  0x53d3c028361fa646U, 0xd049319ca2f1f8aeU, 0xd0b99bd7089828d8U, 0x3f20c6c81f1e0b0bU,
  0xa019ffc8a59ce9beU, 0x1054b009a649e027U, 0xfac316afdf283ab7U, 0xf83efc4f9b4a2225U,
  0xc4a128ca10112b14U, 0xaf28df24fe9e2f3dU, 0xcbb318f9b5d1fa48U, 0x4dbf7ed0b0444a6U,
  0xe1fba4013410a07U, 0xe94fd932ceb61cccU, 0xeaacf7ec181e46abU, 0xbc000a073fc42c31U,
  0xd563cb3a3a10b42bU, 0xfa3c4a5c225fbeb2U, 0xaef6dbbd2bba1365U, 0xc14b4ed4020ce2d4U,
  0xd359b0d7c455b563U, 0x1ee821e5c3bff20cU, 0x34e002cda8b6354cU, 0xa424d0338b8e80bU,
  0xbebdb3f8d8e828a7U, 0x3d194d3b50f747c7U, 0xcf24cef5db2b6314U, 0x5ed5de4e1e6be9c3U,
  0xfcf8c5eff7791fdeU, 0xee420a5a5dd9d13aU, 0xd04bfdb4f165ed70U, 0x90634d9cdf4bbeeU,
  0x31caa8fb0b0207d1U, 0xc7e0fef3a0f6e0bcU, 0xfdf6bc0125aecfcdU, 0x4db8f0af54481f03U,
  0xcdd0eba29b23e5cU, 0xa254e7c6f54458f7U, 0x11cd9b40af1f434U, 0x12c9ad213428e0dfU,
  0x390b1918a9b9251aU, 0xe2983cb40195b0d0U, 0x4dbfcb26d1a4b6b7U, 0xfe2acba12a2f460dU,
  0xea4d3cbbfcc7b81cU, 0x32e21236a9b21a51U, 0x9da6c7dafcb7a41bU, 0xdae32e124f98e935U,
  0x449f19bd1f48e31eU, 0xbf56a834f1c6e3e0U, 0x405d82222e34f54U, 0xacf9e42639e9e1aaU,
  0x4154fbd24d2708efU, 0xc3ecef1a0c590ad7U, 0x454b3f0268083a68U, 0x32a7fc43bb57afecU,
  0xe8cdc4e9e44d5350U, 0xad3defcda85c4d0bU, 0x44ecbffda1aa4a3fU, 0x3fdfbfe8db0114ccU,
  0x3aefb118adec13a3U, 0x12192f57e2dcab56U, 0xdee82026d4a4100fU, 0xc8e607e13df037f2U,
  0xd5311535ca065a56U, 0x542ed0e5ca04110bU, 0xaf37f3cc4d070c5aU, 0x4fadc3cc3f6359f8U,
  0xa3a81c02adf53b02U, 0x60e3ae700503527U, 0xe1100ce52f1d3e44U, 0x58111de2aad451d6U,
  0xcdea2a42fdd0a4e2U, 0xd64e4b32e0c7a4c9U, 0xf5aef8d1a34b15dcU, 0xb2e2b118f4e701adU,
  0xf699452cc0b618d5U, 0x21db2fd3f009153dU, 0xfab62d02dca9dd02U, 0x232ee2d746f6f3c3U,
  0xfbefbf30ad21bd34U, 0x2f746ca292f2ed5U, 0xa3957c1d40a4cdcU, 0x1d365be4dd582befU,
  0xca10df12d948473aU, 0x2dfbb5dc313ad04eU, 0xb7cb3c3c200cb638U, 0xaccc37e9241bfa43U,
  0xa5aebecbaedcb512U, 0xd626df1ac239268aU, 0xe2c29e3225cfd6c2U, 0xa380010b8bcbc9bU,
  0x3fb7cda64305c9a4U, 0x643ddc53b432df0U, 0xedeac2510e5f82dU, 0xeec2d43fd922f95cU,
  0xd55900fbe8190b45U, 0x1919c3f0460f4720U, 0xbf4504412cdc4edeU, 0x4101ea2ae8284c52U,
  0x392ac41fbfa9e059U, 0x1746b5e5b85a1610U, 0xb7fa08313ded5eafU, 0x43c7f7232bf0f76aU,
  0x45b942cd1e225f46U, 0x41e8371956ce08U, 0xb310ffde1d08c9d8U, 0x362b49ee0d27d353U,
  0x4216aadde727fd25U, 0x150e2c4351c83ae0U, 0x32e35537b5eed9e2U, 0x1c173e34e63628edU,
  0x4516c4dacc19bcc8U, 0xd21b382fb451dbb8U, 0x3be22e0a046c0a6aU, 0xd7bffc544ccc2c18U,
  0xf86ceb221f5b372fU, 0xc3faad1d011bdeb9U, 0xb5172600e34f17bbU, 0xc71f4313c1b00116U,
  0xc5ff001d46fb9aa1U, 0xb1eb2006ff1a31dcU, 0xe2c2af1441eff71aU, 0xd5441deb0cafae2aU,
  0x3f5bf12bcabe58f3U, 0x44cc75af1ce31d3U, 0x7003002244af338U, 0x2b4d4318c9caf122U,
  0xda1500edc3e96dd5U, 0xd2c4fd139d285e4cU, 0x50b5b2e2da1531d3U, 0xe4a44fb31ee0750U,
  0x3749e83035460eadU, 0x2d819e1d32a3901U, 0x512342ffe10fca1fU, 0x3d23be2020da4a42U,
  0xe5e8e03b2bc8d9c7U, 0x913d26ae460d3316U, 0xfc018d152fc52cebU, 0x63df6a9a5cf8deeU,
  0xf6dd20ba86e88fa9U, 0xcfb2c532ebe2b924U, 0xeb01f99ed31042a7U, 0x44febd4f00ebd8b1U,
  0xd1f826b2f6e71e45U, 0xec1ee1215947ac2fU, 0xe8f0de3e005ce352U, 0xac51e7d0cd3459f2U,
  0xacbbbecdb923c5cdU, 0x2eba0307cc45aad9U, 0xb307c9513333ff40U, 0xe71f400e0b49f0b8U,
  0x20a2eb50e2ae09eU, 0xe7e3cca011b413c3U, 0x35a01722f8f3353fU, 0x111bbf3d7dddedfU,
  0x1c34a855f804c937U, 0x30cb44d6e63bb9eaU, 0xacd42e3cc1bbe95dU, 0xc511a409413fbc29U,
  0x1b6e83e31ea57f6U, 0xd5344cefda00af55U, 0xda59d07d2389e9bU, 0xaa0091a444440fb2U,
  0xd6b9b4243494ce45U, 0x303f333a1a21ddafU, 0xead11eba9ca50ef1U, 0xc30a7d432ebad0aU,
  0xd92eddc4a3c84cbfU, 0xfca544aa3de1ceeeU, 0xe7ee2d2748b643ebU, 0xffeb5b52ff1757dcU,
  0x50f53daedee8dd32U, 0x3245cd1ff3f00badU, 0xcd0e392e480cfaafU, 0x312d49d8ecf8d42aU,
  0x1ab1e39a26b6383bU, 0x1b1df9b9fbfb83aU, 0xbbd434cdea169b9cU, 0xdd7f000242b4d1bU,
  0xa6edef2322455635U, 0x1a17f3523536f0ccU, 0xcf9c8bcdfe0454bU, 0x181201b23fadb53fU,
  0x312612f410a657e9U, 0xdda8afb6a409c818U, 0xb1cb4632ed243edaU, 0xa45d425cfb7bf53U,
  0x1ab2dbfd2526d637U, 0x66f63e672ff91c59U, 0xc6c367fe422ade47U, 0xc39bc2de45bcb21dU,
  0xd6c139e6e6cb2916U, 0xea592a33caacf756U, 0xbca90ecfc7064434U, 0xeda4f0ed5a29b015U,
  0x22acc0ba37b4ecf8U, 0xdbe6f4e026c903c5U, 0xc0631d5abd8fa42U, 0xae9733b1f930282cU,
  0x7f113fa13e10ecbU, 0xc7c1c8db4af6e4ecU, 0xe93839e8dbea229aU, 0x5c680f1b382fe5caU,
  0x29c82236e5d7f826U, 0xfc34d70e483429cdU, 0xcd24fd1b2147621dU, 0xfdbebe032d223ec7U,
  0x18ca08dc005e4ee1U, 0x52614ca5534c540cU, 0x123235ec622fb061U, 0x60e5b11d3b215dcdU,
  0x51be13d7c209620eU, 0x6f41cdd4f665a70U, 0x52611257c2500d0fU, 0x5b12da452e156f03U,
  0x16354de2bd235fe1U, 0xafe1fc583b1c01c0U, 0xf21742ce00c8275bU, 0xbf042c27c85201e0U,
  0x9fca4920f2e11e4eU, 0xa3262fcc03abf0f7U, 0x5dba4944e8fe2e44U, 0x5ee9c515baa949c3U,
  0x251f2ab2352cee47U, 0xe76ed4501434c3e4U, 0x82bdd76e1ded63bU, 0xd7d51913dd5238d5U,
  0x205c5e3c25f7766fU, 0x47d448d5040668b0U, 0x3bfb20b44ecd3852U, 0x3cda402930c2ba44U,
  0xb0b405f3be3e0a0cU, 0xcff9a8efeb191af2U, 0xd7332601541626fbU, 0x650fd9dfb9aed14fU,
  0xd1c7b662d95844dbU, 0x6d602522c0360fc1U, 0x6500cd192713216cU, 0xede821fdd7f96bd0U,
  0x201110113de36c17U, 0xf9cabce052bcaaf6U, 0xd10e2b0ae7c43f2dU, 0x4bd55b550158d210U,
  0x700f8e6495c0b38U, 0xb42c22fd2de735cdU, 0x3ee4caeb39f12af4U, 0xa8d95eacc437c9f0U,
  0xe5cf64f4ee3943b2U, 0x4d59cfe05322fe63U, 0xdff5e2dcf2c03c7U, 0x2e48ed232dd7cfe8U,
  0x185104fbb9470dedU, 0x333c39383ec3e858U, 0x51c7e1192cf0b001U, 0xab19e11cec0a4409U,
  0xdff930d929061b50U, 0xf308143a414653feU, 0xa80db001b20ed322U, 0x192fb05bfe1b2c53U,
  0x363f1bb3bbe4fec2U, 0x4ac2f1fc0afb2fcdU, 0x2ad76868cc5ccfd2U, 0x633334f9d6f46b2eU,
  0x295241331ecc2814U, 0xd202b2ef1bd935f8U, 0x35f326b019b6bbe2U, 0xf807a2bba629f42eU,
  0xf21dbc3a41ef23e8U, 0x210916211118c62eU, 0xc905eee9ff4a0b41U, 0x4e3ad7b8f3c63e2eU,
  0x45202b243a290f14U, 0xf9c82250dbab03f0U, 0xc9e2c9f0f6d4efecU, 0xc121bd553e20f94dU,
  0x26e00fc563203bbaU, 0x26bfeaff2a55d867U, 0xb94bdc52f4f004a6U, 0x71542e8c451479dU,
  0xcbaafa0b2a1349a9U, 0xd4a349c2d2163503U, 0xe2b551153910cd0cU, 0x311abd2eb7524fd4U,
  0xe7d43cfdff2307acU, 0x1201a0bff4c7ee13U, 0x32b5ff08d2cabe53U, 0xedc4b715b303c5faU,
  0x11a82acab7d3a227U, 0x17e6313126b6f610U, 0xe02c1159c6144bccU, 0xf0da5d34b73a5d1cU,
  0xace7c7d43c59f72fU, 0xa9e9e0229f3ee636U, 0xa5ddd0f948a9d812U, 0x1aa6c8a2ed2303b8U,
  0x48f94cf8e810edfcU, 0xc92adcff20c0d4ffU, 0xd3b3244e451a0512U, 0xc1f6350a04644428U,
  0x51523234f5b6c3edU, 0x5454e42237d428eeU, 0xa2d538294109cf07U, 0x3119343f113fcc2eU,
  0xfad001c257ad4dbcU, 0xad3ae22d0ab8c0e9U, 0xd8c8bbf33b4611fdU, 0x54050439e12dd7d6U,
  0xf6fac04548db33d5U, 0x373c4ea8ee48a54eU, 0xd4c02529c8af3b20U, 0xfcb50bf4b9bf5106U,
  0xa94b2a8b4f4de99U, 0x8fbdda23908e40eU, 0x3ec9c6c43adcc79dU, 0x3751c04625392bb9U,
  0x2513282d47abfed5U, 0x52d915ba0b3ab5U, 0x632543e55ddb3ae1U, 0xc3dc1c5e1e33e4fU,
  0xce15e5c45f53de47U, 0x36d3e451e4136424U, 0x361610abf9b8caf9U, 0x330d18b01db3dfb9U,
  0x22a837c14cccd418U, 0xc4f6b5d2a2f3341cU, 0xcd359f249735e4eaU, 0xc7c309e94cf998abU,
  0x23fe622153fc1409U, 0x1509afce5a142b16U, 0x3d28a653f1d7edf4U, 0x44c44bd2d11d0e7U,
  0x2e06142245fd3214U, 0xe3e418facbf7414eU, 0x3b7f5f328a8eeabU, 0x36c3d6183fb561e4U,
  0xb6403e46e4bbb10eU, 0x6d34206ebee70d2fU, 0xc1e86b315d405b3cU, 0xb2234fd02933bef1U,
  0xd02412c0c7c7d4c9U, 0x15de13ebd633fa01U, 0xcfb3a36ffbdabd5U, 0x1017b8c20a562e44U,
  0x15eec1e7f72639baU, 0x13bbf05bbbecbe25U, 0x4559f6ba17ecff2bU, 0xef6924c2fec32d26U,
  0xf762543bbd5e3e3dU, 0x4319e332760634fdU, 0xf575463f4ccee42dU, 0xf67dc756476eb5cU,
  0x5ed8a8acdf18bd54U, 0xeae65c21c1e6e148U, 0x4beaca5be8b0e543U, 0xf46b5921e2f61445U,
  0x3e5d13ddfcbea4eU, 0x64ea3966eb2ab6d2U, 0xee574c1e0c08e119U, 0xedb8cf20482f3f18U,
  0xaaaa004efeea0ef5U, 0x9afb4bdffad0c6dbU, 0xf9c6a0c5472ba241U, 0xf5fdf1f218afaad1U,
  0xc7f4f14de3e908b2U, 0x47e3de3359f40706U, 0xeb0faccdde6aaa5U, 0xf3afacd0e3bfef58U,
  0xe1c30b4b1f4b3b5eU, 0x43d21155baf5df37U, 0xc2cdb111cff0da49U, 0xaed64606aa28bb2bU,
  0x32e42a2b34b3b62cU, 0xcaad73fc4d199c8U, 0xabb190e4e4a8462aU, 0xddf49e268f26bea9U,
  0x171e1bd0f3e196ddU, 0xe3bca6bf0415d1faU, 0xf5efffe51ded112U, 0x2859d24cd8b93ef9U,
  0xef85608da5bc1dbU, 0x43d1cbe53fd0ddd7U, 0x408b7cba447e255U, 0x5e3034d8c83ffb0dU,
  0xe84fc43ef3e83937U, 0x36c23dd1f04b4ce9U, 0x3538322058d46540U, 0xb363af30ef0558b7U,
  0xd4170be93c6450f1U, 0xe50ac842101d024cU, 0x47be07e7afc0eb9bU, 0x3c3cee35292bc1b7U,
  0xaef2d33c380db049U, 0x28ed2120a62db8c2U, 0xec001dc7f4ee43efU, 0xb2e414fac29f4d3bU,
  0xb3b72fa0fe17f1fcU, 0x38ad0dd1edce492dU, 0xf72823fff741a91eU, 0x4f44abbf4caf2faU,
  0xa542c2ddab13d0e5U, 0x530c1842252ecba9U, 0x2c226e8d3310f1cU, 0xf74ba9250f44c1b1U,
  0xeb065856364d4434U, 0x92555e3f5430411U, 0xd10acef6cdbbf539U, 0xf7c430c557155d47U,
  0xe3a9b8d0f2c42a1cU, 0xfcd963ac4233d9abU, 0x4d451060b0add1c8U, 0xd71ddd283d19d71cU,
  0x2b291b085e1f654cU, 0x3e2d37ec4660e558U, 0x4d1a0c52d1ec3e39U, 0x5231ad4d4a2741caU,
  0x1f06fadc05e450f6U, 0xc6462d4fd832111aU, 0x58f8293cbf4e4e2aU, 0x5ae932e63512285aU,
  0x1aba020eb5003814U, 0xd5e9fee307c65800U, 0x5d5b6240b62fd4f8U, 0xa074bf23db44805U,
  0x6c100119cb031d12U, 0x551dd76ac910130fU, 0xc0ac14ccb8f21f6dU, 0x33a19c9ade3b8fbU,
  0x24db3fc7d1a0fc30U, 0xdda44c4df3d9cfddU, 0xff593ff73640b3afU, 0x28bc1bd9fb10c0baU,
  0xd7a8221e4450f958U, 0xe4c4a71fcfea50f1U, 0x2219dd31fbbdfe48U, 0xd021dc17d033fa42U,
  0xc58bd7afa007eb45U, 0xd7acd6c0dac1c6f3U, 0xe8532d9fa8a900c6U, 0xd33f553d4d5a3e4bU,
  0x6fd31d218ecc8d7U, 0x425ed1dc093f5d4cU, 0x452c1614ec0502cdU, 0xdc05a51c1ae54eb8U,
  0xf4c21f57483a360dU, 0x3482538aff1a709U, 0x58adbafc1af64b3dU, 0x615307bce90f0323U,
  0xe10af4c65cb41513U, 0xbf1d66cfd52eea3eU, 0xae55fb63d460f616U, 0x51eb46c00850dadbU,
  0x1a17cb1711d04ec2U, 0x46c42efa034054bdU, 0xe957c2b0f707d50dU, 0xed123816cb14dc56U,
  0xf917b851acc23ae9U, 0x3ad3c0c8bb4ffefdU, 0xbe4c1a402aaf6554U, 0x62cd382b5440d005U,
  0x2a2cc861f7befa6bU, 0x48c6136fc853132aU, 0xf7c369ee4439543eU, 0x5ff7d3df204120efU,
  0xeae2f7e5fe042328U, 0xccba4f56e7f04c02U, 0x4bded0bbf516ce56U, 0x1756b6ee570d5a16U,
  0xadfa3cc3c7f3005fU, 0x6523b3ad08e25bc9U, 0x2f3efe645f920d4U, 0x5ccfda1e69c41452U,
  0x564de3d7ec3b36fcU, 0x1e262f316d170216U, 0xf74ce53f4701f176U, 0x5a3fd71853477039U,
  0x48b841251f55ebf8U, 0xc2afbb4a2a024937U, 0xaa4231a825ccf8e9U, 0xe4de31bdbfaf0352U,
  0xd3bed92ede44c4abU, 0xb94fbc5429e45b36U, 0x2e57de5eb9cafd39U, 0xba3a48ac47cecfd3U,
  0x13d5535eefdf5c50U, 0x6e1ab901d5426ad9U, 0x12594156c2d1e2e2U, 0x23be0e392610c70dU,
  0xdbc62202dcea1ceaU, 0x4426ed3313d22dd3U, 0xe0e931b2c816d3e5U, 0xefb132c3e9d43b2U,
  0xbc0abb9acf420020U, 0xce210e0dc0e6503bU, 0xb5a535d0444703adU, 0x231e2fcb1e0300d0U,
  0xd30df36d4322459U, 0x592fe83211a9ae0cU, 0x363fdd38ea5ef0b9U, 0x5bbe34ad4ffcef53U,
  0x222c147f805650cU, 0x59cbb4190a052bf7U, 0xbb57e60f18cf0632U, 0xd7143f4828193c33U,
  0x5bdaf7b93b0cc83cU, 0xa82144fabcc327e1U, 0xf4ece2efecd54c4dU, 0xbe9e2b54bf02756U,
  0xe2eee7e1e8fcc928U, 0x2d06ecddd52d3758U, 0x3dc9f8ed202d6640U, 0x3d2cdd0268bc0a4dU,
  0x24f6f5f810640b54U, 0xf3c52c3c4dcd23f1U, 0xc4f3ae9d16b442bdU, 0xaea5df0aa631dab0U,
  0xb7b142e8d52b1a28U, 0x43bddcca109611daU, 0x2d7cb24fc323d02U, 0xe6b8a7193fe0d7f6U,
  0xae13b01e50164ecbU, 0xe6311016f9371704U, 0x3c375d1cb458ecbcU, 0x1e6b1a413758462fU,
  0xce3dc661cd27d867U, 0x3e7e0f9eedc34feU, 0x2ec9310e4439bfa7U, 0x103db42b1908be5aU,
  0xee0e4cbb1c40fa2dU, 0x2612b519e1f736daU, 0x5b15563db5d4573cU, 0xc94d0c4a39fa2a51U,
  0xd8313b61fbd11533U, 0xac29d2ea3d392811U, 0xb50a09c6261caeaaU, 0x5d47c14c41bb5a07U,
  0xa7e8d40ad0dbe1ceU, 0xb53aea23efd3ba47U, 0x2f72420d939ca38U, 0x3ad1e9d43422e912U,
  0xac04eeb8ef2524feU, 0x71b35d8cec3bff3U, 0xdec7d2cafb1722c1U, 0x2abc38afe02326a4U,
  0x31e94421d45adc25U, 0xaed212a0c30842a9U, 0x6b0e5031ec1c9e1U, 0x4f2c452d0e0fc51eU,
  0xcdcf13eac898b62eU, 0x9a06a40e52fa470dU, 0xcf1403023912401aU, 0x52f2010539b4c529U,
  0xc1e6410008060b03U, 0xa8f8e8104a2d3b4dU, 0x164ab82615c437e3U, 0xcfa30326e7acd921U,
  0x2a57a9ea3abf43b6U, 0xcfb1d1fddf61cd59U, 0xf1f0b22a5760e938U, 0xdefa44c813161409U,
  0x4f4c46d5e74ce4c9U, 0xead3f0342a0afaf1U, 0x4a8ba154c5928f2U, 0xbbc297acebe7af07U,
  0xaf12d8e41fc5232eU, 0x5646ba513ea4f9ddU, 0x4b0316e8b3001127U, 0xf74a25b5195b0921U,
  0x2ec748d912f7cfe8U, 0x17e036c842ffeb40U, 0xf0dda8c81f46ef24U, 0xad5239137fbadf9U,
  0x8dd605b603c4b693U, 0xa98683cc98eb3d8fU, 0xab85bf8522c09102U, 0xf42ad8450421ce44U,
  0x52bf23bac001fd23U, 0x53d8551c0f5706a6U, 0x29532045c4d9a9caU, 0xcfa8ce0712d33d39U,
  0x38a65829c726f830U, 0xecff3e541271ed2U, 0x48a508bdc23b04edU, 0x9b95e4f8f79bd3abU,
  0xb6e019363228372cU, 0xb13614b1dce0e197U, 0xd3f1243126b30622U, 0xfff2c0004c039adU,
  0xc3ab00df36485b23U, 0x3aba2e3ffcf5d12aU, 0x41dbc902b6c21fe1U, 0xb52c18eae70f5700U,
  0xeea22cce281a07eaU, 0x34534943a613eb06U, 0xaaed6d0311114e6U, 0x2de42b30b2be3beU,
  0x41b85d28e9c02a08U, 0x4c55ed3bd5495f60U, 0x333cbbdf4c2aeb54U, 0xc0294a4ae7562604U,
  0xd33323343e223043U, 0x3b4c003aae512ee9U, 0xafcf00bee19cd9cbU, 0xa4c0b2180135d13aU,
  0x39e7e2e70bb8e94cU, 0x44d7ecd11138c82fU, 0xc2574c1d38e127d5U, 0xf245f235eef146a9U,
  0xc7bdf4cc635ab350U, 0xbf3f423a265b1c66U, 0x566c0649f1b71911U, 0x3c7572fc4218f9c2U,
  0xf2a5a7b7ab28c7f7U, 0x18b2dcfcf3cae853U, 0x31d0380b58c7a322U, 0x1923a1a8d4cab6c6U,
  0xd0b5c750d0dac548U, 0xbd51c0d5e902c353U, 0x34a345def9f70942U, 0xd70e51f9f3c0ffffU,
  0x55ed49dc17f80f3bU, 0xfe41be22a5e1ec07U, 0x30e0ff363ae0a5b9U, 0x2afe03df4a0be3daU,
  0x182c3421cc472619U, 0xfb1dad18b7decfb5U, 0xf3c609a1adb71f51U, 0x199b0d2ad609fc15U,
  0xed8a905ee2a4596U, 0xd624b40d9b19d8aaU, 0x4d11f2d8dc33423bU, 0xac2434b6432adfe1U,
  0x49101abec3baf60eU, 0x381bca574ef24402U, 0x320ac2f5465f6117U, 0x25701bf7d7cb6a5aU,
  0xcb9c174f02116261U, 0xf3310defbe1aa744U, 0xbc2bf234e9d7a412U, 0x4bf435aa120e47f3U,
  0xf51e2df1d30007ccU, 0xe2523aedb82cfe40U, 0xac2920edf20d382fU, 0xdd453014f22bfceeU,
  0x43ff41bbdfbae6f4U, 0xf8f4d1df9b42bab5U, 0xfe300fd8b739bae4U, 0xd31e10fc3129449eU,
  0x26b58e37c0ed35a8U, 0x21f85318b2201fe7U, 0x28c8d6e627eb33baU, 0xe7264eb2ef1d311bU,
  0x1d14d7b529c0d1bfU, 0xc7fcc1f0bdf1d430U, 0x242d4232cbde1c01U, 0x2e1953ae5ded40fdU,
  0x5b57fef8a728d442U, 0xd043f09ba1051e7U, 0xe60bb5b8c1eeb9f0U, 0xd14bed089ef6ccd7U,
  0xd6279c37eac1d3ddU, 0x56d31161a62807bfU, 0x261c5fec31f14f65U, 0xd3d11c4ed2f5af00U,
  0xc8f80ea6da5932c4U, 0xa2f8260ce6c1dafdU, 0xf0b2f1cdd5d0d323U, 0xdfbbf921443835f3U,
  0x11b3b3f40e032bfaU, 0xdecc19f1e56ab508U, 0x71d70ff25f283a6dU, 0x5a47d5d716676e6eU,
  0xcd4e649c646dde9U, 0xe668475c78077208U, 0xdae4ef66c21f61f5U, 0xd7b165b6f2d14a14U,
  0x58fe35beb7f6eedbU, 0xfef65b2dcb2ac750U, 0xb731350cd7401e59U, 0x50bfb04910341dcdU,
  0x593534fae8e227f2U, 0x82a2100b8fc5a23U, 0x52d3a082fb663dcU, 0xd00ad4d8c7fc610fU,
  0x78376849673b1a0cU, 0xf1155e5921172c64U, 0x3046d2b3d2f9dfc0U, 0xb54c06f5fb0bff52U,
  0xd4b00144cb255d0aU, 0x3ee80f114ccbcb59U, 0x5d3ce020e8e35c3cU, 0xba2cfca550a7f1b0U,
  0x31c7f83c5a39b347U, 0xdc645dd5b5c9bdc8U, 0x65fbe5ffbe47c009U, 0xb7f2be5a3122bb00U,
  0xc5ea2dda160c153aU, 0xddf170280f1f3134U, 0x30df502f41461e59U, 0x4c34be41ccd3e508U,
  0xda3641c9000425e5U, 0xe1d7cdf1d4ed37daU, 0x1aebe3af43d03d29U, 0x2956073ef45740baU,
  0xe846b0515abe0eafU, 0x33e336b342dd01f0U, 0xfad351440f64839U, 0xaed712b2ddfaf8f5U,
  0xd61d08a611453d43U, 0x274db7bd0936d9a5U, 0xef2bef1bedd373eU, 0xe2b4fc30f102d9d1U,
  0x143115c606a7e1d0U, 0x2849f3223a1e0babU, 0x4cba13461ef813f7U, 0xa6ef9bf3dcbdb7adU,
  0x20daccfafb04d91aU, 0x51adf153e1dc1330U, 0xf306fd1a4751e90eU, 0x24f5ab39af09f1dcU,
  0x2601ff2d2e4a55aeU, 0x3cc002d52024f5e7U, 0x71949363ad042c9U, 0xc2fd37b9e6fa1e04U,
  0xc307da3aad0af5a3U, 0xbf2afe3e05f25200U, 0x59ecb058f5391700U, 0xe1a5b235d1e824d6U,
  0x19ba3052a94b540bU, 0xc417a729d832b1ebU, 0xb3b726ccf1ad5448U, 0xcdf693c215e1b119U,
  0xb5f53b1035c8aaa8U, 0xabc31dc519ace0dfU, 0x12d73bffdd30eaf5U, 0xf649920ab9c4eff4U,
  0xd5b7d7310140003dU, 0xf81ad9c03422fe0fU, 0xfebe4e15e93af33cU, 0x55f3ffe02108ed0fU,
  0xda58d3434eb754d4U, 0x1ef0cb5a42e111ceU, 0xe807ea17b9d11869U, 0x52cd651c4f8ddd1U,
  0x33f62bb8d702b5beU, 0xdea4b0da47bcd008U, 0xda0041c1dc14b71fU, 0x37d5d8acdc322aefU,
  0x15c0a9b3b5254df9U, 0xe942aacea4381cc6U, 0xd919def5f720e79fU, 0xc21d1436a629bc0aU,
  0xcadcb0b5f7cdc4daU, 0x15fb1abeafb7ceacU, 0xdbd6f041bcb0bc4aU, 0xc3d5c10ed8c8e51bU,
  0xb6954bc7d2f59ef5U, 0x36232dd2d6043607U, 0x42e9e907ad9a15fdU, 0xb20e2de2c591b0a7U,
  0x3a452bbd18a7371aU, 0x4e4d18a2cbdad09cU, 0x511b0111a4224401U, 0xe4b5073829e10f52U,
  0x17eb4af01239eb9cU, 0xaff8d0ba323c99e6U, 0x36403106e606b23bU, 0xbb47a1b6e80cb0b4U,
  0x351553f32ce347d6U, 0x14dea5f5b1321644U, 0x2a4b52352caad52bU, 0x2c1abb50a73cfed8U,
  0xf32f40bdc530da09U, 0xc1202b14b03b1fd7U, 0x24ffe041d83dc632U, 0xb45b2203b1454ce4U,
  0xca22ddcea4ecdbcbU, 0x583838be0322dc39U, 0x2efbadadf0f9ca0dU, 0xb40333c135d9c45cU,
  0x2dfb04c00cb4c9d8U, 0x2556641f43381dddU, 0x4919d33fdd683ad2U, 0xaf9ec593fbd2fc4U,
  0x1d5ad5f85b67673fU, 0x4605460250434b12U, 0x381304eeae460c41U, 0xbbd203fb4654d4cfU,
  0xf2fcd8fb2eafe5d3U, 0x3849d2df1ed14d48U, 0x1abc5bdc06eac506U, 0x3f0ce33147ebda16U,
  0x3a0c1015e50b1022U, 0xda0359d315fb2948U, 0x24db3301c1ff4167U, 0x165af56d421e564bU,
  0x6aba4965cf13e5fbU, 0x4de7b0514e554b72U, 0x141fcb9eddd71ea4U, 0xbae32cad05f30ff5U,
  0xbd2acaa50d4ef2f2U, 0xfcf100f6f3e9a83bU, 0xa4d6071a3920d3cbU, 0x32d2b2e1c81d11c9U,
  0xfa4fd2f9173a0fd7U, 0x43ba43a3cb14f50cU, 0xa6984ae3d21be622U, 0xee192049aee8cf12U,
  0x2b452a0823feaac9U, 0x92cfbde5f6e6b236U, 0xc851b346de3f0c9aU, 0x34d49c15a20aa747U,
  0xf02aac36ed30bf1aU, 0x110db55451a7d0adU, 0x3cd3f94ba336beb5U, 0xa31ca93bf2f1e343U,
  0xdc1619c647f723aeU, 0x289bc4c4a09ef4f0U, 0xe0c8a20ac5164039U, 0x1389adfc1c92bbe1U,
  0x98abb79f272bd8d2U, 0x2503e2af3320c62cU, 0xa70c4821a62334a9U, 0x244cadcb382a4ad4U,
  0x4629b526a320d6caU, 0xf628ad4f50bd3811U, 0x3ab0102751fbc408U, 0x473e0d12c9a9d4abU,
  0xf202aba815f0df56U, 0xfbbde133ca0d3bd0U, 0xc18a6cdadc3e106U, 0xdaaae626f4d1cbbdU,
  0x3942e3ad0cdf01b6U, 0x10e63ca61aca04e0U, 0x1dccd5d4ff47230cU, 0x292eccb64fcccac9U,
  0xe9deafe4e1c22706U, 0xcd32c50e0a4a36d6U, 0xaead4badc8e9db40U, 0xb01f0bfcfac74aeeU,
  0xee2758d512bdcbddU, 0x4dbe3bea0500133dU, 0xd5326f25e5d4a67U, 0x332025b8e5f7fbf6U,
  0xcee934e14339c1edU, 0xe17b4d29c80d1b2dU, 0x7c237f0e42e26620U, 0xfc20213ce0e9affcU,
  0x33b111b7a13c0abaU, 0x17ecdf03cc2bb3c8U, 0x9191c1adfc426d3U, 0x2716081415432705U,
  0xbe24d348133353b2U, 0xcfe6e9b014f0ff15U, 0x4c44c2cf00e1a3e1U, 0x34302dfa2fce3642U,
  0xc64226e20eb4492eU, 0xfed3cab3b7f0ee2fU, 0xd4cc0a9227fc3d32U, 0xef4decf019c5139dU,
  0xb11238d724d3f4d2U, 0xcedf25ced5e8f8c5U, 0x37c5fe00b4d7e1b9U, 0x3bb65ada59cddcb5U,
  0xfe3f172bf62051fdU, 0x145ad3c1d058de02U, 0x34d90b31c510ac12U, 0x21d40f0e62151c5U,
  0x56d4d9c9c7ae3c33U, 0x44f34b3f611837adU, 0xd91717b942e4abe1U, 0x3c2233241f0718d7U,
  0xb7ed3941df31a5c5U, 0xb27ec17e6e42335U, 0x4ad01337323db039U, 0x9f0cccf6a1b8a1b8U,
  0xa80f464d9bba4611U, 0xcca5f017caeb3725U, 0xb9c12f2bab47abdfU, 0xc913d0e1e4492ae2U,
  0x19b39545ce4bfc18U, 0x274a2b993c38da9dU, 0xaf114abd17094e4aU, 0x2bcc4b1fbb0eeacaU,
  0xe3045a345220053dU, 0xf3491a5db62ec054U, 0x42fff72126305117U, 0x514305c51e5fc7e3U,
  0x3306ece547b44f33U, 0xb05ed3e2534ca4cdU, 0xaa1ca52fa6b23ff5U, 0xee13cd12c2e42b2aU,
  0xea5fbc3af367b9efU, 0xd9d34e632333beceU, 0xcdfc2c434746ee71U, 0x28c1c1dac9645343U,
  0x150d5356164d3dedU, 0x215fd63e49d2b539U, 0xcb53faa293b5c4bU, 0xeef32050b22fff05U,
  0x52e82da1c9aab9e3U, 0xfca431c93c3cbf03U, 0xe53562ba8a7c83eU, 0x30e1cbe6092d031dU,
  0xdf0d48314c3e4be6U, 0xee00f7fec2fee6f5U, 0x19091e4a26c73d38U, 0x333af467f36c4cd1U,
  0x6de627193fe952c6U, 0x6310f01de3cabf3U, 0x500e323bd62f17cdU, 0x45cca45840fd0d24U,
  0x3301853e109cd49U, 0xe514003647ed53ceU, 0xbb55d6d30beccea8U, 0xb2b0293d1c3fefd4U,
  0xa31472157c74aa6U, 0xe0c91fcfd0e52f11U, 0xe5dc16f82e27333eU, 0xfcdf1ed5413e30daU,
  0xdc20fc5fd4374062U, 0x3e26243fb0201ce1U, 0xdedb16ed260ac3f7U, 0x594fc7c6fc424341U,
  0xc24cd640e3d1fc4dU, 0x49201930bd3a35f4U, 0x574248273cacda29U, 0x5859a7b9c54e2eefU,
  0xa3e0e5ef5a015badU, 0x28bd014bd32dd91bU, 0x29e12ed2483015c3U, 0xd9b624f9ff48cd2aU,
  0x34e1b5c24adaa8acU, 0x1e17d901aed60914U, 0xbd1d3c164bc3df3dU, 0xdf0fd9aa54d850aaU,
  0x93f08c823b1d3d3U, 0x1b25e2552e2b5cfU, 0x4db7fd3dfaabe6f4U, 0x373106c406f83d40U,
  0xefdd321cd402f81aU, 0x3d17fb55e5f7baccU, 0xb6460afeb0eba5faU, 0x4d2f1313e6e7c3caU,
  0x43e2c8a4d916ea9dU, 0xf0e0ccc81fcef1d6U, 0xca620937b007cfe2U, 0xfa6015da37cbf84fU,
  0x5810f0f71ec8e6cfU, 0xf450b0a11622ece7U, 0x1ff9c8a1a23e2604U, 0x2e57503c4d0fb7e8U,
  0x370802dbf0d7b745U, 0xe3bd24170f130102U, 0x4376562d347b4dbU, 0x41224e0f41c638bcU,
  0x495d3b1c5a0ec0c0U, 0xbffa30f36c59cafcU, 0xe132faca074052edU, 0xdba5c54bdb05e9acU,
  0x40e8e5deecff4cf1U, 0xdbf0ca33eea1adf3U, 0x22e7b1364f36d81fU, 0x1bc439bcafeefcb8U,
  0xb840d6ba07d1b4c1U, 0xb71357a2403ec413U, 0xfd9946e5ad22a74bU, 0xc20b0bf7ad473e2eU,
  0x3303b0d521ef3021U, 0xa6abb004e30d29a4U, 0xaa42f295e01b2ac1U, 0xe80af60f9d13c4b6U,
  0xaca507c7f6b8b0bdU, 0xd5db5c4b463cb059U, 0xe4b6bacc4aa5f5e7U, 0x3522bd4ccd16c8b1U,
  0xecc3b7cabefa10fcU, 0x1aa946062bdaed11U, 0x3ca1e5dbea050554U, 0xd7fff9a5a94f2aa2U,
  0x46df05e532a83444U, 0x3dbe40b046c40b24U, 0xa94001f7bcd6ebb3U, 0x4de74153dd46b2c7U,
  0x4bb5021baab90812U, 0x3d1bf100a6a7271fU, 0xed0121aabfca281aU, 0xc5abdc30e83a591dU,
  0x592853e228c4132eU, 0xb7a71f1dcf4faf2aU, 0xb1e736c1cbf1fba8U, 0x65e823c92ec046dcU,
  0xe2033d321b3a28eaU, 0x1e0af66b23f1ee1fU, 0x5f5cf6b8d3ea0becU, 0x504a3eebe6cc5e4cU,
  0xdce211099fc40327U, 0x2931d4a0fb45dd06U, 0x8ff45a4f332c8fbU, 0x4ec7ac1737bc3821U,
  0x1f3a3d232c35b0ceU, 0xb74b0dbfe71953e5U, 0xb002183b58c1bdcaU, 0xf63de12afbe43addU,
  0x271f441f2c2faf06U, 0xea258bd5aceac123U, 0xb2b438291e228b05U, 0x2c8c99aef6b1e3a6U,
  0xee3e00fc10c854cbU, 0x34ede002754c3dbU, 0x565f463a37fe22daU, 0x3326ca0ef3e9e6beU,
  0x2bfa4bd702befc3dU, 0x32e9e96d66b9bb1aU, 0x39c8b94424cadbc6U, 0x4b1d4764ba10bf64U,
  0xe53c7cb021e5ffaU, 0x154fe733ba2f39a9U, 0xcfddbaa80ce656d9U, 0xf4cbe99a3a1399eaU,
  0xe9310a234d3bcb14U, 0x34d8a11a2f38a2a7U, 0xfde7c92635e33f22U, 0xa725d7d71ad011a0U,
  0x32bca559fee0ed13U, 0xa24f1d2118e5f11dU, 0xe7530d1da458d753U, 0xe418d4d4005048b4U,
  0xe5da2926f7f0a351U, 0x19f6d222caf4e69aU, 0x11d1d4f324b823f9U, 0xe0a316f8dccbe714U,
  0xcba0b114d88c2ad6U, 0xe0459fffd2a745fdU, 0xf7b9a4a107152e2fU, 0xdcee2b2d57fb1000U,
  0xdeadc538e2bff32eU, 0x911ddcbf62652eaU, 0xf306f109d64bf620U, 0x513bdbcee942f521U,
  0xcc4fcf1b2801fa53U, 0xba2fbd1ea5cffd11U, 0xcfd4fca6c3dce926U, 0xf1c833011ad8b01fU,
  0x6ce0d000d40261fU, 0xd8382a36caf43d26U, 0x438cec81d15394cU, 0x58191ee10de624f9U,
  0x21410bbecd1148acU, 0x3fa32de2d92a433cU, 0x5f80a38a6f1d0c2U, 0xdc1436c53b2a28e1U,
  0x22f83a5d32b45e02U, 0xe65bdeb14acb4765U, 0x6161dd223fc00153U, 0xf51f6e212e10eaffU,
  0xc0f4c11a2c270605U, 0x13f201a50470a65U, 0x26d2f50a0cb120abU, 0x1b31eea7e3f0d4efU,
  0xe5f1ae41df0421d2U, 0xe7da261aad2c1d32U, 0x45b2a4eb3503032bU, 0x173bebd70db647daU,
  0x1c0a3eb751e8e4d2U, 0x3bc2ff2dd01a94aU, 0x3b521c2dbefe58b5U, 0x36666330380fd9d2U,
  0xecfe2b65ef503756U, 0x4adfde0865e40f4bU, 0xd2b1402624bc3516U, 0x54d4e2cf132e18aeU,
  0xceac140bcf34c8d0U, 0x3fce9f1900f2f2c8U, 0x334f2bebd0f9c7d1U, 0x41c7c8df0a3a3ad2U,
  0xb7cffdc71bbf1cefU, 0x3bff0bb800b6fa25U, 0xb14ec0b0cd5a516U, 0x33e155f9d1551749U,
  0x430f446102ef4dd6U, 0xbdc8f85203580c41U, 0x2fdd1e4dc1c1e9edU, 0xb512effc1e2f2bacU,
  0xfaf6f2e513fe1533U, 0x38014b3db83017c5U, 0xfac954c3c6b219c8U, 0x1f44dc0915abacb0U,
  0x441fa8a52848d8dcU, 0xbdd007d6cfe61e34U, 0x7beb1f148d2f94eU, 0x402ccaaaaa0049f7U,
  0xa9c44f1b13b707efU, 0x4abcbd26c69f37e7U, 0xc8f0c3e048c69bbeU, 0xcaea3e1da714ecc9U,
  0xaebce7311e4f462cU, 0x55e2d357b4511148U, 0xbaf402c4c8f5b9eaU, 0x4c09d541023840d7U,
  0xc09161b4dc40bf5U, 0x48bd18b4333d2552U, 0xa0ada24ddda5eaf3U, 0x25a4ef19f8a0a647U,
  0x21281822f5f9e4c5U, 0x1ddd4c4b9ccfdfc7U, 0xf7a61f04fc050618U, 0x36a21dcbe249b6ebU,
  0xec2e39a641ecc6c8U, 0xb52b15fc5230b94cU, 0xb7fbd619bd282e42U, 0xf4c835e94fcfd949U,
  0xbcdbd505c7de05b7U, 0x3019e62cf5f23b4cU, 0xb5b8031be441121dU, 0xc330e2f009d3e10dU,
  0xed8b7352d2150eeU, 0x6221437abb13debU, 0x1bce0ead2c385932U, 0xa9f104ad0a5c49fcU,
  0xdde5cde5c058400dU, 0xe200d3d4d5b9b800U, 0x26b3f3ef52f7a947U, 0xd2aaf812c25053b0U,
  0x2e393a2ab6d3c230U, 0x362605d61c3f0a5cU, 0xe705c8380fe4bf38U, 0xcb2ae4f4443efea8U,
  0x28f8fddd4a30e3b5U, 0x1f20cc5acb0c046U, 0x9fe8bafcc740dedfU, 0xee10cdac12b317f0U,
  0xd7fff2b2a0454954U, 0xddd2f8d24116b7adU, 0xb0dbe8e1d749c131U, 0x221df9eaa3184d05U,
  0xa433fa3cb44522bfU, 0x1fdaf93a172f42feU, 0xb94543e04d9d1215U, 0xc5d32f0b180cbaa8U,
  0xe43ee616d33706b8U, 0xd0d2bfcaacff96d5U, 0xb8062838b6c605f2U, 0x1c95bd0df5de30f5U,
  0xa2d1f39bf9fad99cU, 0x451ce7a4b11bb4b5U, 0xcfcaa929f0e4cff3U, 0x270fbfd7a24e9fbaU,
  0x4f3a2a06b8e8dbf2U, 0xb75719e9510750b5U, 0xd6255025e93bcf57U, 0xa3d2f7f840494233U,
  0xb6f94341440438f6U, 0xe11639a5ad25f38dU, 0xdc97ab38fdadf71eU, 0x9ecdb72cdbefe0afU,
  0xfab71355921e89c3U, 0x5a0a235810ca2b00U, 0x1dd839b9a4252200U, 0xbe9ebe44e4fbf2b3U,
  0xde37a79c05fa3ed8U, 0x42d43ee010d5c550U, 0x2faab3cebdd8d842U, 0x6f14c31dfc8faebU,
  0x2db23f1344061ec0U, 0x3cd3af11454fb3f9U, 0xe6fa0eea47574346U, 0x40632d462a6224f8U,
  0x21e8ec0454fe6354U, 0xd2ff41a2bcd0cf7U, 0x4c44d71925a1fed8U, 0xdcacbb4aa8ee13a6U,
  0xd8ae4328f5f136cdU, 0x39a72ee0435ccf50U, 0x47f3cb3ad924205bU, 0xfe10029f1018b845U,
  0x4d1d79c22a0f852U, 0xabbb29471c3eeb11U, 0xbff0e2bd0317c1e0U, 0xccc700b2e6bbd00eU,
  0xe3c0efb0d61f4118U, 0x18f4eed5d81d1398U, 0xcbdc4a2639e732fbU, 0x1a10c7d2facfb2aeU,
  0x5522dd144ac9d54eU, 0xcfc5d1af4a0f541aU, 0x30110a0f1b162ce0U, 0xfb433d27f85345fdU,
  0xabb4a2a9122617b5U, 0xd8b635e7e71f33e8U, 0xece6cb263834a9b5U, 0x97fd16b0efe2cc38U,
  0x47ab04eb932a2fd8U, 0x1bb3d2a39234d49dU, 0xf34fe01e2f40d4b7U, 0x26aeb9101d240fe2U,
  0xbabf26dae621f7b8U, 0x2ebd2be2af3010c5U, 0xe2d45e4ad9ce0f5eU, 0xf02174cabbb11bbU,
  0xa80a47e2e2094547U, 0xfc2bfdcda1b1e904U, 0x42c6c7b52a280a25U, 0x3c97000fbbd7a006U,
  0xdda3fdcc8f3d272eU, 0xd4b493ab271a9002U, 0x5cba56c75edee94aU, 0xacaca924b4232713U,
  0xba451152b8bd1f4aU, 0x1d52353015ae1ba9U, 0xd7a802a90611dc23U, 0x5038a22f4705fa56U,
  0x425eb4b7d6d32eb3U, 0x61b7edce4c431548U, 0x2c20757e6f9b2acU, 0xd1d2e8ed4145c161U,
  0xfcc9d5fdc64ff82fU, 0xe5354848e0c3540eU, 0x47d100ba555c4713U, 0x3a2c19c9cd1e342dU,
  0x5d23c23813610e5cU, 0x51c83dc6f819c1f8U, 0x1cc9abbac702c5e3U, 0x1cf31bd01fea3629U,
  0xe82d1c06adba28ffU, 0x5cdac6d1e7c5ffc3U, 0xdf0bec0ff9fe5cebU, 0x344c4914662b3fefU,
  0xcc7d1ecd15fbe45U, 0x280c337435d54e1fU, 0x321d50e7434e6076U, 0xcd15fee00a39e9f2U,
  0x523f1cf0a83a1042U, 0xd4e8dbe40ab9aab9U, 0x9febcd36b001c4caU, 0xe8c0444516f39f2aU,
  0xaf1cfc2401ee17beU, 0x42f0ea342e28e1b7U, 0xe951fc3b26acbf36U, 0x84fe2e055e652b8U,
  0x354633c5f152bbb2U, 0x1fb0f0d5f1f4192fU, 0x1e14156e5ca5237U, 0xd3b307dc26d73f33U,
  0x9e113448fd393f0fU, 0xb510db08b7c3c749U, 0x5dcbbc2f23f05aeU, 0xbed6e5b15bd248c8U,
  0x5227eec1255449e4U, 0x9f408d0cbbeb302U, 0xad1dae43210f451dU, 0xa1ceb92cf3385025U,
  0xf2c827a22ca403afU, 0xce91c1942cc9fed5U, 0x1ea0cd952433a735U, 0x131e30c2abe50840U,
  0xa81030a6dccb04c9U, 0x14f8a316284244afU, 0x394b090b50b8d9f9U, 0xa952310d3b47d0c9U,
  0x3af92ebf5cd1f5efU, 0x5210e4dafdc3c109U, 0xac54fbdcdaaef01bU, 0x472ac44c28e62ed8U,
  0x4326cb14dbd8412cU, 0x1e202909c9e501c2U, 0xd6d4add1ae8ff702U, 0xb1a0d0e618da0adeU,
  0xfcbcf5e2eeeede60U, 0x14c84bdf4ec9b649U, 0x4dda515522c6fbdbU, 0xfbc2c150f05d36e6U,
  0xd0b6c8d64f465adfU, 0x2ade384db20afdf4U, 0xb03444a3055d0f0U, 0x1bb3a32fac051dcU,
  0x292b454f2b57cf19U, 0xee6ff748ea02d4c9U, 0x636d3701635e6c28U, 0x67d82cefe2330837U,
  0xacbe4a150eda4820U, 0x2b352cf6ea0bfe08U, 0xc916140daed01841U, 0xcb4650c7daf931cfU,
  0xd723d64d35465b57U, 0x333f3ca5f84fb3e0U, 0xf70624c1edb0501aU, 0xa5402d25b7aed9e3U,
  0xc1091c14b43fa3a6U, 0x89a349fd7332e9eU, 0x2c4ef305f5a5162eU, 0x2dbb6de4c423c14U,
  0xc114ff15ac9ecbd5U, 0x4bfcd5392ec3423bU, 0x359dec32c9b2daa1U, 0xe4b8463450dea720U,
  0x20af125b711af4cU, 0x35d60f11b93a13ebU, 0xd5283513b0122be5U, 0x222deae1c9180b01U,
  0x4d0825530ee84350U, 0x4630f5c8041dd625U, 0xe525ebb1d34ef51fU, 0x585a2d480f0bdd5eU,
  0xc0ae2bfc4ce7b423U, 0xb1272dd7341a2514U, 0xcec130190299f121U, 0x29bbf8cbd43a9ce8U,
  0x10d8d5211349cbd4U, 0xd3530dace658e220U, 0x526dba6a60aee32U, 0x42f4e5d69ff702d9U,
  0xd2c4b5ae351a5110U, 0xdce1c6dc9fa503d4U, 0xde10b1381fefa092U, 0xead525b515e0e6f2U,
  0x9aff0da2e902cbf7U, 0x101e5dd9c9e0d7fbU, 0x3db344a9ece4c616U, 0xe55b93c34c4590fU,
  0xabefe9ce2b28b80fU, 0xcbfb2dd11f3decffU, 0xb525ea46e95c150fU, 0xe738a840c1c719c9U,
  0xeaf91bcae0473459U, 0x44ac114f918c803U, 0x40055330b03f3cfU, 0xbe06e102d5272516U,
  0x34683bfe5dead7e6U, 0xacec6a634abd6308U, 0x237d71919ea4e55U, 0x31d7a52de9ebf9feU,
  0xd448522be72829abU, 0x23ccfe49f30d36c4U, 0xdbc12cebd32f0653U, 0x48c5cc3854d1b8e8U,
  0x263f15a13fee590eU, 0x24ea564ca344ebb2U, 0xedc93ef7fc9eaba8U, 0x741c09e9c2ffad4U,
  0x2e18da45f91fd347U, 0x3c492cd100a24bb7U, 0xc3ff67c236dde3b2U, 0x25b1b41c376516dcU,
  0xb2001c5552d1de25U, 0xad073d3db9265a37U, 0xe3d14101ad04eed3U, 0xff44c23bbffdb6c6U,
  0xd34e474b5a1fc1b3U, 0xb708da650ed72cfcU, 0xd81812b403da4fd5U, 0xf8e2083304ecba54U,
  0x5d406306ed5f4e67U, 0xd3e2491f5bbccc0bU, 0x26039a35bd6441c4U, 0xa50022a84f30ec33U,
  0x254425be20d620a0U, 0x3633abe6d3feea1bU, 0x5042a8b5033a0d06U, 0x16bbab37dbf89bcfU,
  0xd122289f29ece213U, 0x2244ca5301d1d7c2U, 0x9f3026f34dc52af1U, 0xc1042f1b2ab0334fU,
  0x114a0ccc12100730U, 0xde0217cb2c1534f8U, 0xf2bc4ac04fcebdU, 0x3402ecee551dd8c9U,
  0xc3500423b52d0a2fU, 0xf8f7cfc0ba1436e7U, 0x3820ce4a541f52faU, 0xcbd0ad200ca6e957U,
  0x4bbef32dae235d58U, 0x46def2ade21fecbdU, 0xaecd1100201bafbbU, 0xba4d6f3e6bc0f26U,
  0xa9b3b5f0f907a0abU, 0x4c9bc4b7ee34a72dU, 0x9e17ce2aeacd0da2U, 0x27cedaa509d1f105U,
  0x2d0f5ffad4cf0db9U, 0xf4f93ecace5dc95aU, 0xf2612408f25107c3U, 0x3df909e85abe550fU,
  0xf5afcd284e51132fU, 0x2e2b11bbe2c3cc0aU, 0x5833d460d0f3ab45U, 0xc131240b854fdf8U,
  0x241ee4c903dde654U, 0x937bfa9b7031344U, 0xb1b6adf6194edcb0U, 0xc81c38a732d71ef3U,
  0xb50eac505425b1f1U, 0x1e17fdff210d08deU, 0x92cda560d3aeba3U, 0x4fba616e6cc3336U,
  0xba3701f23da79fbbU, 0x33102fdbb9bee9ddU, 0xf105081c0ca60835U, 0x15410bf32a4c19b1U,
  0xc43551aaffe6db43U, 0xd7f8093c23c0d8f4U, 0xc6e2c4f80c03bbb7U, 0x34ffc46cdba12a2U,
  0xf9b4211b19dbb235U, 0xf0a7eeb9080aaa15U, 0xf4dc36f9ab1cb8b8U, 0x3ed81abbb2c3cc56U,
  0x1e0616c556d6b617U, 0x3829e03c0cfff344U, 0xab21cb09b055ffffU, 0xdfcf4fc04cbde406U,
  0xcbbbd2e84d97f8d3U, 0x27dabfdb4393dfc2U, 0x2a9f36ac47fe26d2U, 0x6c2a1ffa5d4ca8fU,
  0x39f6ffe50623be3eU, 0xe408b646455e18bdU, 0x344dde192200bfb0U, 0xab5a7d3d4d6d9dcU,
  0xbe12c43e30db5303U, 0xd7ae35383f1001fbU, 0x29220644eafecce3U, 0xbbc4bfd52ac6cb48U,
  0xbcf0bc1838c53604U, 0xdbdc6ad6c109bb03U, 0x2c314b5426231d45U, 0x54bc6cc6641a682aU,
  0x18195fd9251f314fU, 0x2b183eabf3ba1f4aU, 0xb0d2b35336aa2f01U, 0x31ad2ca6c9060cd6U,
  0xaeb09b8e6cff511U, 0x57c83624ab2c4d0aU, 0x11c3b250ba21c1c3U, 0x14e73dee34a84f2fU,
  0x32ae1d1bc904bf1dU, 0x93e5a44c3728e1f4U, 0xc099121626b1f41fU, 0xa486b331a32a35f7U,
  0xb6d02f0796c1112dU, 0xa1e6934148c1a523U, 0x3c3104f51c501e25U, 0xcf48154a3902539eU,
  0xdb211ea8faa3ba2fU, 0xc353ca230934fe0aU, 0x3de3aeb922f64eU, 0xfa46121b05e8d734U,
  0x12a92d12073c232cU, 0x17380b0237361034U, 0xfcebc3d597c69aeaU, 0x833788a3e93b8439U,
  0x5188b96d604948fU, 0x1b201b068a9ee3deU, 0xac0ed31046531701U, 0x1913d226eaf4edcdU,
  0x9c17f09acaf0e2c5U, 0x9cab06b9fdb3e325U, 0x4f3e4d1a44f1fc44U, 0xbf4a323eae26e83cU,
  0xcae2333be3f2dcc5U, 0x4e403135c9a522d4U, 0x3fc705124d06efd2U, 0xda025626bc12e40cU,
  0x313bbeb327f10a18U, 0x2219e651e75cac4bU, 0x6603bd0bc358bfc8U, 0xaf1cae49dcb1b7bbU,
  0x1de2e23640c1b816U, 0xe631dd28b1500fdbU, 0x4343f2afd2e3d715U, 0x21c7d923c4deec36U,
  0xfd23310bb153c4faU, 0xbde0ffec2fcc6543U, 0x72f44d10c82863e8U, 0x1c6713c560460251U,
  0xf53e126852e4f378U, 0x5e0715660b466c4eU, 0x24281b6010b2652cU, 0xab394b36d417c00dU,
  0x11fbbe445fee4532U, 0xfaa6a43b4631beb8U, 0xc5b749ecabfda416U, 0x592330be3f2cb70cU,
  0x37fdef46d73fb5f6U, 0x58624f63d2553044U, 0x5e1b48e6edb32737U, 0x5d26f8222463ec60U,
  0xdd18fd60c040f71aU, 0x245fda2ac53a6f1cU, 0xdc5af62d646374f4U, 0xd13ba242e5bf4bf0U,
  0x5ce2dfd34eae4e50U, 0x54b30348152bc1ceU, 0xc93930be0fc0da57U, 0x244de8272611ad03U,
  0x8dab6e348c1091bU, 0x1c37f5220fecca42U, 0xce00eb1f2eb6c3c7U, 0x37420305f5a99e31U,
  0xc0d0e345bb22bc0bU, 0xdc342bf9b2b7b6a6U, 0x4eb04edbfa11ec34U, 0xc1074dbd2239b6fcU,
  0x4cf102b90d191207U, 0xd146b14750b79e0bU, 0x3734e44c554e3b3bU, 0xaf334c00f2111d00U,
  0xd91e00d4d2e3ececU, 0xfca049e0a5b64dfcU, 0x2efbdee5e050461bU, 0xa5429571d443f2cU,
  0x37ab34e3c3d5eedaU, 0x211afebd1d5a3313U, 0x1e500dad05ae4311U, 0xf4183708392d2258U,
  0x10261ad3cd5055d3U, 0xdb3fd8b43ae0ca19U, 0xb4e2a32f1db94a39U, 0xa3c654dd064dafdeU,
  0x41064bd4a3a62855U, 0xfd26a7d74c09a5bbU, 0x53deda4bf31c0a15U, 0xe22f474f05484831U,
  0x6743f2c70a1ec33fU, 0xf25822ff0069c2c0U, 0x5e75f37a6cf7d321U, 0x52d721d609400303U,
  0x2039b81504b70234U, 0xe2a3e840da470814U, 0xd52bccf9db000359U, 0xa503c42edc00433cU,
  0xcc2f2034f450f0a7U, 0x1c16f426c2d841c2U, 0xc1ecbd23abf738f4U, 0xc5db9dd018021cc5U,
  0xdcc9eaa2647b7e3U, 0xea0bb6ece129bfU, 0xb0fdbde3219b43b0U, 0xaefe19ff19da99f9U,
  0xe95d422511ee3225U, 0x200ccfc521d039c5U, 0x4aef3c1845023a5aU, 0xf815b35708cfb327U,
  0x3f1fa4fe36fe36aeU, 0xd4f1f8f5daaadc50U, 0xd7e1ba5629ba49c7U, 0x42010438e04b1c5dU,
  0x4f342f6109d236b4U, 0xe8c0bdf84cdb3b2eU, 0xc1f865ee0b307270U, 0x8e9767a28dfc90aU,
  0x38ef7c60U, 0x0U, 0x0U, 0x0U,
  0x0U, 0x0U, 0x0U, 0x0U,
  0x0U, 0x0U, 0x0U, 0x0U,
  0x0U, 0x0U, 0x0U, 0x0U,
  0x0U, 0x0U, 0x0U, 0x0U,
  0x0U, 0x0U, 0x0U, 0x0U,
  0x0U, 0x0U, 0x0U, 0x0U,
  0x0U, 0x0U, 0x0U, 0x0U,
  0x0U, 0x0U, 0x0U, 0x0U,
  0x0U, 0x0U, 0x0U, 0x0U,
  0x0U, 0x0U, 0x0U, 0x0U,
  0x0U, 0x0U, 0x0U, 0x0U,
  0x0U, 0x0U, 0x0U, 0x0U,
  0x0U, 0x0U, 0x0U, 0x0U,
  0x0U, 0x0U, 0x0U, 0x0U,
  0x0U, 0x0U, 0x0U, 0x0U,
  0xfc04314600000000U, 0x54b50b2726ee0dadU, 0x67a01664e412bbf0U, 0xd4ab37e4fb69690dU,
  0xed58fd48bbefca46U, 0x4daf393840e7e13cU, 0x233058b136274b28U, 0x32b1f8f4db60c8d7U,
  0x4bc3df374de8dfe1U, 0x3c6512b20f1f1ea0U, 0xacf04ed430bf172bU, 0x3b1f6159f13ce6c1U,
  0xec5c2b3af3411a28U, 0x479e125f2ccc4c47U, 0x3441363f0ec0b221U, 0xba0409313537c3f9U,
  0x672c5cdeca1e032eU, 0x10f001c24020df27U, 0x41bbe3c8c547dbfcU, 0xaf3ed1005be54339U,
  0x56d1cc3698b7fbfbU, 0x1959e529bd583b3dU, 0xbd202f3c0915ef08U, 0x3184be5fae02107U,
  0x2e4ccee5d71bd2afU, 0xfc333400e536d0ceU, 0x483b3d3d251a2a45U, 0x3ece3820261958e0U,
  0xcc2e22be1754c7a7U, 0xd127080fbc413bc1U, 0x48b148272af44240U, 0xad3a29ca0a595730U,
  0xfe96602ea351145aU, 0x466b21d2ecf5e9d0U, 0x5a0ee5292c97acdcU, 0xac0ce2db353672bdU,
  0x2a5153cfba645636U, 0xdde5f24b05b4f639U, 0x1f1cb3d9400f3a53U, 0xd145b1f36b31741U,
  0x11093f2aeecdfa08U, 0x8f5b92ad8504bafU, 0xd3d604c1c8beee6fU, 0xa922d801fce0abb2U,
  0x13341245bc21fb41U, 0xc799faf1d642b55aU, 0xb4a3a5dd5640c84aU, 0xd86406d6c701f30eU,
  0xd2b26650d3c567feU, 0x2adbd543ec5410acU, 0xa402d4b1599c66bU, 0xd066acb335b56a0dU,
  0x67eb4744d16abd19U, 0x245261b3d63b9e58U, 0xe4e6d609152fa82eU, 0xf11c0256ee5a2253U,
  0x9d773dd1813a71fU, 0xdd5841e2df511aa2U, 0xdcb938ab39aa27d8U, 0xbd1708da580a26daU,
  0x200cf8e039d2ab0fU, 0x442c2a1bef85cbfU, 0x46abe0b248ef5ca4U, 0x9747201d0c4f55adU,
  0x4564f2f43345342eU, 0xe5ddc81d0ae249ddU, 0x6c937e8e7eadda0U, 0xd83148feaa4a3e1bU,
  0x8eed2e5e4b0bb303U, 0xaccbf2ddb540ddbbU, 0xfd13245f16e7f7cdU, 0x1e283d3d4c52ae1fU,
  0x5ee8b13cbbc1b5f6U, 0xcb3ef3d9d5ad5717U, 0x69e1233dc2f95f0cU, 0x4fefe9dbcd462506U,
  0x25dcfd1a2f21d810U, 0x1d3f28bb49e42e05U, 0xf240cc461a25fc3cU, 0xbfa990320f00ba2bU,
  0x54b60b3327e7dfd4U, 0x2aca5423743e952U, 0x5dc93744e4bd5556U, 0x1901b234f33afd42U,
  0x6e191ec9111f3acbU, 0x54f447e42a05d84fU, 0xdff73d2edaa72dc8U, 0x4e4eda4140102159U,
  0x3632460246f8a511U, 0xfb61dfb3db06b3c3U, 0xe70350e6cce53002U, 0xb9d46e3df30ff45U,
  0xa43feb0b1afbfaccU, 0x5cfbd3c141b027c7U, 0xf730fbf5e3c36651U, 0xa716642bb4206c15U,
  0xf31163914c7e5b2U, 0xc3f69c17d641b5f6U, 0x4ea9feb61bdebc05U, 0xfe1ac90541d637d0U,
  0x7c7414126c941bbU, 0x630739d34452dbdaU, 0xde2be6f9f531c349U, 0xa615c0b6a1b73e3cU,
  0xe2dc120a3728fa54U, 0x3f61ec484a3c4cb3U, 0xb14643aa120d24dfU, 0x191d38cf6533c411U,
  0xf7cf01bd49dab60aU, 0xc698174aaa43041dU, 0x3d94c2e753f728c8U, 0x3a3e5ec93fb2c237U,
  0xbece436a7f8fd0dU, 0xccb5a79e0dfab8caU, 0x4fe9b9b99c40e3f7U, 0xc491836cdc5fe13U,
  0x4de23ebb1d5027fcU, 0xca0dad5556d50226U, 0xf52944c319fa221bU, 0x11b8f1ef20f12a1fU,
  0xa0f7086820980ee5U, 0x5538b5de1cfea546U, 0x4027c0bc3cd14b3bU, 0xb4471d31f24738d2U,
  0xa4afaff9bf1936c3U, 0xc14abdcbfd24481eU, 0x8fc300d0cdf263bU, 0x40354748ffdfebccU,
  0xd4da9ba1be30a1cU, 0x125024ee4dd93d41U, 0xa24735ebb75ea740U, 0xfdfbc5bb0f1331f3U,
  0x18e533dfb7c5b3daU, 0xd3d71a2bb813aac7U, 0xfb2f4134efe19ae5U, 0x56f4632fb2d2f3b6U,
  0x5e06afeec90a1b3cU, 0xd44f0820f2264f18U, 0xb5bf272e0fb1051eU, 0x21bf14f6bfd6a825U,
  0xca981d29ac0fde29U, 0xd1a4d9b9f0164aadU, 0x153cfc240b50b197U, 0xdcd00558b9222459U,
  0xedcc0cb5044f70cU, 0xbca6e0fa01a303e4U, 0xa755d248224a2ea3U, 0x708fe7320acecab2U,
  0xe2eeb55735b3cabcU, 0x17fcb6f5eab56a1eU, 0xc712afcfcdc7691fU, 0x1e49022f1d55b219U,
  0x3bb0d10efc3b42bcU, 0xa2ef9a27ffc83e37U, 0x29c455134e5d4fe5U, 0xc1324724acc1fcd3U,
  0x4106f6e4671de3a0U, 0xd731b9f933ea32bbU, 0xf1f853c99ffcaf62U, 0x23cce9b577fd362eU,
  0x1fede7fa44ffb4d4U, 0xdd66406f90950e7U, 0x3ecb3ef3dcc63fa3U, 0x3a33e74bcccfd1f3U,
  0xe1d832471391f9e1U, 0x616ecd2271afa52U, 0x1efc5073bbc8cab3U, 0xb31d98d6ca031013U,
  0xeeb8ebe62853163fU, 0x152adc2b092b0456U, 0xf9303ef2c761e147U, 0x43b0169226be1551U,
  0x604d150a39da430fU, 0xbebd1629bd39c7e3U, 0x53554930e6df330dU, 0xee98c74b5d1fa943U,
  0xc852a5a99d50f6ecU, 0x95071c4db7ba17d4U, 0xa23aa944eccd0da3U, 0x52c45aa3e4ddbd09U,
  0x1455f3f222c6d148U, 0xfded4220b1ef422U, 0x11994cdb99b8cc93U, 0x20fdf9fedfe0ff0cU,
  0x36b1b8ae43b32994U, 0xe0b6dc45f3f93c58U, 0x722fdbdc39331f29U, 0xdfbed4032eb35522U,
  0xdef73eb732570302U, 0xb36bf75bbde6acc0U, 0xcf5bd04b481b3915U, 0x20b3efb62342c53aU,
  0xe615efd3ce4bc89aU, 0x260daddbf00b25a8U, 0xc9f5470db8de292eU, 0x28cc20f11ab1314cU,
  0xd853f4bb193cf3dcU, 0x5419d24319025ce1U, 0xbb4a5713cec8a429U, 0x4fcf11f49f4f05bU,
  0xd9c618d5e5cef1fcU, 0x5061fd4cd9baf250U, 0xb535c6af46a3ea2eU, 0xbda5ce5113f3be33U,
  0x8f6190dcb1dd44dU, 0x3e5edc5c33bfab6U, 0x1b23d57f8cfbfbeU, 0x5f02d06d1a4f6daU,
  0xf35529e0d5c36723U, 0x5b0ed8edecf4d0d6U, 0x475137a21db2b50bU, 0xbcc1c45dd427b725U,
  0xcd4fb3a62235edabU, 0xe164450359d5b4c3U, 0x505310d5400c0bfbU, 0x140144b89e20d4ccU,
  0x502f0d6912a5d8d1U, 0xeafac507090be79fU, 0xec52a82e08b8eeccU, 0xce0625df33e3202cU,
  0xb21da6bdf50929f1U, 0x3b171bb8faef4f06U, 0x1defcfeb1ad94b0aU, 0xe51708f63c515429U,
  0x2e0e61c80d58cfb4U, 0x51b81120d202af02U, 0xc533c128e4e3c758U, 0xdb5b2be4152bfc05U,
  0x6bb96d2faf5ddd02U, 0x69ebd3d06d4adeb6U, 0xcef7bfd8becc2155U, 0xafc703022a463846U,
  0xfe487b2cf6d733d0U, 0x33e73e415128dfe1U, 0xf73001b43ee300beU, 0xc3f12cec0e542825U,
  0x3fa02a3700411621U, 0xf9156fe8ee9c349U, 0xa2f48f43bda878aaU, 0xe9fe6bc433d6f51aU,
  0xb3588ea24ac2d933U, 0xc4065e2427b63bf3U, 0xc939d0f3f03052d3U, 0x1540e9c6e7f8fa00U,
  0xba3b086dc1dbafd6U, 0xb7ab2a320fe5e33aU, 0xbd3b576c012e0607U, 0x2e0ca1db03598cd4U,
  0x22bf4454525b0a10U, 0xa80f9e1312e50204U, 0x2a184a54c9d32709U, 0xd31ffdefacd2daffU,
  0x4c5dc301146503eeU, 0xccfbf762e4c94301U, 0xd0671ad23aa40765U, 0xc60cd81ce3d60456U,
  0x3038b2d7ec05b915U, 0x19203defd2c169ccU, 0x2742e9bacfebfad2U, 0xd73b222fdff649d1U,
  0x71d1944e74a48f8U, 0xf6b513afc7324ea2U, 0xe614342dd714e10cU, 0x22f6bfc4601ef120U,
  0x34d1fc015ed32638U, 0xc5c02f340fc43fd5U, 0x20eef5acafd70e9dU, 0x1dd6383f360258f8U,
  0x3c5acca50cfe2ffbU, 0x200de609e7eee3a4U, 0x376651fdbfb9f731U, 0x479ef6dbfe34b9e4U,
  0x22b1b33ad70e10c9U, 0x18f2d31332000307U, 0xf8a64823db29c3f3U, 0x19d221152ee90810U,
  0xfebd43be18f9b001U, 0xf4081b4bfe39e054U, 0xb7abfb32381152e6U, 0xa74ac4dad1fa01fbU,
  0xbaade9e2fa46df3dU, 0x36af45f6b93c30U, 0xdcc6ddd133b04947U, 0x56ebeaf0efa8fad6U,
  0xa74cb91a16f7b7b0U, 0xb5360cb6e463bf45U, 0xc71dd5defade3424U, 0xc667a558d7ae60a6U,
  0xe99853c8431f2edfU, 0x1e40ff04c300950aU, 0xf20c55f3e12cf7ecU, 0x19c3e0b8f56821caU,
  0x683748b3cee3bffdU, 0x375cc8b4432cd367U, 0x306607fdedfafb29U, 0xde0603ef9ee9263fU,
  0xa0ff05c8b4c1bd46U, 0x5bd6125b060f734U, 0xc847fdeab8030c41U, 0xeab06e5f570de0bfU,
  0x27cc3a4b43d4d3cbU, 0x4025371dc6f63d33U, 0x3310974cbe2dc6f2U, 0xc7cb2137c63e4294U,
  0xf2105b0f3c49d85fU, 0x5f6428fafb2e2103U, 0x9aa1e07ca9ff6e2U, 0x2d1cd0f8e13757b4U,
  0xfc27e809e73d3506U, 0x3f03702eb36a75fU, 0x51f5d4ae2639035dU, 0x500a293a2f0176c8U,
  0x1074e8fe35db19dfU, 0xece4e6bc4f250f96U, 0x386d98115f8cf0f0U, 0x41f6445e7242b2a9U,
  0xb306d558e61b9909U, 0xb142e8a8041828ddU, 0x1f12ae5b2ce0c648U, 0xf25f3200b7bf60e0U,
  0x3b0d49eb5f9634deU, 0x42dbacf81530ef15U, 0x2ddc431b041bba2bU, 0xe194ec81933ea48U,
  0x23571eeea2175cd3U, 0xf1519081538a10fU, 0x3ff62c9e27c1385eU, 0x51b8193bf1a6bed7U,
  0xbcdcfa025112190fU, 0xe54de2361242ea20U, 0x1664cbe60e1f4ef9U, 0x480934dcb151feeaU,
  0x3016a7e0ae04984cU, 0x43d2b606fcb7e306U, 0xd6d84cd8184d2526U, 0xf2f733fadefb2bd1U,
  0x4adaee0a21e02b18U, 0xa95df0110b450af6U, 0x4cebf7c0c5c6125bU, 0x38e5d00d00afedf0U,
  0x4b0b310a04b2dc13U, 0xf74eddbb9b4d652aU, 0x51163523b8ed321eU, 0xbfcb8ce1d39db4cU,
  0xf6132f2d20f329c0U, 0xc719f20020ab4edaU, 0x673517a937b81828U, 0x372f5312f1f2b61fU,
  0x54bcf60e52222716U, 0xf7dc2e56a31ee0U, 0x5b43103340b8212cU, 0x331d8a135f1ba55eU,
  0xf9b0d55635f7e9ecU, 0x1f08d3aec1e2ac09U, 0x8d6f8f64eb758d8U, 0xfdb8af475d3cd2f3U,
  0x63224acdbd223b1aU, 0x203b4cd234b2bf3fU, 0xebbbc7b51a9f5050U, 0x2863e14bd4c25e5bU,
  0xcd5f5bf6304daff5U, 0x3663c140f4e5d63aU, 0x495eb92f2543ff13U, 0xa8dc01076b1a4ebfU,
  0x959321f34e332d5U, 0x5d44181ff6182b39U, 0x2cef0d6249ec49f3U, 0x206b5209b8f76d25U,
  0xa72f02d60fe91ce8U, 0xf9b5b8e81be7323fU, 0x26f9041f42ea60d5U, 0x5da2150fe51dc6f3U,
  0x38b1dbe4c3aa0552U, 0x11c435fcb7c052fbU, 0x11d80a09cddcbfU, 0x1f1437d545b9edb2U,
  0x2a3dc8a4eb2c33cbU, 0xd99ffbfb33bce0fdU, 0xedd3e8f4e1370dddU, 0xfed2f7c048e54e4aU,
  0x3fe6d63d4752feaeU, 0xfecaec4512a5d9ffU, 0xe0d819f52c34abddU, 0x540b129cae537cdU,
  0xdfabfda4c1c326ecU, 0x36bf3c583e1337e0U, 0xed4eaf37ebcdedfbU, 0x18f6cedf31e910f0U,
  0xedf7e63651d910b8U, 0x12170eb75acdbd04U, 0x24a1df10152b1f43U, 0xc0dfebce00d9fb0aU,
  0x19ef252bce650bd9U, 0x323e1f13dc072fc9U, 0x16ff0c26a72551ecU, 0x3a17c5a318f45a07U,
  0x3f20101accfe0ea8U, 0xb6f0d1ac1f3013ddU, 0xdbe224d71dbb08feU, 0xb81b4df5c010cb36U,
  0xd746f712f631fe03U, 0xf533c5fce50eb2e7U, 0xfabb4ca8c04ebad8U, 0x8ae036b0ce3be20cU,
  0x1ea1c9e3ab67ff32U, 0xf33f0a18d4c08db6U, 0x193aed30d8d0b83eU, 0xb414da0decff4939U,
  0xe86cbfbd0747a70cU, 0x653c20c144354dbU, 0xdae327f119c0c4b1U, 0x5fc3ec15c28b0d0U,
  0xd73dd014fa113de3U, 0xbaacc38c31583adbU, 0xc644afd0f40502bbU, 0x165eda17cd1a36f2U,
  0xfe15d045fac20f36U, 0xcb97671428ad6d2dU, 0xe34b1144bbf821c1U, 0x1ac10de3c02a0cc2U,
  0xf335ef45edbf1b32U, 0xcbaab0a1aa23f74eU, 0xe718ec499de84834U, 0xfbb9fd07cb3d23e6U,
  0xd4f4312656b611d7U, 0x20dae40c399c0249U, 0x6003e5e62129dddaU, 0x8ff3601fefe4713U,
  0x20dec8c8f3b84baeU, 0x2564e0e2f6d52de8U, 0xb275f4d9c13135c7U, 0x5df7bd29cf00a246U,
  0xbcfcb138cbc09c4bU, 0x4a3af6f9239a22d3U, 0x20b6513d58bb1ff4U, 0xc92f0d4d064b38baU,
  0xac20eee623c2ebecU, 0xa92021d417224bfeU, 0x1046f05df531d3b5U, 0x4152b3ff58c4ed3eU,
  0x3cfa48f25cd7531aU, 0x34abe94a03b158c7U, 0x2eb1c6fdc6b70626U, 0xe9b312b6efaae0daU,
  0x5521e022eadaf037U, 0x31413322f753230aU, 0x5384b3e4531b522U, 0xeb99fcf5dfcde5b1U,
  0x5f2af42c495228a6U, 0x501b2ef81a242c08U, 0x32a8a46852295c13U, 0x6b2524faef4317e9U,
  0xe6210c10d8bf70dU, 0xb758d51f151b61b5U, 0xa1455062c3203219U, 0xe410230451e3c310U,
  0xf2c6521d13aad9d9U, 0xc3ea55225a3b3454U, 0xdf59da501bb8592aU, 0x18f9331c563cc219U,
  0xe6f04ede51d01e3cU, 0x3ef1be6e3fc4b1f6U, 0xcf27c8e5ccc39befU, 0x950011e364fcc0aU,
  0xbe0adb41a235cd49U, 0x4dd539a846c71a58U, 0x6628eae5afb5b1caU, 0xc0dcd6bb081235cdU,
  0xfac5ecb2c10bbf9eU, 0x33fab8dad759ad01U, 0xd533f0f76233f8c3U, 0x422538301e0c43ebU,
  0x44b9f400c9e6d9dcU, 0xcc622546cff2e5a2U, 0x464c422ade41d312U, 0xfdad66f8f9edc823U,
  0xaaaa17c323c3b0b2U, 0xba237cfd921395eU, 0xdf9fecdbdc3ccdd7U, 0xa2d05ae7033f22c4U,
  0x1a4675c20cbbe9faU, 0x260815ee6830d83aU, 0x4ba4eae909ea0413U, 0x9e16f758d73fe3dfU,
  0x7a056f2fb1f23899U, 0xbe19f36a12e91618U, 0x483aab99e602bf1aU, 0x222a173c3ef80ed0U,
  0xd85110119be7acf8U, 0x2de912eaa25b50c5U, 0xe84cd51d42bcb85dU, 0x41296410f14fbceaU,
  0xbdba934603aaa94bU, 0x2c2b22e28ddbe244U, 0xc881032de49ff3a4U, 0xb90f32c7c5e33995U,
  0xd2401bb6ba0643bU, 0x63ceb9dcc554a6fbU, 0x6402f4e6c621e1e4U, 0xc41b0f4af0225f26U,
  0xe831c49fcde60c1eU, 0xcfbff94b4bd720f4U, 0x43922dbd13bb6c2U, 0x472d017527ce42e7U,
  0x116bde32dcdb35c6U, 0xbf592819d21fa914U, 0xdb11fb39c7e8b4f7U, 0xf9b32fc167fab4c7U,
  0xcd00496fbda3fb61U, 0xae03d49dbc1f2e4U, 0x138cd0402dc79bU, 0x4efc4cbdbee7df46U,
  0x1f69c1a6171f6a2fU, 0x1ba6cc26f5321008U, 0xf8599a2832ba2631U, 0xb8b1c8df2dc43ae3U,
  0x46f337c5f007c706U, 0xbb464ac155020699U, 0x97bfe7d93812f2a6U, 0xf3beadc6482db353U,
  0x1b943414e2921d7U, 0x1b0b34fb04adfeeaU, 0x54a9f823a8081c1bU, 0x38d204c2220f0c00U,
  0x46cd12c5ffc9e4e0U, 0xac2c9f1a429da2c4U, 0xdc143d38e528e94eU, 0xf5af3212f0aead29U,
  0xd1f8e7290bdcac9eU, 0xb3401f5acbb62420U, 0x2ed8f8e4b0b5f056U, 0x3335d0e0e5d7b843U,
  0xc1babf16b82ca455U, 0xc1a64ff9522ce820U, 0xc05429cd2a1ebe1aU, 0xd433ec3d12455944U,
  0xcec45226d7e6a9f2U, 0xde1e3bb9035e40d4U, 0x51a2ecfff41b31e6U, 0x62f44bc22a33193dU,
  0xb1d908f7b3e1bcb2U, 0x35580f01d1d7fccbU, 0xf3c8deb5174bee3dU, 0x16011713dd15292bU,
  0x562f1d440410c942U, 0xdbba381f31031706U, 0xae503f76270a5bf9U, 0xf9ef4d17954e45afU,
  0x6c59e5449b5c86aU, 0x201133e7e7bc7611U, 0xc133375edfe14f91U, 0xdcd3b890eb2dba94U,
  0xcdaf9428b55f3ab4U, 0xff22a90dc9dde3cU, 0x52164f1f928e597U, 0xe8dbf48d9e01ccc4U,
  0x110590736fbd1c6U, 0x2f18b701e4bccbbeU, 0xf1c4cb52c8dd455dU, 0xf316fbb47900ad11U,
  0x153ff6d0af23e103U, 0xfc02b42ac3c3e4dcU, 0x40511dfed4025ac4U, 0xdcf84e461ff654c7U,
  0xcbdefff8dde22720U, 0xbbb026b546d10403U, 0xf6e720d7c2222b45U, 0xd20b2ec0420cd62cU,
  0xcf433b080f07d024U, 0xf9f3423ccd23c731U, 0x51374bd60e471528U, 0xdf5ec2ef17b6e649U,
  0xbe0fd9b11b102612U, 0xa122d203440df40eU, 0x3b145f33d2fbe1e3U, 0x53c0c8d41ac312ffU,
  0xf4bc3e303ecbbbbfU, 0xd25546ed0241a0e9U, 0x3951041aaf3d9b41U, 0x185b3e1024b92010U,
  0x59243ca9f057d69bU, 0x74450a3730bd466aU, 0x5583127dbfbb214U, 0x4dce0269efa109f0U,
  0xd3371b3b04e2a03cU, 0xba0fef24ed204216U, 0x8f19e3e50c752e1U, 0xe0110e5749b655eeU,
  0x31aca31aedee25c3U, 0x33d96bd69604b637U, 0xa314dadff3d1fa55U, 0xa90167629a3dff96U,
  0xefa65657e0f24bbfU, 0x4a1a11417bc99e51U, 0x57f80d01072f3d3eU, 0xcb0001c2f21a5bb0U,
  0x1999fce41601f2c0U, 0xef34045302f4bdecU, 0x1ed208e9fa2c3857U, 0xded0c32814ddf613U,
  0xd0dda05d2adb5d2U, 0xc7bb1d352c18fe39U, 0x325c47d77208166cU, 0xee3432cec8cdebe8U,
  0xe6f4fc61f5fbe14eU, 0xe40543140a32ba49U, 0xd22de7dd5adcf6f6U, 0xe774be0f4172bfbU,
  0xd0dfe260589e54dbU, 0x68e3aba85c10ab57U, 0x19a3bd0033d13bfeU, 0xc2127ed6a0d3b16U,
  0x705062a5d95e01b9U, 0x19cc5e4500209312U, 0xe06a5f0fd54258f1U, 0xa40528160f2eccceU,
  0xf7187235bab4f9e9U, 0xca201a551c33eb28U, 0x28bfe10a592e12bdU, 0xd3bd639d1aea047U,
  0x13fdb2efba44a1feU, 0xe31149e2c33a1305U, 0xc011feeab9ccecd5U, 0x863710dba01591cU,
  0xd026c26634ed01e4U, 0xf4c8e107d1c324ddU, 0x60e22cc2e1e3d4c9U, 0x295b5f5c8d85e01U,
  0xcdd2d6cc37b54809U, 0xf2f7e42b30e0fcbeU, 0x6c60930fefe00ecU, 0x242fadbad415c145U,
  0xcf31afe34938604dU, 0x2df31d39b304b811U, 0xaecfd3a608453c2cU, 0x142cfbeb4d2e1dd1U,
  0xb44750e12a0ae52aU, 0xefbbf0d1dee6bef9U, 0xcee8325a2d3039ceU, 0xec5908d7ed3214ecU,
  0x1609f7e8b5b0f141U, 0xa22a38fdf9b4161aU, 0x3f993ba3b0e1b45U, 0x2e31f35d5efceeaU,
  0x400eb1f4d26a93bU, 0xd590a6a2d02813fdU, 0x2ab9e867082025c1U, 0x7bfb22034d624bcU,
  0x1e1b382058bfdab3U, 0x916463fa9fdefdfU, 0x5097c41a14bbb514U, 0xb520983ea84bb3beU,
  0x172153f0f91c2f9bU, 0xbc27cd5c664ae919U, 0xc1404b15c7572d4dU, 0xc6d9a7d74dd9a0c8U,
  0x33ea4af7ac593308U, 0xf2eb6208d7fe1e50U, 0xa7c83931384d14edU, 0xbd1610f69e39ccb0U,
  0xca38b9c846d11852U, 0x22314a1008e1143eU, 0x21aca2dc333be34fU, 0x331d0329f1ce3bd3U,
  0xfbccdf0306e9eaf9U, 0x7f0f34aec2802e0U, 0x5448264400074e24U, 0x2ff8b10c1314ca5bU,
  0x415904345b35dfffU, 0xc73341df1fa6da35U, 0xf03b22e90abaf4dcU, 0x2d4b30f31c3b46e5U,
  0xf2b51fda46251e4fU, 0xc71343160af640d3U, 0x120f63d2e9b4c950U, 0x3312b4b729e70c30U,
  0xb8042e400b13db10U, 0x1bf7405904bdf335U, 0x39e3a9050bd21731U, 0xe103f22e1a1a6dffU,
  0x43ffdf1ec9f0a73fU, 0xd0344854232f24d0U, 0xd0dfa7e52f0ecb5dU, 0xbec5070b58cdd1daU,
  0xc44fcaef2f0ca326U, 0x224fe3d00fe84bbbU, 0x34d3dafbb43c36eeU, 0x32fbc2ebadb2dcfdU,
  0x23c74458b99c054bU, 0xbabab6b6fb2ca9f0U, 0x54ae5cb2e7192d64U, 0x9d3ecbc610423edbU,
  0x24b3cbba1e8bd36U, 0x63301950f6d6ef59U, 0xda4abd9625dc3555U, 0x1a46503f9cae65e3U,
  0xb2df6afbc63aedd3U, 0xbbd8fa50f30b27caU, 0x1ee7a1e8dbba0e6eU, 0x1ab00c0cd53cc11cU,
  0x8c398ca41eb8cf4U, 0xbbde661f384fedf2U, 0xb8ecb036ebc06e37U, 0xa9650f1ca9be798bU,
  0xfab9f06213edfa18U, 0xc240d8f21a0e21d2U, 0x4b061763a9f05ee6U, 0x670267e5025eddcfU,
  0x436810d4dd1ec00bU, 0x38fc3531b310d6d6U, 0x13d43ce0e6010a16U, 0xbeb6e4a6daefd5ffU,
  0xd8b85cedf2ebc6aeU, 0xe827cf0c1d4438f1U, 0xe5200c2b28352754U, 0xd3efb73af6a41cbaU,
  0xe9cab3df00dece02U, 0x38472d0c0701dc22U, 0xe4fb1e0d3410931U, 0xb3ae9eb2bb290a20U,
  0x2790f4bb9c241739U, 0xf71bfab8fc1bd00eU, 0xeac9199cf999eebdU, 0xb0f946bed910294fU,
  0x649f1b39e3f0c6dbU, 0xd6d9c90cc146e0cdU, 0x35de61300ac62534U, 0xed6131f0aef932aeU,
  0xce41ce04f0b01e34U, 0xf753523bcdca9c3fU, 0xcf51ff02d91df552U, 0xe32437573e1a081bU,
  0xc5c4b4cdd9bfba5eU, 0xf3a2dcc9e621040fU, 0xc7bbdea2350ee4e0U, 0x28d2162cd0496318U,
  0xf441922243fd60daU, 0x480425351f125ee3U, 0x9f021030d51362adU, 0x55ccf0f948d8dff7U,
  0x91400a1fd7f8315aU, 0xa9183a46ecf911e1U, 0xc70b352de4230c0bU, 0x50c9e2bfc6213fd8U,
  0x40befaa4bb3a4227U, 0xb003e441abeaf231U, 0x5ba735efa8f031c7U, 0x13bceda493e1e2cU,
  0x1d4ad1d7f9492c07U, 0x2862261f40a007b3U, 0xede2d3d73914a3ffU, 0xe431009cf0bf1b57U,
  0xa16992afdb39bff8U, 0x33f928bc93bbf22cU, 0xe717fd156a21d0fbU, 0x2b0bbfacc1389deaU,
  0xcf52b3c11828b50dU, 0xa58a9ceae5b422d7U, 0x3b30f4eeacccbc7U, 0x500b1e8a1cafc149U,
  0x3fa6db26386effa0U, 0x92fd21c7dceecc47U, 0x580d443809c32c15U, 0x603d2d9c9cf71bf8U,
  0x1120d907691d1390U, 0xf2238e5de232301bU, 0x36c9c5f0b1ffe44cU, 0xdb1a05d2485010d2U,
  0x29f81735df6414d0U, 0xe7654ba5305233bbU, 0x6a10f5bdb2b80f37U, 0xf0d2b7d80adede06U,
  0x63c406ec37707418U, 0xfb2325e809d4f9ecU, 0x1129faffca1425d9U, 0xf43b3e25be33d139U,
  0xbb315c0d24474d4bU, 0x5d2c733ee829bbf9U, 0xcbe9a5c06e3bd3f9U, 0x3b14df344efce945U,
  0xa0aa9c6afdcf9d5eU, 0x5dca1b0f2f66b31fU, 0x52342fb02bdbe241U, 0xab37d4c33ce13219U,
  0x4ecc30e2cdb9d0c3U, 0x1220c93232ef3214U, 0x20505d4415a8dac6U, 0xed170944b4adf52aU,
  0xd5d505fcb4bbb5caU, 0xe15ec120b7d0ac25U, 0x6bf0b6a0cd04eb52U, 0x3f2dd867f6de3b0dU,
  0xcefc3211a5dece24U, 0x2ce837f2bce6ffc2U, 0x2c34a2a6e2f933f5U, 0xdaddc54ff7ccf0fdU,
  0x1b1c31e446f235f9U, 0x13e6f6ce9eaf49f1U, 0xef94b8e14ebcc926U, 0x5730bf4df422c9a2U,
  0xf5bdf1d7c3d80dc4U, 0xb627efb4e2f314aeU, 0xf7b94fc41a0ebf0fU, 0xdb1fcaf12accd70fU,
  0xaecca62d5eb6ead7U, 0xea31dbeb12ec02edU, 0x44f3e80426dab09eU, 0x2aa8c9233ad2ea31U,
  0x400c0ba35111a7c8U, 0xb1a5fce4d262f4bfU, 0xe0f051e4f23be251U, 0xf9c6d1a1d12db94aU,
  0x8b64e3a192ee1f2U, 0xad00e6c34befb3bdU, 0xd7e5ebf54a3f2d31U, 0x471a63bae7fa215aU,
  0x423c37fef101dcd8U, 0x9fcabfd5122ef005U, 0x2639041abc3724c4U, 0x19b1c2f8f1c7961cU,
  0xb901c23edbf43a37U, 0x19e0af1d24f13199U, 0xd5aac20b003ef0fdU, 0xf227bc9b59accb09U,
  0x70397ef154de914U, 0xc3ab2542e224f1bdU, 0x57b53f4d9f3a4ef5U, 0xf9cfe80b23fafe59U,
  0xdc613c26b71749ceU, 0xdcf7b9274c4ef4ceU, 0xf20f7e3ade99a34U, 0xbb5aaa8c0c8e62aU,
  0xb7c902f0d6f6f539U, 0xfef8c6cb109fd29dU, 0xb21ed9aa5637ff97U, 0xbfe1e144d716aa03U,
  0xe2cd3f4f28063c42U, 0x210de49a2aa169dbU, 0xbc0acbf3e9fa0041U, 0x5835d22d003ba6dcU,
  0xc1c3d0060fd85adcU, 0x45df22e95da14b55U, 0x4ae7e922bd461099U, 0xda3c310aaafa02c1U,
  0xffb805e35761ec17U, 0x9aff8e30db25b626U, 0x1411f0d14c39b8c9U, 0xdec1d8eb610b90cdU,
  0x53a7deb2e6e2b9edU, 0x4279220e65830ebU, 0x12e1e434b2f689edU, 0x9c4ffb43505156aU,
  0xcfc9dbd2b11b32caU, 0x1a22fb58ccc5aa13U, 0x745d0b42bf6e63cU, 0x2f385546c9122229U,
  0xefbe37392ffea410U, 0x35543c55a56be347U, 0x3d20fb5b00f211d0U, 0xf6ccc159d33f05c2U,
  0xd502d04499f0c01dU, 0x2b2f55d9133fec22U, 0x832c817494857f7U, 0x1e23df2c97914b02U,
  0x32a361ccfd4616f4U, 0xcdd8b3e3cd60b326U, 0xbffb50c641b3f02fU, 0xde0dbbd93929d5e9U,
  0xf11aee08e8d6ea20U, 0xfff3fa2bf03f3134U, 0xe41beffe20a644f1U, 0xb755544d9c233a54U,
  0xea4c5758fcca49e9U, 0x82bedfb151b1bbfU, 0x1d4cb1fd22f9fd29U, 0x2e22453c26c4079eU,
  0x2f42f96217b72eefU, 0xc3bb55de102209daU, 0x410eb03c24addbd0U, 0xe3f60d42da0134d1U,
  0x3240acbcba2b0ac7U, 0x22e5b5acf31c0bdaU, 0xe74ea74abe351b08U, 0xe2fe19fffb2e181bU,
  0x3c1ca8545fee2a5aU, 0x47f0fc152fc9ade7U, 0x97f432f6452be219U, 0xcc10ecc91fc8fbc1U,
  0xe80804e7d4cb23c8U, 0xa8284a28c7f42feaU, 0xfae50a07f74d14c6U, 0xd106b1c2ee4bfe3bU,
  0x4e5ff01f4b05f42fU, 0xeb00e8e208e1c026U, 0xb463d134ded0f9f0U, 0xf0a2de2defb31642U,
  0xdccb4233eab53e9cU, 0x8b813ac563fb3b5U, 0xe638c8cc31acd6b5U, 0xa90f1a16d2de2dacU,
  0x2ed2e305e7eecf33U, 0x131ea2c7a908b0c9U, 0x392f2855c2c75e18U, 0xc36f5a35536350aU,
  0x1e3a0c444e23adefU, 0xe524d71bd5afe828U, 0xafcf2045fe17d83dU, 0x1ade1da2dc3cb4fU,
  0x4b0a18a2e3c3a4d6U, 0x264d32db2310d4bcU, 0xd9b1b0da3bf55c26U, 0x1e11a949f6af04ddU,
  0xcf37d3f9f1febcecU, 0x2be004335ddc1fefU, 0x6edb6d5470fe865U, 0xbdcb193627d4c9eaU,
  0x3504bce0a8f9ca22U, 0xc7042f50f4dd9f65U, 0xeacee8dcbcaf3961U, 0xf8641665d8535654U,
  0x14b004647a00de8U, 0x52156d1ba85bbb9bU, 0xf2d43f007029deeU, 0x52f47c4692604caU,
  0xa2b6d5372d95f011U, 0xc803c72849f5bb19U, 0x1c59322d431dd2dU, 0x4b54fac2a7e72940U,
  0x30c3243260e46f2U, 0xd386a400df10ba4U, 0xe1003a1ce1e540eeU, 0x5ec04eed98228dfbU,
  0xfaba040f1bee087eU, 0xccd53cb80e4c749fU, 0x942b0866e33bc8caU, 0x39b1dc1ad0f685caU,
  0x23c5930dd9335fd2U, 0x9ade8c09433d3a4dU, 0x6c1d23edf322eadcU, 0xe4712911a74f4fe8U,
  0x434b620d1467c139U, 0x1058b66352959b35U, 0x3dfed5e427d9f537U, 0x4aaebd17f5da20fdU,
  0xea292c4008dc18a9U, 0x4cefb960e8cf412fU, 0xc0371afb2afef2e0U, 0xba1b49f2cd115abfU,
  0x384e2a23c84ab949U, 0xd73ec31fd94c0836U, 0x4fc5aadb3cf2814U, 0xf3fdb0ed031647b1U,
  0x1622b64ff4c9e53fU, 0xc13537c2df4b13e4U, 0x45490707dd43190bU, 0x3de54f1ef436f951U,
  0x1ed746b23e0747b6U, 0xc5c40c1dfd45fdbfU, 0xfcc8cf34b14302b4U, 0xd006062113fe0f4eU,
  0x31e4f7e4f1614ee7U, 0xeda839d0312dd3e5U, 0xed011afb0cca3f37U, 0x2ee930f322c7fcb9U,
  0x3b0c2b0b2cfa4c1cU, 0x49cba8072bc003aaU, 0xa620383618afe003U, 0xc24db483c7549ea0U,
  0x22b2eed8b3c42da4U, 0x93ad42256583ad37U, 0xd350fff299321012U, 0xf0bab5eda538bb24U,
  0xba00cccc436de627U, 0xc3d5a35df424a2c0U, 0x50ff35e2e20cb5cU, 0xc4de00bd7f5cf75dU,
  0x40f1ce2ca8cefff6U, 0xc340e7e3dfb703c7U, 0x60acf1d2aba3bf08U, 0x49f8cc3054244c0eU,
  0x531db1160c5b07adU, 0x84ed8ccf2df2309U, 0xd5f5c5bd500416bbU, 0x46ff31f92fddbcd0U,
  0xe303432e3ef1e9ceU, 0x6e666b4d33fa216U, 0xb43717c802d7181aU, 0xada1c6f3b7cd1c2aU,
  0xaae5d9b1b8143129U, 0xdf40b83edb5babe1U, 0xbaa3b916f9f943baU, 0xeb482706ba385d3fU,
  0xb5c15a15d25a4d24U, 0x3dec2bb16ec19cfU, 0xb5f6252137121c3bU, 0xbb4c02aa155af555U,
  0xc42fce7174dc2cdU, 0xbd0cdb685a4eec41U, 0xfb4b2cfef0b59b40U, 0xc82ef14741972f11U,
  0x3acefc1aceb1c518U, 0xfb30c7612619e229U, 0x9b2ff04fad47db13U, 0x49eece33201996aaU,
  0x4ae02ec60fb645efU, 0x2dedbaffb3c60efU, 0x4005f6d96c43cba7U, 0xea46effaa7f367bdU,
  0xc64f4cddf3a11ca8U, 0x2bdc4ad93bb81eacU, 0x3cf306e8f70f6b4eU, 0xd5d9e3e49cf3b1f3U,
  0x3816313ad9e1041fU, 0xb0d72d2ec9be0d1eU, 0xd030213aa0e3009fU, 0x3d09b1910914ae16U,
  0x1f97da1a41221e01U, 0xc132ceae423b3bdcU, 0xdf25050c0cf362f0U, 0x459c2e3e2c0ec5U,
  0xbfcea882bc5f855U, 0x54e33ff9c9e6e0f8U, 0xcc554a2ea7c417e9U, 0xeda7c7feefda22faU,
  0xf5d9e0e29f2ba410U, 0x5f0bc21e753d957U, 0x42cd2ad5270a92b3U, 0x3e12920b42252edU,
  0x18df2854b6494edcU, 0xf631f6de6adcaa1bU, 0x23234bffe5e399c3U, 0xfab059130a331504U,
  0xa9d2d2d2093fb5bfU, 0xc557cc1318f0e8a9U, 0x141ad7bc3fb51af0U, 0x3900dd6330e3f233U,
  0x5ae335533eb5b2bdU, 0x31bfb421c8314803U, 0xbcaca0c963c12636U, 0xf4dc37ee99d3c53dU,
  0xb1439e1ecc0fbd2dU, 0x53e748030287b7bbU, 0x441932d9f83f3b2eU, 0x1afa1f0e23d8a747U,
  0x39711be942893249U, 0xc83f488c952338b1U, 0xc8e107e03a434b35U, 0xf4ced0c9d602deafU,
  0x4b47bad3c2e02515U, 0xe5f5960b4733dd4cU, 0x460aef1f0365f0a7U, 0x35c447c89fbeec0dU,
  0x2de2ef0a35f20231U, 0xcb41b3cf1fd1bdc1U, 0x6022bc4719ce131cU, 0xe3a96ea6b573433U,
  0xc511e1e4e5dcb80dU, 0x4f389abe0dc2d94eU, 0xee1a4ad109132109U, 0xa7e9274256d1aff3U,
  0x679fc9a045670419U, 0x529005008cf2a52U, 0x41f3d88ee73d1fb9U, 0x522feed6c29de354U,
  0x90233b502a6b4fcU, 0xdbf43c18c749c220U, 0xac212646029de2ffU, 0x482cd72ed7e0b901U,
  0xc03b00c6a8a20abeU, 0x5aa363b8faf372ceU, 0x28ba233e002602daU, 0x221142fea3290c01U,
  0x47d70122ca08eebeU, 0xcafd07b2ecf346adU, 0x37faab182ddbab2fU, 0x2a42c65d1eda1a32U,
  0xd64c1cb4f6cbecf7U, 0xd24c0ea602c8ba41U, 0x4d0ddeb723382ff8U, 0xb39122b25dee530U,
  0x292444e92618b4aeU, 0x531d2911b82340c8U, 0xa8c7dc570f02b8deU, 0x10d01f0c2bfca6fdU,
  0x2dcbbb4ebbc9105fU, 0xd00c3625d8e4fab3U, 0xe3c1ad2f3037f315U, 0x36bb4459d2b04dc9U,
  0xce439c4736e3ecfaU, 0x16ce1b19f0e4421bU, 0xfde524e8cb2efc40U, 0xf7d93ee0f430b0b8U,
  0x361397c90629b0efU, 0xeaea0936984ee3d0U, 0xe071131273efa05U, 0x373d06fc06213aa7U,
  0x10e2d2ad1aaec5e3U, 0xc1eadf0e29fedf19U, 0x1d03e92399cf204aU, 0xb106ff9b15ffd3d8U,
  0x221354eb4cbf183fU, 0x620f815d4fd9927U, 0xf6615b18ddc9f7e4U, 0xfb2992c672d0f62bU,
  0x54f94cf0db712ad8U, 0x11cf2cd84ce33957U, 0x60271c0fb5010056U, 0xbe2024220941f93eU,
  0x4db422a6dff063d2U, 0x44b44aba104bb50cU, 0xd4fed8ea12ad4133U, 0xb4fbf7cff6b2ed28U,
  0x52ffb6c4f5434744U, 0x12fae3531a0d1ff4U, 0xa22cc3a30319d740U, 0xea9b39d0fcfac20fU,
  0xb1194846cfaa2364U, 0xac1843deea043bf9U, 0xc950113911d3c0U, 0x55284735aa4226fdU,
  0xfdec36d6ded2352cU, 0x4250590abfd2c192U, 0xa5ec46baddcfbfdbU, 0x2e01e5f10ad2bf09U,
  0x29e747ed55900822U, 0xbb3feef71d3d3c35U, 0xa842c5380f0564dcU, 0xf3b02b9044d30dbaU,
  0xae439ed1d9dcce3fU, 0xd43133d13cb74a4bU, 0xfa075817c31de443U, 0xe854f5c6d637692cU,
  0x492025f215653c53U, 0xe4eeba38f9e5e4d3U, 0xde1a24e049c90ee5U, 0x54b1375751424820U,
  0xdb52f5c81f23d2faU, 0x2fee4003ede571caU, 0x14f2c9bad253d9f7U, 0x42ff4a320b40f4a5U,
  0x43f9081f4b2d9924U, 0x44d322f4c5a6e0a4U, 0xce281b3dc553323dU, 0x1eb9bee3ecb39c31U,
  0x3b8a3298bb3e3a18U, 0xdea81b0cdae7d852U, 0x56f8273036d92fffU, 0x13c73fa6fc2027f5U,
  0x281f4baa4e3c0907U, 0xa04dfa4b52b92ce9U, 0xb5020ae3aed2a20cU, 0xbfa6c3b1401d91e1U,
  0x11e6c339e4e28ae2U, 0x1f46ac5fb53e1c2aU, 0x212baefb2c0c073eU, 0x1231c99f33481ec6U,
  0x1dfeec18cef4d5e3U, 0xde36eaaad1b5c325U, 0x902af00d42234334U, 0x3ce5d8fd4116f3e3U,
  0xeffedcca31c4f309U, 0xaa14b0fc544d15b4U, 0x36aa440d0f49f1a8U, 0xec5432e7c5232443U,
  0xca37e8d4540de632U, 0x182196ccd50303dcU, 0x282cf80faabfcbbdU, 0xbf25a3d8501cb505U,
  0x3717ca1bd45dd34dU, 0x54b3c2f407433a3bU, 0x2927c3f958c81cccU, 0x1271a0b6b54637f5U,
  0x1a3cc5fb207521c5U, 0x2653306546f9b7bbU, 0xdd54d48c3c669affU, 0xe50fda7c12a9fa19U,
  0x453be945cfd0da5cU, 0x444facc6f1f9bdf1U, 0x9fccb4cfd7e806e9U, 0x5bcbc3b5f18b1d2U,
  0xd4ecac331bd02ac1U, 0xdc48f3b0a1d2350cU, 0xc383a2adc12542bU, 0xf9e92daf9497ec07U,
  0x68b7610617c90347U, 0xf84854ce06c0d4ccU, 0x174d61befbb1ec52U, 0xd5d24c130f3ab5dbU,
  0x61f3c5d2e1fc54f3U, 0xd2db3c481d22d43aU, 0x6607d89e35ddb931U, 0x1e552728a3f53420U,
  0x48d06814bfbec62fU, 0xf9023e2f464c3dcaU, 0x3dfdf336cd0c0fb0U, 0x17dd19c361bc0ccbU,
  0x993bd05bc3daea17U, 0xb328cc4130130d50U, 0xed40fc2af3aaeb40U, 0xe53bdacb2ce8e01bU,
  0xd04db729f2c95701U, 0x1521a8b33b59fd43U, 0x6c1fe7a9200644b5U, 0xf23a31e915fe632eU,
  0x4a7eb40c9fb1136U, 0x24d11305f9b33118U, 0x4069c6fb52f9b936U, 0x45fabcf5c7aa1eeeU,
  0xa75734eeabda53d6U, 0x62281cbd1d04ae42U, 0xafc442abc3d0d020U, 0x33ed630dfd12d706U,
  0xa12dc2f7462196cfU, 0xf8fa11fde9e0c1e8U, 0xb3cc3541fb0b433dU, 0x65fc22fabeb0f45U,
  0x4d9cd1a0aea50f8U, 0x553d690ad0fc4f0cU, 0xc82aeee3c7210db3U, 0xf4b2ddf73858e9d7U,
  0xb2443afb0d955122U, 0x46e1f1bc071e1046U, 0x4aedf912f35540e7U, 0xb720c99d1dbaecfcU,
  0x53155146513031b4U, 0xfae3b21225da4cf4U, 0x56fe36cf252c1d33U, 0xa81efbc5470a4751U,
  0x53ecb4b81ce9b201U, 0xc43fb03101e2e6a5U, 0x66cf3425a0becd11U, 0xaab4d3bb30fdf0ddU,
  0xcecff9fff7d6b419U, 0x1fb3cc04cc364bceU, 0x2956d305d6aecc51U, 0x401bce3bd4225956U,
  0xed152b1fef2aee37U, 0xc8bc42f41714f9a7U, 0x611217a925ef46c6U, 0xb8c6143b4ae1ec32U,
  0xb1f347173ff8f34dU, 0xec5a21eb92f4dc2U, 0xc2cada2129133fc2U, 0xa0cb3054ae093957U,
  0xbbd70b3508ceaccaU, 0xdd6d1f8bc5762e4U, 0xd1bedf39bc5eedfeU, 0x481c2f09a42df536U,
  0x845fb41113ed05dU, 0x6de6ef255ccbcf1fU, 0x60a8f1b1d1f6bd6fU, 0xfb650fff0b2052f9U,
  0xf212ef97fc4b47d8U, 0x717ea6b48572eb8U, 0xc3716c07009a757U, 0x136f4c118d2656caU,
  0xd6e670f8beeb52ffU, 0xe829d927292dfcabU, 0xa5c2de9de19cb2c4U, 0xa5e370364fbbc7c4U,
  0x2dc0abd3c0b9ef55U, 0xd00becbfa56513f1U, 0xf51687aafdb476c2U, 0xfcf9d80ee6c10a8eU,
  0xc724ebf3e4c56212U, 0xf0fcd9f1e8db02f2U, 0xef3fe29f9a3a946U, 0x40c8c62e240a46f3U,
  0xc367af5242fc021fU, 0x1e1325e6b712c310U, 0x4db2f325270f341eU, 0x4caa4608e1d8cbf3U,
  0xab4f59b93741fa28U, 0xd3c712c7d9261bd4U, 0xea14d3f520be50d7U, 0xef4f48473bc51227U,
  0xde7d854bc569e02U, 0x571f30c7eac5c42dU, 0xc1562469c629de0eU, 0xb7b6f01e2a0e2fc6U,
  0x45b645d5f3bc3137U, 0x8c5c9301d34c6cfU, 0xe2f4364cf6d817e8U, 0xaae65dba25eb1459U,
  0x332f391e934c1ab1U, 0xedfc1624a037114bU, 0x651e3a43e1e1c7beU, 0xc0d1d25243d2f137U,
  0xe12b03e394f240cU, 0xbd3dd73da0d32c16U, 0xaed3df41ccf0254U, 0xd41ce4d50b1fb0ceU,
  0x39ba5013c4bc4bd3U, 0xac73ff924e914a7U, 0xbf23484552ec49bcU, 0x5509b410cae4dcc5U,
  0xe2bc1f0f02bc032fU, 0x686127315824ead1U, 0xe4d5b110472ad3f7U, 0xc82966acc4d95b34U,
  0x41e453f4c02efdf9U, 0x5e2e8b2cb1fe23dU, 0xff19d4ffd1d61026U, 0xc753ecfda638c0dfU,
  0xec1bf01ccd220609U, 0xc21ae52e19b9c09eU, 0xd9feab07c4fb0b59U, 0xe0f9ff5f3cedc62eU,
  0x1e0abcbd4ac4ad3eU, 0xf0a34e091dff1243U, 0xcae2a55734ea610cU, 0xb6472232a8e3d547U,
  0xbd311b7b20d425aU, 0x5526c2a0d22eaa34U, 0x6b40d1f7c62b3a68U, 0x200f0318314f1502U,
  0x94bedfe8a2d23beU, 0x4d242332c3422bb3U, 0xfc4e50d31af9cd70U, 0xca6a294299102faeU,
  0xb3d364d99c415c58U, 0x3eb6c7f3cf529f01U, 0xa311f6f335baf54dU, 0xab003ac1edfa13ffU,
  0xd3da37b3e0264ec1U, 0x2b9b2611a54f591bU, 0x19e4acd5fd325d15U, 0xcb0056e6f5ab00f1U,
  0xd9d9dfb937f73e00U, 0xfd230a0632b239baU, 0xaca14104d0546842U, 0x5fec36f91c24f52eU,
  0x4e051447d5b81f1bU, 0xbda4f6bfafdafc3cU, 0xdfd83a2a0d065729U, 0x414dc629611cc5a4U,
  0x134f16f0cde432edU, 0xed1b210a4944ee3fU, 0xdaf5cbb00e3fc608U, 0x233f09029b1616aaU,
  0x2403d49d691638b5U, 0x1ee20ffdaa2cfb2U, 0x8555735cd1fcbf4U, 0xe63206b764f32740U,
  0x92dea5f0ed5e0a53U, 0xef26d15436f613ccU, 0x1920423fa7d6cbdaU, 0xad42a21faae71844U,
  0xba2cdf18d4dcb4feU, 0x31eed823280e10baU, 0xb0ada84aeffe1e36U, 0x2cf2161ec7b645ebU,
  0xd41bcf3b2df514e4U, 0x3cba2ed0ebc5053U, 0xcf55315b3dd2f34U, 0xaff9284208271244U,
  0xaaec14e5eb17aa0aU, 0xc4d4c109f4e7c7f0U, 0xc40b589e224ea607U, 0x2ff838220223cdc3U,
  0xe232cb462b2e3825U, 0xf50ce144224252eeU, 0x17ce0698202d10feU, 0xbf4c20d75550cd0aU,
  0xcb5d0d3cddb2fddU, 0x5cbb310954452f2aU, 0x5c1430a9592beadcU, 0x5436f40dc12eff03U,
  0xd3c8c04126b5a443U, 0x57a8f901e609ca25U, 0xed0224de4919a314U, 0x531cb55fc3e1d8f3U,
  0xece60c5e9ea1f9e1U, 0x55ff07afe0e05eb2U, 0xa70ce0f4c2c0fba8U, 0x2bbadcab8c24bfefU,
  0x13ec4d09e5febfd4U, 0xe5241324cafa0ce5U, 0x364da1f32f510d48U, 0xbac8f341a7ca01f5U,
  0xab0011fe26fa07feU, 0xb4d6aedd15a8fe33U, 0xc44e0254b7ad4b04U, 0xc4c010bf0c82a4eU,
  0xe0d54c4de1b12b39U, 0xafdcb5ce35b6e7f4U, 0xc318a2b9d465d728U, 0x195a2523af0dfacfU,
  0xf6e5be15d6c1e90aU, 0x561a2fce3df4baddU, 0x4834d348033ea36bU, 0xb9019949ee5de62dU,
  0x30dc1db7f5bceb18U, 0x30160f0a544cbd35U, 0x37b967c31823f92dU, 0x9b605034143c6658U,
  0x1dde2091f623543bU, 0x72391718f25a4cb3U, 0x6334b40c1bf8f4f0U, 0x5151425f1ae8c85cU,
  0x2b576cca0cc85bdeU, 0x3850e148ab4de9ddU, 0xc90622020cd00ee6U, 0xc2c3181ac113402fU,
  0xbcd7ec29ca29b6c3U, 0xf7c601ade7ddc436U, 0xe83131e147b734c2U, 0x43c240c235b817acU,
  0x58d20fbb17aeca2bU, 0xfbf4b94ae5181c17U, 0x4aad45f0e4dd362aU, 0x53ab42d62ddd45e7U,
  0x32a8f69dd6584f21U, 0xb917dce733ce4058U, 0x4b54e3cb1cbb52c4U, 0x3ee5ab041af92bcfU,
  0xcade6d232da023b9U, 0xc513c5da1e36b7d4U, 0x3a03eb5560c03d26U, 0xd500e85cce2e3d49U,
  0xcfd8b5580a03e8f2U, 0x27311bdaf0bb4207U, 0x2fb5fcf228c8e9c1U, 0x9c0db00bca30014cU,
  0x25b44ec230c5e93cU, 0xf3179811bccdd3c1U, 0xd42809e4d7479407U, 0xa94099dabd420cf4U,
  0xd3fb5ac1532c061aU, 0x2ec80a7d00accaa8U, 0x5bd81e3c4d2a3a56U, 0xc6e7542b072a264aU,
  0x1bc9b69f01da9ce2U, 0x343a090237461bfbU, 0x37bc4ecd30fea046U, 0xa7ddb1f8bc39b8ccU,
  0x212b917a912017dbU, 0x462209faf724d15eU, 0xd03de633f65164b6U, 0xf0e5201781461100U,
  0x65affd5291be1d3U, 0xe6f1bcb8ca2ae9c2U, 0xe5cae8d064040d3fU, 0x42ea344dbaac18f8U,
  0x2711a82adb154adcU, 0xa500390ca70ede47U, 0xbdca39c93c60d6e6U, 0x47051910584ba1a8U,
  0xfaea30f249c14a43U, 0xe130cc371ffdc5fdU, 0xc716b446f31857c4U, 0xfd62dfc5a630243cU,
  0xfde510d17daf6e7U, 0x55e64b2163df0af4U, 0x4ed6ce0a47bd145bU, 0x12bc0e3a3d11d3d4U,
  0xe846ceb9d6edb726U, 0xb4cae0e4212d46f3U, 0xa7e01f53b845ec06U, 0x32c43eecc799ceafU,
  0x256414cc68cbaae1U, 0xca1da23caa54e5c1U, 0x94e205cff8ae4ab5U, 0xcd9c48f50b41a1bdU,
  0x1fb4cffb1d6a321fU, 0x3da7382242d02808U, 0x19a6cf2000f1e824U, 0x6cf31a11e4361362U,
  0x661b46cdce6b44b2U, 0xfabf0a380391a529U, 0x60d6ddabf155a005U, 0xe3fea4ce673fb8f8U,
  0x4ab5a4bb3e612dcU, 0xcefd1614652939faU, 0x5e561fa916e8d452U, 0xaff90cd21f54d732U,
  0xb40832e7e10bfde3U, 0x2f559331830ad4dU, 0xc0cf16d64aad0c3bU, 0x4d31e93238d8c3fdU,
  0xc9690ec1c623ee58U, 0x1b3f22c41d01481eU, 0xf3c2c3dd514d59caU, 0xd142565f24b474dU,
  0xc4c009cf0830c2eaU, 0x331537b51e04b7c7U, 0xfdbec0ec161fe1d9U, 0xbde3a6edde183e34U,
  0xf740746dd70cd606U, 0x3ed0e02efc291a37U, 0x10b3c427cd441fb4U, 0xf24bd5ffc82a24a7U,
  0x8de632b0cf40636U, 0xe67256e6280ecb19U, 0x2247ff32551e1df8U, 0xe40743f2bcd1df12U,
  0x291330f7e114396aU, 0xe6396cdff253be2cU, 0xa146b2bbdcd0b115U, 0xb049cc06dad2fe47U,
  0x9ac9c4d8f6e6bf22U, 0xcf10f211e3f14b3fU, 0xc20fd32618ebef28U, 0xb66648b53ac5cd92U,
  0x15e8d9a4f2a840c0U, 0x44a11ae6d71ccac9U, 0x1eebba3922b742b3U, 0xc7e4e649f20e3602U,
  0xc80802461daf10bfU, 0xedd549fb1923eeb4U, 0x93abb910eab15db3U, 0xb8be3b9fc007f222U,
  0xf1e139ecee16c8U, 0xef1b432b42f8e603U, 0x47b3f33cb153d73bU, 0x585af4f8d2dacf5dU,
  0x4626b82ac3dc2534U, 0x49f90940b1252041U, 0x4fdd46fe9c421728U, 0x19cd882029492fe7U,
  0x3ee31b3ea6c1acf6U, 0xd5c3b415e212d3f7U, 0xd10d0ffab259a936U, 0x3f45bb204d473e2eU,
  0xed4dbc0832dce1a5U, 0xb8204a1ee51a5454U, 0xb5ecbb0bfe12fcbU, 0x450ec259e0ee510eU,
  0xcb20b4f2dd4921e1U, 0x90d323245cc0319U, 0xcfdef40d48dcae2dU, 0x13de5f37ba3c3f1cU,
  0xdb9daa0850dc3fbbU, 0xbea4e446ee3036d9U, 0x39a158b3b4bbd5f9U, 0xf9f31b264e0a4a00U,
  0x4bb35619652b31f2U, 0xe4d4950df40b1b24U, 0x23fa08e5f4268c3bU, 0x1717e11902f30eeaU,
  0x362f1914b038a9acU, 0xcf423713d311b52fU, 0x5a29eae53a00ff11U, 0xe633011c2ec55729U,
  0xca28d91130e2fddaU, 0x656f1769b5c2b59U, 0x9c18c933e7f4bb4dU, 0x53e8d5dfb3e6f5c6U,
  0x4c22eae0308ee344U, 0xd6c06544b7f566aeU, 0x283a040d541917ffU, 0xbcfde5716ea4917U,
  0xdec8eed0d4e8fd42U, 0xbe595b1727dc2892U, 0xc3e7e5e5480139c2U, 0xf41327e716335a13U,
  0xde3fbfebfbccaac0U, 0xfcd3b1053b3564ddU, 0x342f2d1710e72cd7U, 0x3b5dafbd6699cc4U,
  0xac58251fa5e3d238U, 0xf0c74fb6d22719a7U, 0x4d23bdbea8c1fad9U, 0xf89c003410b1c208U,
  0x1b335ff74cdff857U, 0x6c6c44dd904222bU, 0xfd27f4af010edce4U, 0xf8fd862b1c66b627U,
  0xee52c4290d21d7edU, 0x92b325c9ccdd0d1aU, 0x993e9a5064e2c218U, 0xbca4550a932ea6c1U,
  0x32e1083f5533da3cU, 0xe91118fe38eb1132U, 0xa08baac2dcc6c897U, 0x61a21d0316b92a2aU,
  0xf6c7a9aa68032f1aU, 0xd29e9341f9cfcde6U, 0x429e17f90de741eaU, 0x422519960a59b4ddU,
  0x4a1749df2ac4368dU, 0x452ab7591b27b10eU, 0xeecd6c03ed1130f4U, 0x3c616b35bb51960U,
  0xa05799b2b13e0ac6U, 0xec920b1e8f0571e4U, 0xbeb81ef04d423210U, 0x113dcdfa3cdecedU,
  0xfb5316f00b9edf5eU, 0x93969f94114a1ca4U, 0xd58b46e0ea411d36U, 0x65dc15994f3b31eaU,
  0x5128daae29dc58d3U, 0x1829f51e0424cef6U, 0xc714e039136ff1e1U, 0xfb2c29f222d11edeU,
  0x2551e9e5f40e373fU, 0xb8c10a3b0a32c2b8U, 0x45196ca7e23bf331U, 0x33cc3deb01f7a7e4U,
  0xf32d64cabf562e43U, 0xb600f20fee2526bdU, 0xbce0bfc3b6b510adU, 0x8bde09c0d5c718c1U,
  0xe1170bfb1358d028U, 0x43eed4274e4ca233U, 0xf702b28e57304beeU, 0xf23300391c31755eU,
  0xb5fb2d50139d4721U, 0xb2f6a51aaf0b71cU, 0x285a09b536c4c5c5U, 0xebb2590e0fb5f332U,
  0xd533ebc9c9e8a4c0U, 0xeacc2cace93af631U, 0xfea3c8c0c82deda2U, 0xf3f054f642a545b0U,
  0x290e56fff9915db1U, 0xcfa9c70633f9db3cU, 0xc1ff79502bfd61cU, 0xa1bedf35b6b23631U,
  0x14c755490dd0bca4U, 0xdeabfe4f59b39216U, 0x625bf38fb84f272aU, 0x473af06d082a5750U,
  0x18612fc6d2bb160eU, 0xe5b0b9bdd54b3423U, 0x18435afcc61def13U, 0x4f4b16493bdfddabU,
  0x1dfa48ff1609e3b5U, 0x94acde6271951d8U, 0xd3e8d0c42f1cd8e0U, 0x3b1cd511f5a7add2U,
  0x1d29fdcbe10dfbaaU, 0x4c2169cd216c407U, 0x30b858f7a8c3c6f0U, 0x3fc54d2a2e522153U,
  0x21fa1a0edf41380cU, 0x55e0e41de2e3f552U, 0x63301a0908352336U, 0xa96521520cc57122U,
  0xc35959d404d4a914U, 0xb118dc18f0dff406U, 0xb9322ce56c4c120eU, 0xc4ae5bed45f221afU,
  0x2a36003822ce493cU, 0xcda71e4819eed6f8U, 0x4241a853a4256232U, 0xa6e252463bf55ca1U,
  0xd624092c58a3ce2fU, 0x4a22979942c9d6e0U, 0xf55435de9905a757U, 0xdfcaf8076ef94b15U,
  0x3099fc140d693c25U, 0x8325d20e9b5eb64U, 0x536c323037c9e14bU, 0xe4cae912bd2f3563U,
  0x22eb43eda2a9ccf3U, 0x300019e9d4194a1eU, 0xc025b8a1eaa9ead9U, 0x379643ebecd1ae37U,
  0x91cf0a7422effbcfU, 0xd121411691c01fc1U, 0x4e2a94c4136d12fU, 0xe15113f0294210f7U,
  0x46c0f2e8f60e5f0eU, 0x710ed071ac4d823U, 0x585d56dda6f5282cU, 0x5df10cb5738fd40U,
  0xdfacd5ffcafc23b6U, 0x5b5c370bfe4521b2U, 0x10c7bf9ad59f1119U, 0x523e2d5dbccc4f18U,
  0xe824d5f93d09affbU, 0xc168c0595252b8c9U, 0xb1ea07b6fedef8bdU, 0xee9ffd57d6bf9ba8U,
  0xb5d52c3ffcf90b13U, 0xc82b19f3eb046056U, 0xf7b308f72f164e38U, 0x76ae1b83f9f673aU,
  0xcaba4628281aedccU, 0xcc24b1a7cf39a5dcU, 0xbae6af23174eca00U, 0x56cdebe3df0b263eU,
  0x64153351c7c447d8U, 0x5f0cdad64c0223e2U, 0x5c60dce34632b467U, 0x2d0819291b364cf6U,
  0x9f13d8d3be10c0e5U, 0x36152f2b01c51da3U, 0xe24822c621f93ee0U, 0x1fb602b953b6b4c7U,
  0x46fac9ae34b8ff38U, 0xcba9d5d6ccc3a41aU, 0xfd4fb8bf3bda21b3U, 0x3afbc4c25b3e63c6U,
  0x1c476227e03ffaf0U, 0xb01eeb4cf325dff8U, 0xccb2b2ff5129caf3U, 0x2448b60a24e5ab2eU,
  0xbeb3bd1dcf4f2b9U, 0x3f000a3c74053e5eU, 0x6ae31ac9c94afbcfU, 0xd650d22a18e4450bU,
  0xb5bc2c8bf1be424U, 0x5326314204c55116U, 0x61b5f144a12e4f3U, 0x514e0333065ad5fcU,
  0x39dc3271f607f055U, 0x114f572cc0d322e8U, 0x3638a0212cf39eU, 0xd665635d0243dc0dU,
  0xee4e06570da0540fU, 0x4d5728a6c230d9ffU, 0x621451b54a58baf0U, 0x9439e33255d4eefeU,
  0x22c1de3bf32d5acdU, 0xd1503ae054ed4204U, 0x58fad88d2754ad0aU, 0xd15fe228203c4000U,
  0xd8c5bebfd9599fb6U, 0xc60738592ef025ffU, 0xca36e73313cdba47U, 0x30a4013e04cfe4c3U,
  0xa318ddef18f3cb22U, 0x1cbd65c732d9e950U, 0xd4e94ecdc8181b49U, 0x565dcbead0e4dbe2U,
  0xca48e4285fe7f7daU, 0xf2a62dbecdfd3eb5U, 0xfcc6c100ed1a2dccU, 0x4936c7b69e1a06fbU,
  0xc9d5d7670d94c76bU, 0xb1d10f970d43ea01U, 0xd7b44b649b5c0b27U, 0x635eb1c133239e6U,
  0x4994ec2554bf3fa3U, 0x9029099e100d5a29U, 0x5d432b142130f8c3U, 0xe7f8df2ff4200a62U,
  0x472c3dc319592cc8U, 0xfcd9d4ca2a9db920U, 0xec221e21d154b542U, 0x3e8c2f455e11a344U,
  0xdfddcc1335410215U, 0x2e9dfd33ac413cd6U, 0x1405fd0e17df3636U, 0xe81cbc31f8fbc736U,
  0xde3206e258b5f0f3U, 0x4642e909c8ccaaccU, 0xe4fcee29092f160cU, 0x250c3b5a37b40c52U,
  0xbbbd4014cbdebc14U, 0x2af71d4b2dfe5260U, 0xbc13633c10ea083eU, 0xff3257f91603c540U,
  0xe834b43999280629U, 0xca284148f2a71728U, 0x1df006b432a8e013U, 0x41082c08c4ba0af4U,
  0xc4c3cea17210fc5U, 0x1c4bf64836ef1aa1U, 0x9fb7b2052bc3e60aU, 0x403cf918e4b323f9U,
  0xf614f33309971f33U, 0xec3efb91e638e7d3U, 0xbbbdd81ff1bc0d26U, 0xd12a179b5bdffe4dU,
  0xf9e7ad4ce030fcd3U, 0x9f1c22142e0e11e5U, 0xfcdccdb6dbdd2dceU, 0x3e4b4a23ba284f5aU,
  0xfce3e1bfc232450cU, 0xfe560d0f4c4b04e6U, 0x3a57f7f69e10cf00U, 0xb6b7bfab40592548U,
  0xbeddbdc008594602U, 0xcc040a04380ea742U, 0x3d4a2d33ce071043U, 0x6283bec5327bbf1U,
  0xeeb90d1705572b20U, 0xb4bffc0942a907b2U, 0x3144fe8bdfb297cbU, 0xa3e129fc32116039U,
  0xb84e2e23cb1dabe7U, 0x2409f4cee34aa6d1U, 0x9863c3381be2ba24U, 0xeb23b35ce017a712U,
  0xbc29a638cf1c2a3aU, 0xf447e3d51f60bad2U, 0xcfec3b9ef9eefd99U, 0xed1adc111d3f0b9aU,
  0x133806b2d43e26d0U, 0xd537cdb8df2444edU, 0x1fe921efbcefeeb3U, 0x5dfe22254415e84dU,
  0x3771e746c70ac2ebU, 0x29baa3d14d58180dU, 0x132b5c21a228ea3aU, 0xd4f8eeb7db4de42aU,
  0xf112afeabda4af1dU, 0xc9f03fe92419d119U, 0xe1f639be101134b5U, 0xcd2abf471900ba14U,
  0xb0302019e7ece4cbU, 0x2e1b0fbd5d3eb5e4U, 0xe240b91ba3deb2e0U, 0xc31c3bf804dd1e17U,
  0x13e0b1ad4b2206fdU, 0x4ee542bc1821e62cU, 0x1928e119ef644446U, 0xe1c0b22c2c119c4aU,
  0x1a52aebf3f57c451U, 0xcee1d64e17d70bcfU, 0xa726ff4aa7fc4dadU, 0x23d4fb435848ab20U,
  0xdaacc6a5c43be820U, 0xe121dc0022232222U, 0x49512f45ae3f0a35U, 0x35ea8c014c94a20U,
  0x11aed72a14d13fe4U, 0x45ca99b2389db2beU, 0x715653aad371ab1U, 0x5c01f8ea365dd726U,
  0x112c15fb19494255U, 0x4c02b90d55ead214U, 0x17102a08349c21c1U, 0xd761cf280b293321U,
  0x1f16ca2a3057deedU, 0x62ec61284c2ebcc5U, 0xcded35bbe81a1ffeU, 0x412de037cbc839afU,
  0x38256cfc0a51dd53U, 0xb3d3e523b6cecfbfU, 0xd0b59d2bd2445624U, 0xe0b40d12b9e3a618U,
  0xa7ac035ede53a2e1U, 0xaf5fd1ca82af713U, 0xd6efe9eebcbd5f0cU, 0x525dd751a0e608b8U,
  0x38c0e020f0ff1e2eU, 0x43491223b5395033U, 0xaa3f42172f3cedbdU, 0x43073a3af8c24a13U,
  0x1dd5245ae65d0935U, 0xb43358d43743a43dU, 0x21d1de429049df4U, 0x292c2343fba2d865U,
  0x414927aa23293522U, 0xff522bfa44282f35U, 0xb1ff57f815aa1bbaU, 0xd2e40e18d93cdbf5U,
  0xebdff1bed1e728cfU, 0x48dcd8da2ac0d0daU, 0xda26eefe62f5bb0dU, 0xe6e653411e2d3c44U,
  0xe1bf3d0905b1f546U, 0x349f9948ad1804e2U, 0xe15afe3b853ef38U, 0x4f2b1b1ce4cf3336U,
  0xb0d0c2f630360cd3U, 0xa524f6e8635b4ee5U, 0xc0092c54244d383eU, 0xfb4021cf2ce199b8U,
  0x43a403f6b9ebf5f9U, 0x5b4b57e72256ee58U, 0x10564107ef1d0f13U, 0x10fbf521c6edd9daU,
  0x4cbce13819a4bba3U, 0xec0c32ea36ecad49U, 0x40ab341b3ec0adcbU, 0x5c565bcb3f070949U,
  0xcf65cdbc64fccbb0U, 0xe43f5f39fcbc2cbcU, 0xecbc8a3c4ad81bf8U, 0x44f5eae98e8da3caU,
  0xae5ed158e82dcc0cU, 0xc7e4f40f93de48bbU, 0xcc06e074e1bb4630U, 0x458f9ca6df0fd5dcU,
  0x8171418e1ba48acU, 0x2edaa30b3f07ae6cU, 0xddd14f6ebc458f5U, 0x1411ce21980acc5dU,
  0x4fc55f16d653c515U, 0x2b05a45d23a2b9c7U, 0xe3f16ca924c433f1U, 0xc6f7a0156f09aa33U,
  0xf0422fb5dd02d410U, 0x5356dcad1fe5ece5U, 0xf3d20eaac6f13641U, 0xecb8ac1fec13c61eU,
  0xd8c2580f35e0b7f8U, 0xe4f4c027b82aaf0fU, 0xbf1c5fac5da7341fU, 0xf1ed30eb22344b35U,
  0x2736ceb2f22109f0U, 0xcb5ec029db55f4f4U, 0x404ddb2db31c300cU, 0xc4b5ff0c48e0b5e4U,
  0xef62e0b591b00d9U, 0xc6a92f2a19c8b5baU, 0xfcc6b2b219c706b7U, 0xafb628fa02aef5d9U,
  0xbb04e2b620dffab2U, 0x4507bdd8385abdbfU, 0xba11faba98d0a52bU, 0xeb39aa5149f41afeU,
  0x2aa21e34214b38d3U, 0xe3edd157e3fc345eU, 0x134de4bf1400ebe7U, 0x220aad003e00de06U,
  0x39dd25f1bda0376cU, 0xe7e54240f2d0dbfcU, 0xcd194a4be5fb21d0U, 0x19d1471de653cb3dU,
  0x40cb8e2e42293827U, 0x16d244afeefe3ef2U, 0xd0c237f80ac966cbU, 0x1bc21349bfd9d0edU,
  0x880be644f8d8dcffU, 0x37ca0bb03b312cccU, 0xc5372c31e4c7b61fU, 0xb21df34839dc2d45U,
  0xc2aaaf683c0442eeU, 0x13b5e9f0ca0751adU, 0xab9e03b4033bafcaU, 0x27cd5637e6be27f0U,
  0x45a5d2bc365020adU, 0xd3f1d74254af15f4U, 0xade93b36d15ee2afU, 0xb51ed27d146080eU,
  0x385148d7f44528f4U, 0x2d1e5211ccfaead4U, 0x52a431cb1b0ab4aU, 0x23f11bbc461a4bc1U,
  0xc5f73ec6a9262adbU, 0x7c159582aa7489aU, 0x1ea70f5021ad07c9U, 0x63942ed947aacbeaU,
  0x38094112fcceffd7U, 0xad1542bfe3d93ca4U, 0x5a15847c901030dU, 0x10e50bd9196dfc21U,
  0xa8eddc3e0b172729U, 0x3ea7fb185aa9cbc9U, 0x4d5211110f15f543U, 0xecc6a123172b53dfU,
  0x3ec7490d3ec5c6eaU, 0xb91e9f101cd2f529U, 0x28df41d49feaba50U, 0xc6bff3f6c708373aU,
  0x3b4823190150eff3U, 0x3be6aae0e620c834U, 0x4df529de2d5bd5f2U, 0xf7ebe939b23741b1U,
  0xe74bcab5d228fe2dU, 0xa4e3b74af7b2e528U, 0xd435da26d060baf1U, 0x1e00f4b6fdab9f05U,
  0xedb10b35514dfb0aU, 0xb512b214b6c0b8d3U, 0xeb44ed60bd40cd1fU, 0xb8fae8940819cef7U,
  0x410fff37e8031620U, 0xb0facb224d554de6U, 0xa355f21810dd30adU, 0x1f113edd040bbeedU,
  0xc8080bf8254cf73aU, 0x10fbd80ef3e20fe7U, 0x3dffe2361bcbeef6U, 0x60e62be2524efc52U,
  0xfe75638e814b72aU, 0xc6f6cf2dc15a57c0U, 0x5bb554c23c35b1d3U, 0xbf5ac24ac9b0ab19U,
  0x2fe7a569f5ed3f31U, 0xa9f7ae3d339cd127U, 0xea45f3b4ff3cd532U, 0xe32bc5d10239b817U,
  0xbcb0b84fdfd3d116U, 0xa7e9c714e64350d8U, 0xdfe9b3d8d4eb18b3U, 0x480b37b34ac84127U,
  0x18c4da63df51ebc7U, 0xcc0892b2c4e4d860U, 0x66e0b7eb34d3d9bfU, 0x9e141e7d3b0f9e2U,
  0x11cf4db3b7c8e59eU, 0x29683474443dd45cU, 0x30f6c9e6e4f5e65bU, 0x54436305e722574dU,
  0xffc06ed2004c19d9U, 0x47fbe2342ef9b84cU, 0xfde001531cf9a72dU, 0xfe30d9e525e038d0U,
  0x3db0a5dcab9b24ccU, 0x3feefd8dbcb4314U, 0x1f3607c55c564b1dU, 0xa633e644a905e223U,
  0x11f04fbe4eec3c11U, 0x1952d4e77c06275aU, 0x14f12422c0e6c72cU, 0xcbf23b1d5c11d31aU,
  0x41f30acbb73556a2U, 0x27dc05bd5bbdb9fdU, 0x164c48d1c9a7dc32U, 0x9e3b3619bd021b9U,
  0x9f7620d39bfb2929U, 0x6316033d49192ebaU, 0xb15b1cda672dfd1eU, 0x422e312febe008d4U,
  0x22c8aa59a03be936U, 0x2dd3cb45b4ed3bddU, 0x250ca937edd5372eU, 0xb55ec3eddb2c459dU,
  0x1af3f046c2b1d343U, 0x29ab24aae0f748d7U, 0x585634bd091d19b9U, 0xb401dbc8ea23015eU,
  0xe211d70309234146U, 0xe927f9ee4f441522U, 0x6b49d6d62cb12e5dU, 0x4f5444403f1c255cU,
  0x44cdfad842fc0e09U, 0x56ab28f5a859e2bdU, 0x9c272bc7ad4c3bc5U, 0xc6df21cfc02afb12U,
  0x51942057ed235248U, 0x3aef09914bcc5cceU, 0xe4f52d274ef7fc26U, 0xea5269a5dffff9b2U,
  0x13390af70d4bde21U, 0x1827114d98f21010U, 0xe2eca3c31dcdd920U, 0xf83417e00e320d30U,
  0x28b13458ecded316U, 0x9bc8a6bb3ab7ac52U, 0xeb34530b035dfe2U, 0xe842f1b3c323ec3fU,
  0x2731ff224cc7c09fU, 0xa24bc8d3082d57e3U, 0x3cf30ed2c941d6ebU, 0xe9b5b59ee63ec358U,
  0x220dee9d30f45020U, 0xdcc42f4f3cbc45dcU, 0x3d534cd9f613ccd0U, 0xfbc1cc01e8e53a05U,
  0xffffd99a3911e54cU, 0xfffff8cb0000465eU, 0xffffed1600003f65U, 0x1e2f00002950U,
  0xfffffb32fffffd8bU, 0xffffeb2dfffff4c0U, 0x3f69000000adU, 0xbc8000010c3U,
  0xffffe59b000000e7U, 0x272200003910U, 0x38b6fffffeebU, 0x3e4f00000feaU,
  0xfffff6b5fffffc82U, 0xffffcf8fffffef76U, 0x381e000004f1U, 0x24670000061eU,
  0x2b5ffffd455U, 0x1408fffffd70U, 0x390300000c97U, 0x2d28fffffa2dU,
  0x87dfffff671U, 0x2982ffffffe4U, 0xffffff5500002d1dU, 0xffffb250fffffe5eU,
  0x9ac0000088cU, 0x1609ffffeb98U, 0x163affffd0efU, 0x36e50000007dU,
  0x12dbffffd2d9U, 0x15ab00000098U, 0x3548000029c0U, 0xffffed9d00005ee2U,
  0x69700001e45U, 0xffffe4e2000002e7U, 0xffffdfcd0000121bU, 0x2a9a000046ebU,
  0xffffddfffffff73eU, 0xfffff167000014f9U, 0x1af4fffff636U, 0x111fffffe821U,
  0x55b00001a4cU, 0x5c2c00002dd3U, 0xffffd323fffff7b3U, 0x2165ffffbda3U,
  0x1d00002014U, 0xffffe7cefffff090U, 0x37e0000012bU, 0x2f7fffff196U,
  0xfffff25f00003503U, 0xfffffcb1ffffe8a8U, 0x13a0fffff5c4U, 0x2f58ffffe9ecU,
  0x48f00000081aU, 0xffffc5400000416aU, 0xfffffe80ffffd68bU, 0x3800ffffce3aU,
  0x23f0fffff94fU, 0xffffef16ffffb0f1U, 0xffffd38e00000addU, 0xfffff51fffffd2c0U,
  0xffffd01c00000b01U, 0xffffe821ffffe714U, 0x76d00001c64U, 0xffffaeac000026c9U,
  0x3d35234cffffd227U, 0x30e657f6fee4b819U, 0xa8f10c6fa54d3ebfU, 0x5436c3526e54d8e2U,
  0xf511b550e02d0d3cU, 0x9b1ad63b56d928f6U, 0xdb47c3dd38e34a97U, 0x46a7b7a9b5262aU,
  0x34dfb55eebb0b4f9U, 0xe0c8b50416dc6345U, 0xcb4bb9202810361bU, 0x4f33aaaa4b59fc3cU,
  0x2eb57a6d526fe22U, 0xe326fb578fad9e19U, 0xaa1024f596f68ec9U, 0xd9e4d0bf1bd35246U,
  0xf826de09dfadd0d0U, 0xbb1e8ab46b361207U, 0xf0714bf1e9522cfcU, 0xdc0e47981727d221U,
  0x1dd05337e84f1158U, 0x370d64e50bdf01c4U, 0xca113ee9c0fe57cfU, 0xc51026cfa7c760a3U,
  0x4a10c70afa0d58b0U, 0xa53e7b691bcc202U, 0x203ccd1f4b4acbcaU, 0xd0311fedf9e22743U,
  0x710f8fe5f034c4dU, 0xec406ac8637bf52cU, 0xddbd0d01454e5d5U, 0x22b3941decc0aa15U,
  0xbce1b650a008e31dU, 0xd54b2825b80c20c7U, 0x30aca62b4846f218U, 0x2ceec1b51afac0f4U,
  0xc45841fe223c4002U, 0x93091cbb57dbc1a7U, 0xb4e948ffcc499ffbU, 0x2fcb0ca910c30643U,
  0xf0cd043b4fa51c2aU, 0xaadde81430c61e26U, 0x501aac44c8ee334cU, 0x44ff292d1ea2fbaeU,
  0x73fc09a9d32d20acU, 0x4af900e7ee0cfbd2U, 0xae0121fa300d51f8U, 0xfdc029d634d6b843U,
  0xb009ebc355de9dacU, 0xbc2847b25919fc3cU, 0xfae9e06305facfc7U, 0x1fd314ebea4135e9U,
  0x3efa2308dda83d37U, 0x3a4cf1004bbccf4aU, 0x2c1826cf1ccf3b60U, 0xe3d1ce5ec53cb9d9U,
  0xe6afe0e45ab9ce58U, 0xda4ce601ab5f8edU, 0xbb3aacb41ffa618U, 0x4b0a473c3dc8080cU,
  0xef0f38f19edecffdU, 0x46e62b231837a330U, 0x16554fe7395fa75fU, 0x340cc054df34512bU,
  0xdb375aed3ba91a44U, 0xabf144e6a75df610U, 0x42d2ec32f925da1eU, 0xf12548a80a004e27U,
  0xdb171c0eaaf3adcdU, 0x3c5dd0d918f70f21U, 0xdd0b39c75e1120d8U, 0x2c1af4e931e431e7U,
  0x5c05a4f6a0300bb5U, 0x18562ce2bdce1114U, 0xcc19a1d4a929eebbU, 0xfc865bb43535454U,
  0x26fff9ae531abb2aU, 0x30393ec2be3acfe9U, 0x921ec5922aababfU, 0x4443fed573718a7U,
  0x5136b64ecdff3949U, 0x21dc9352562c5548U, 0xd4ccdd69ac1d14dU, 0x42491ea838bbb21dU,
  0x48c53f9dde70b0e1U, 0x353bbd56f064d315U, 0xa8f51812af41e8adU, 0xadc651cbdc6a643dU,
  0xf0abf380fde4e43U, 0xdece47b537a569dbU, 0xd7f22102da05f2d5U, 0x18d8f2e2cbb9b10eU,
  0xa1bdfd54160df1efU, 0x3fffd8370eb6aee1U, 0x1240aa64c4eea7bfU, 0x2fda9d4340d4f20fU,
  0x9e0c323097d63d45U, 0xd8330bfc2c06d6eeU, 0xd2455632e4534120U, 0xe01f59e2bce1f616U,
  0xc5b8caded9d7f24bU, 0x339dc01991e0b56U, 0xf3dacf432f151740U, 0x3dc3719dce059d6U,
  0x1049f8c84ee8fdf3U, 0x23cf172c03d62ad8U, 0x3d32bb259cc07e2U, 0xf4f8c5262a56b9b2U,
  0x60aea4fbba4ed615U, 0x4f58ed0f2cc65162U, 0xc384df2cf524ff0U, 0xdea022f1e34c21c8U,
  0xfc5525e9ab0a243cU, 0x53a2073fdb36ea18U, 0x17c4b1bb0ea9f4f5U, 0xe0ef9fe4fcece0c8U,
  0x4cbbf6ef0fc6ed0aU, 0x5dcf5ea7361fa154U, 0x8cab612aae8b38c4U, 0x1e3bc7541c14f52bU,
  0x3c01054dc73f2542U, 0x5a2940e6feee161dU, 0xd91a60255a083244U, 0xaff5e3d257c809d4U,
  0x5b6c8ffee0318e9U, 0x4b5db35b4922f40fU, 0x2cae07d2304c07f7U, 0xe9f9051227edc2d8U,
  0xc75211fcea2d03d0U, 0x21eca90e08df0eebU, 0x10ee1f44d46739ebU, 0xb3061fdbd63b3b39U,
  0xf00da737525835f7U, 0xaf9fa811d50c69daU, 0xa8deee1336bbcadaU, 0xcff3252dc3b9bff5U,
  0x58bfe505f60c4614U, 0xe87811eebec40a03U, 0xf0ee2f67090815c9U, 0x28ffb90612d5e730U,
  0xa9f42a1cc8a0fb03U, 0x4316d156125c774aU, 0xc978e4a310bd5718U, 0x7b6b71f054fd21cU,
  0x3f1ee2d944272b51U, 0x8f04e927fa0e1117U, 0x40360d1b3c5a30c5U, 0x6e43db0fe8bea540U,
  0xba1033f14431c63dU, 0xe52e2904cc90129U, 0x36d4a268c831d4e5U, 0x31491a1331eceec2U,
  0xbc4919dc3542fdf7U, 0x28d3cda6c62a421aU, 0xf6ac9eb12ee71be5U, 0xf6af3bb7d3d10851U,
  0xbfddfbc723c0332aU, 0x60d3ab11f8df2a4aU, 0xdcffccfdf5d74a42U, 0xca4fc71bb71d39bfU,
  0x3a1205e638655f05U, 0xc71aafdef250b02fU, 0xc96ed52de76d2c61U, 0xfee358150b60982dU,
  0xba932ac2dbf1daf4U, 0x3449aeb5e2e40c71U, 0x114d403f911afd5bU, 0x1e32655b35cd6e96U,
  0xdb1befd90f1df5b5U, 0x31134f1dbeaed34fU, 0xf52bd68f845cedcU, 0xf64154e526d92c0bU,
  0x3246e41a24f6eb63U, 0xfcfacc6be730fb6bU, 0x393d99590ebac936U, 0xf34dcbd5270033b7U,
  0xd60af20330d75c39U, 0x123ef697f046f4e6U, 0xc6422f423f91e72fU, 0xaaf7532b1d1213e0U,
  0x24010effb6364614U, 0x629e8230503bd4aU, 0xded7cb3a40d3f548U, 0xe24cf20406cdbf44U,
  0xb1e7585249081333U, 0xa5ccaff86b60e965U, 0x129503ce997c52eU, 0xdae7412a8dc049d1U,
  0xbe5a1cdf011a9c3fU, 0xd82e2bbbc4c1d1dcU, 0x3e28d8c7eaf0cf2aU, 0x452e4e4a1d2ddf3bU,
  0x581b2e4f3d2cb325U, 0xc2a82a0b2925ecfcU, 0xae2cd0d5a3590401U, 0xd6fbd29a4a32f803U,
  0x61bfbdbaa339ff24U, 0x43c456c2fd142347U, 0x93a350c4bc4115a6U, 0xc00be929b3e32cd9U,
  0x2e24a81e45dd18f3U, 0x43f0d600aa4a0accU, 0x374f1ea8fb201c13U, 0xd3ae4ab3a2c509eU,
  0xffa3eddd68c9eccbU, 0xe8f6c2daa3c2ffe2U, 0x343e2d213f60d5c6U, 0xd847fbfbbcfecb39U,
  0xf1a6f8a7c6eed452U, 0x45de3b0d56bc3d2aU, 0xb816ed40c44cde2dU, 0xf9fc39ee27f4b3eaU,
  0x5ec21c15b5df90aU, 0x206e5decd65eb462U, 0x2103c9a60d96d73aU, 0xb3c247b4d5d0d6bbU,
  0x1bad905d3d53461U, 0xaa1b0be9c5ee522fU, 0x45175c6c4d244848U, 0xdd90344fc22553bU,
  0x26a6bbfbe5b54363U, 0xef4016443efd4154U, 0xd20190c74d139b26U, 0x30babfa6d805d6e8U,
  0x200ebb0fb136323aU, 0x4c9fc3d7e1ebf5fcU, 0xe5ebdaa4c01bf652U, 0xd6cb1293c64adfc1U,
  0x50fad8ebf7dc50ebU, 0xf3bcd4f2472a1354U, 0xae1dd1f233c5503fU, 0x660638b942c9d413U,
  0x114cdb0a51d8c6cbU, 0x15b24ecb4744d25U, 0x52d1e619edbab262U, 0x192ad268fe5bc795U,
  0x17cae4cc4846dc1fU, 0xb4eb63f7de0007d2U, 0xcbdb370a32cdf815U, 0x3b23dd39e7f8a1c0U,
  0x97df1bda25d14359U, 0x439b5c2a79ac52aU, 0x96fe4855f4da3603U, 0x303adec3f6c0e696U,
  0x5344d6589bcae0e6U, 0xc7abf5775af5b995U, 0xb6aaccdc69fdea1aU, 0x4a390aa10197c0cbU,
  0x97bf11cf3a0d2df1U, 0xac89ce084a6a3efeU, 0x6da29a4d11eca552U, 0xe12acf7c92de5f6U,
  0xcc55d1fe2423b00fU, 0xa5e394a7beb8f0caU, 0x26933e4c3c401feeU, 0x2de3b4071af738e3U,
  0xa33dfeeaefa27d8U, 0xcbcca9a0d927c82fU, 0xd2aadc4c48e142b5U, 0x2bb9b48d8a719c4U,
  0x4a11e0c0c53a8a45U, 0x1de6f41f18ecceddU, 0xc12c223f6a39bf0dU, 0x2323f740b548c426U,
  0xfe35b9cf33a4ee20U, 0x9ba6cac70a34d846U, 0xe033d0e30e0af3bU, 0x15220ff9923c43dfU,
  0xe5e00957470030c0U, 0xa125261da53938fcU, 0x4bc3f40eb300b03dU, 0xf5ae5bdbc1d447b0U,
  0xad0dead2ab31fff3U, 0x66102dcc3a9d28d1U, 0xe2a3cd2fd84eec57U, 0x303ea9e725b922c7U,
  0xf7ed3923060ff7cfU, 0x304c2566b0a7d4ddU, 0xb50f1cef62f8bcdbU, 0xeee0e74c57f8ea2dU,
  0xca946bca6ceeca6bU, 0x436bbdd68e455b1U, 0x35d5d49faea201feU, 0xf2294019d9058e39U,
  0x3c45cae64b28c20dU, 0xe19c58528f05b92bU, 0x1fea4fdbc71d2226U, 0x4c2736cfc739bd14U,
  0x5f4541bb0edad798U, 0xb60fb7aa17d340cbU, 0x1cdae0b03d21171bU, 0xf5112521b84fcb4cU,
  0x2d261408e42948aeU, 0x49613a3a2e070907U, 0xfab2bfbf1a9a29d5U, 0x6236eabbb5d4b32aU,
  0xa7daadb9c1f90108U, 0xbed158beddb73cf0U, 0xe129bdcdc127d350U, 0x5fc948f40e10ff07U,
  0x6c613dd2935d60cU, 0x5c30dabd659b83eU, 0x21274d4bda21c36aU, 0xdc3abdce2f080aa2U,
  0x8f148eea4ffb5aeU, 0xa35f48a5096731d2U, 0xee19bdcd46f195abU, 0x13b27c2cc25f71eU,
  0xaedda11be1d95913U, 0xc93c2de95aa0229eU, 0xd15d22661c5df40aU, 0x3f31dacd69e9320bU,
  0xa2aaecedfff2f6a2U, 0xa1fbf6a5022e941dU, 0xb3f4fdb4e645dcc8U, 0x51bffee7f49d2635U,
  0xe0d8fc01ecc32b39U, 0xed2921ebbf213ccfU, 0x1b66eecb0f0ad03U, 0xde00e40eb82df641U,
  0x27b7109703add5beU, 0x2a10d49f7005402U, 0xf7b24ec0ae0cd32cU, 0xa34939b659bbfd42U,
  0xd53ae06bd9fec637U, 0xbff3fb3b81d93a6U, 0xbd1541fa10be0efaU, 0xf1b80758bc662443U,
  0xdcd2424efcb2db0fU, 0x22eb0cf1c0e5c62dU, 0xa80fa91c16fed62bU, 0x6e53a4220612a851U,
  0x5531f3e8e237e809U, 0xffff5e1118d799cbU, 0x63cf3a6320e59b57U, 0x9c0b05383ed759d8U,
  0x44ff3ab08aa01f8U, 0xc9160c5a3ee5e19eU, 0x312fdc3df8b8e2d1U, 0x529e36aad9054aaaU,
  0x179a25ed47043d09U, 0x47ffc4e5d01d6a4cU, 0xb5553d68e1416d50U, 0xaaa116cd08535ff0U,
  0xc823d1f7e407e7beU, 0x1a45d1eb12194edcU, 0xebfffe48d72bf5e9U, 0xea1001d3f31965e0U,
  0x121c1b0e12b5d1adU, 0x2decb1db65ef5120U, 0x52211c1522e0d0cU, 0x3255304d3cfabfe5U,
  0x5b6545fe595afd28U, 0xa08eefd114d7c208U, 0x5f2be9f9b93c0d72U, 0xf04a29f2e277e05bU,
  0xcb070f34ba5027beU, 0x6f1308d7b7222d3eU, 0xd421c436afceff21U, 0xd014f957f513e0d7U,
  0x493bc8e80effc422U, 0x4539e9448e0600fdU, 0xa77ecde93fe11922U, 0x26addfdc54421733U,
  0xd5d62be205c41838U, 0x5b030d01dc7730daU, 0xc6382c6afd625e9U, 0x4656cba9f82b24deU,
  0x2d5125d6fbfd7ae2U, 0xdd49edaaccda1159U, 0x47ae51394dcdcf50U, 0xcd6328dca9b336b8U,
  0xea2a38b9f767b8b1U, 0x2eb1e4f1ee20e53fU, 0xc549562ee8ec49a4U, 0x252b3101c248eb2cU,
  0x3631164dc649f132U, 0x1f524e10afe11846U, 0x4168c606d5cb39b2U, 0x3e17cc9d213dd644U,
  0x5916d7bdc9bf2dabU, 0xe5e31245c107ca36U, 0x49c7fa11cca89ff0U, 0xf51395d9f3ac4021U,
  0x116361537cb4a48U, 0x40ec46f63b4dea41U, 0x23f863b4d7b4decaU, 0x40534849e8e100c7U,
  0x4e685503da150e44U, 0x9f61a86414b82eddU, 0x9efc33c4fff3b79aU, 0x34f1faea38553fe4U,
  0x12faf23ef3a9072eU, 0xce2ff4160552e80cU, 0x3f152a54319022d3U, 0x2c033ad72fd6adadU,
  0x51fa0f6af846b84dU, 0xeeaf503c23ae2d22U, 0x1ff4bc1109bd53f9U, 0xe3dcdbe8360728fbU,
  0xbe2f98c3ebe047dbU, 0xf63357a513e8dfa5U, 0xf9b0d5380423be92U, 0x191fdaffeabd34ecU,
  0xcec4b101e1f316d5U, 0xa3ca3d60b21303bdU, 0x731c24c7fd12e82cU, 0x435fd82e4708881bU,
  0xdefc04b0b1d71d1aU, 0x3fc06acf0de471fU, 0x1ffdc043ef342e6aU, 0x4bb4d7533d3f0d50U,
  0xde5af7efd2d753b3U, 0xbea6b4f908b552f8U, 0x96a16a46f2081fa5U, 0xe600543b454c1c17U,
  0xe6e7e4426724ad34U, 0x88f9b9582f40e334U, 0x6cf02d21d41e2b59U, 0xd59740fd13d625abU,
  0xeb5b02abb2addc7U, 0xd000efd418d665b2U, 0xbf01c62a2c0ebf3U, 0xfefdc8c03c1d06e5U,
  0x65ced930ea50f438U, 0x855d9eda6bb0a05U, 0x13e01e01067be7c6U, 0xe9faaf5ac3cd65e1U,
  0x88e6272ccaa948f1U, 0x3fafca62ff1cb0dU, 0xdc23d1f251122d8U, 0xc5f01c5b0547ea0dU,
  0xfe9b414cf95ce2bcU, 0x2d25aba385e10f6bU, 0xaf312942dba645f1U, 0x2a5fc40a501e52cbU,
  0x2a2a4464eabc3e15U, 0x26443ce3c23c354cU, 0x51b0440fb1ab801U, 0xc90312f6eddc1b01U,
  0x322619a66238d749U, 0x978b251710603031U, 0x3eef2ea3fc0fed4U, 0x3e5f12bbe9c2ded3U,
  0x644ce52c5f1d1ddfU, 0xbcb35e5baf579b40U, 0xcfc1e2aafab8b3efU, 0x10d74418e23a5a51U,
  0x3f0568c126abf98fU, 0xda9d01dd11075a1bU, 0xd6f45e282aaf2f4fU, 0x9cdf480206dc47faU,
  0xc5f94cc9152e3837U, 0x1aecfc4905e6393fU, 0x6e1e83cc0e5b8f3U, 0xefed2fa7460fe322U,
  0x10d3f2c4efe33831U, 0x322116b5fa4a61f8U, 0x19cca9bdf751b854U, 0x1fd5ad36112bca0fU,
  0x52f317e9c2dfe7b4U, 0xaa106265ec36a311U, 0xa7c63d079ed25621U, 0x1dc3a618c8a3c23fU,
  0xe3e6f9f1464af2fbU, 0xd0da02d8aa3ef79fU, 0x25d6e0f86afd0832U, 0xfef3e2e10497b450U,
  0x1c0b9709afbcb446U, 0xa627f1f9c4be6635U, 0xdc2738e7cde4e2d3U, 0x4f361b430d222ed2U,
  0xf4ad44e9e0d421c8U, 0x3b2d490e1ce4f2fbU, 0xc03dddeaf5d060d6U, 0x1fc1daa6aac2f952U,
  0x57e5c0c9ec57ee04U, 0x111933a7cf30c8d6U, 0x13c6c6f93ee16712U, 0x5149cd6c4fb0c942U,
  0x53a5c1d919349db0U, 0x6c550955ce26291dU, 0xa465582926e8b103U, 0x36deafd2094f5b14U,
  0xdf443c0cd15e484fU, 0xb5b1064018b33ee2U, 0xc50a204ac1582225U, 0xe22859f2bc4f61abU,
  0xbf3dd4f8beb612d9U, 0x9c374dfefed4e2b5U, 0x410cc1fd24e21533U, 0xb02d0f910674ba3U,
  0xfc3e151f3e1047aaU, 0xd219304f01f9a62dU, 0x2b30525616432b47U, 0x42aa49f11f51b49bU,
  0x59b4b1ab07c41ba3U, 0xb39ff8fcd0d25ecaU, 0x106d30faf1eee7c2U, 0xcad612260f0f44dbU,
  0x36cb514d4d48172aU, 0x6a5a56d69544bdecU, 0x9145532fcf4050b5U, 0xc2b3245a94614114U,
  0xcc53b3d9fac9ceb1U, 0xf21bcfacb7a4faa4U, 0xa95fc61bd360af32U, 0x45cb0aeef8f6fc0cU,
  0x54cab823dc099926U, 0x2445f6081c262d54U, 0x59211dda483b5226U, 0x2462022b8dab338U,
  0x4c06b33206f5731dU, 0xd612c409dc522f32U, 0x51f224c092bb11d3U, 0xdf56185122c44873U,
  0xdac6dab653754018U, 0xd75aee0b37700a47U, 0xc0e63b23b2ca2425U, 0xcbb42d33a826ddcdU,
  0xbd38e5fc0647f01aU, 0x64cfc8db39360d97U, 0x91d49d0ef71e7a1U, 0xaa2def49c2092bf9U,
  0x3b0b21d264649d4U, 0x4e3b2b262c5c532dU, 0xe1c6b30ac549e6d3U, 0xd05838e8efe3d2cbU,
  0x4c125711314bd868U, 0xf7c0dce5b7290414U, 0xef06b7fbe51551bdU, 0x2af4b116f8bef7aaU,
  0xb01bad5d119708c2U, 0x2f8aff647d611f2U, 0xcc2ab3cc52f1d99U, 0x4925c750f2fe473cU,
  0xcb0a68a808ee445cU, 0xb903d7093b320120U, 0x3e5855f54003e60cU, 0xe511a50a1f0ced3eU,
  0xf34402a05837b551U, 0xe5f1adb52fd1c800U, 0x3191f45a94070fdbU, 0x2f2aefea7d57306U,
  0xbc0deade31f836cfU, 0x2c440250bf13bf28U, 0xe63cd4eed1a1de3fU, 0x25fad1372134b6b5U,
  0x3701f75ecdf4b9aeU, 0xb7e23a6c23bfcca1U, 0x30f2042b6c01b4a4U, 0x5678b8e010d7cd46U,
  0xcb9512e141aaeff4U, 0xcfd5c7232cd43b36U, 0x1dca42b408fcfce7U, 0x372bcab59045101aU,
  0xc832b5fdbaf8a12bU, 0xd14f3e45f108bd9eU, 0x982816f8c75e0d44U, 0xd8dd60649bc16004U,
  0xe8f4d1b7372f99a0U, 0xfd3d27baf7c61b59U, 0xfc4564d50939f2e9U, 0xbeebc06e2c325fcU,
  0x5343bb3d540db265U, 0x14550bd5274de649U, 0xe3c720e01c352b36U, 0xacdf4d211ac3194fU,
  0xfb4ffdbbecf72832U, 0xebdd0ce3dcac0221U, 0x54605b4b41c5f762U, 0x43b6b73c32a8fe01U,
  0xc2ed4b5850d3c6b3U, 0xd2141f12c7340956U, 0xaa19dc5ebee4fe6cU, 0x3cc253063ed172b8U,
  0x43254918d7480e22U, 0x211502dc0a41c70aU, 0xd85863f60ad02626U, 0x2ae7d7112e59e70eU,
  0xe8ef4e0308a1ab4aU, 0xacdcf2c1efdaabbeU, 0xa6ce56be4fdf4c3aU, 0xa91b47a3fdb041c8U,
  0xe9333c00340c623fU, 0x9713f6f62b26eb07U, 0xf0181ebe00b9b5eeU, 0x7128db43de08e6b7U,
  0xfff4a0da5bd42bb0U, 0xc21029a8aca8fab4U, 0xc7d63dcf40efb64cU, 0xbbc7dfef40cebc1fU,
  0x2b24f63f4adfd8b0U, 0x2d2220c811349d1fU, 0x210c02ce5d4b0a1cU, 0x16ecd4d76ab8f80cU,
  0x25d3e237caaa38c9U, 0xdba615bca4f7f2b4U, 0x1e1a020a31f13b10U, 0xe769bf462544d9f7U,
  0x443964100e40b3f0U, 0x73638382fdec63fU, 0x730814dd1a9348c2U, 0xe2414cfdb11fee0eU,
  0x329ce25b8131adfU, 0xdd1508573f9fed4dU, 0x2933ca55eb2f2451U, 0xe6c9b9ae37c91ddaU,
  0x3c237e1e699fcd5U, 0x3bfb242c2af9930bU, 0x131e3a2c184338a1U, 0xb1ca3a4001d41f42U,
  0x574934d706fcfdc6U, 0xdda6edab5ddcf2e1U, 0x3434d1ddb349b842U, 0xf9f6ca0258c5cbb6U,
  0x20b9e004d9111a4eU, 0xa812236edfc628e2U, 0x209fdf02a29dd146U, 0xf7f3640a03951106U,
  0x5dc204332ab24a05U, 0x1ba78b07ade12f0aU, 0x955456acf9e1f702U, 0xeb3869ffb5087043U,
  0xc9859b400281d2dU, 0xc2bd6944d8f40d51U, 0xeebc24cd39c09a2aU, 0xf2bece40e51e4eb3U,
  0x3862e766bae6a12eU, 0xf12f2726f5ea9601U, 0xe2b7cced160336b2U, 0x1f76e8cc5e55c66cU,
  0x36d53adc509af1dfU, 0x335cf0f64382361U, 0x52caf0940293c663U, 0x572644ebd1b2b114U,
  0x71e00f330a17cfe9U, 0x19ad5ad815ba29faU, 0x26e6113dcccb0fe5U, 0x302afbf30fb364c7U,
  0xdc244fdeb93c9540U, 0x371db810405ac4e1U, 0xe72a07cd20ce28c4U, 0xda29584c0517ffd8U,
  0x2bb63931493c5ff8U, 0x5ebd06f702b61f07U, 0x5045051caf5ee9baU, 0xbeb44c552ccc4dddU,
  0xb42afcef3c5439abU, 0xbead2543a735aaU, 0xfed550f414b7cff1U, 0x50382f1bf92df331U,
  0x92ef4dc505c967c9U, 0xdd5028401b41c7eaU, 0xb4c832c5da1d5150U, 0x3b5604ffb4b7e44fU,
  0x2157edbcac362bf0U, 0x15324f3dec24f89dU, 0xddac35e954a75455U, 0xed1610fa1544330cU,
  0x1fd835e64d612b2fU, 0xdabfb63128a65101U, 0x33cb3b22fed81c4dU, 0xfcb1f93cd1fd09adU,
  0xd2c647e24f4ad85fU, 0xd0eb14d0b45dd7feU, 0x1c06fcc43e45535fU, 0x4d9751d62dec0d1cU,
  0x1617bef0ecc5b0d3U, 0xe20d58bac75fa0a1U, 0xc4b442a8b4e755dcU, 0x6335a715b01e3915U,
  0xb260b230aba25637U, 0xe44120e439f454b1U, 0xe61ef2a1ccb4b5d0U, 0xdafa5ffcfb291014U,
  0xbdc1d40a505129b6U, 0xc70128e926fd413eU, 0x4513e2d3c3ffeefcU, 0xe2c901edd5c500fdU,
  0xb75e2f0842d417bfU, 0xb6cf2d46e5bcb621U, 0x19392dabf1a3f918U, 0xa1e711b7f21ae1ddU,
  0xd93b0258c6cbb15bU, 0xdd1eed1dfacc5e8U, 0xdbc5a3295bc1cd24U, 0x2547a6f036c8585aU,
  0x1c21dd39415051c2U, 0x4efdbda721c532d7U, 0xd6e9152fa6514b16U, 0x4b9bd73dfc5b4c55U,
  0xa7161fc759235514U, 0x5f3cfc03ab68dd78U, 0xf10527fdb9b2d40aU, 0xe85dc94b34cde9dfU,
  0xcd1f749f00f1e5aU, 0xb92aff9de2a910c2U, 0xd7dab33319fd3fceU, 0x25f6f157ecb4a136U,
  0xaf2b25e2f4ae4271U, 0x52215a2f080e50dfU, 0x3ebb08eb3d0fb8e7U, 0x4b1bab95c01aad5U,
  0x907379dfb266c1dU, 0x1b94c9e203e2d4d8U, 0x16715805b34425e4U, 0xa90125b5f1b54ce9U,
  0xc9f5b3d7f81a39eaU, 0xe418f49a122062f5U, 0x99aad80b9fc316cfU, 0x2af363ade7f2c5adU,
  0xe24afb2404f0bdd3U, 0xf92e372f07ab16c3U, 0x41de34e0302a4007U, 0x12c02d40b82be1cfU,
  0x4aeac96c5a17a96eU, 0xfb1b58ced406424aU, 0x47ecbdb642552437U, 0xf952a412433a07eaU,
  0xac91ecb753fd3e3fU, 0xe9b2c39d339618e6U, 0x9ccd0f6201adc1d4U, 0x475e464e52c542deU,
  0x2c3aff65a1c596cfU, 0xfc204a6af9f51b1aU, 0x58f4f9cccf3091f2U, 0xc6674a502cbb9b32U,
  0xb415e0342fc04630U, 0x4c28d733635dd612U, 0xe30312f02809f251U, 0x4f619fd9df6327feU,
  0x2d4354c8a657af12U, 0xe5c65717982eceedU, 0x9e044baf2af2c105U, 0xee1737e51715293bU,
  0x3a3362552beb1a2U, 0x6ad7ebcca620ba52U, 0xa71df07049914f15U, 0xa848ccdbf9a86b2dU,
  0x2420014ba3ee90f2U, 0x2f1a2a44cebc1fbeU, 0x54d1e5b656c9362bU, 0x2d1fb25242d0a666U,
  0x7d76da7cac99ddfU, 0x2f29b43427e7a2cfU, 0x4fe1bff3ec29284bU, 0x463701d1f8b9d6f8U,
  0x451546c828d6bd16U, 0xcb44606fa9e3dc4U, 0x2f2a13d9cb5bcd6bU, 0xc1421c102ed9ba2eU,
  0x512bd697eed013edU, 0xbf22e8f9315a364dU, 0x1af52dfc132c365dU, 0xf54fcd3fa32221e5U,
  0xdf2c4b03fef0eb0U, 0x4b07cb1b1d25feccU, 0x4cc7e52e53f15018U, 0x364db60a963bd9abU,
  0xf412fc11164f56a2U, 0x35dd74d2f93f2209U, 0x2f5fff3c472127dcU, 0xb3c55adfadc2d0aeU,
  0x17c2112bb3cde6ddU, 0x5fe7cd5d4ada3b64U, 0xf4e499fb4bf0d5e1U, 0xb62d4cc95245e7deU,
  0x64b1c91cef4e0339U, 0x28b0b70db5c1d1c8U, 0x916b1aaeb02651dU, 0xd7e34206a26aa3e3U,
  0xb18e3a2eac6cedecU, 0xf471298f65bcc23U, 0xba0d1e132cd35729U, 0x1b3c4e361f32e4b3U,
  0x606f462298df5c45U, 0xf14f2a4dc5982f39U, 0xf959d93e15d5fdb1U, 0x93f3be59b7eaf2eeU,
  0xd3c7db08b613f8cfU, 0xf0c4caffe0133264U, 0xc0490859e1dcdef0U, 0xb5103d4fd4ba1532U,
  0xb4400515220ed9fdU, 0x1102a0f39722572fU, 0xf657052bb8e3ef62U, 0x35d6c9dcd833ea62U,
  0x44c8c60c2ad221e7U, 0x61fb30928b7c9afU, 0xee424937bdced1d9U, 0x16db3ef1e407aa3aU,
  0x531e30d3fa0c11a8U, 0xf2ca184b6b4fc003U, 0xd83e554a5bd2bf31U, 0x35301c002a44ace0U,
  0x3ae64b67f3121118U, 0x2cb1cfe617c622ceU, 0xde2e0c061b01c82aU, 0x153725ddcf44ebf7U,
  0x4838f83dcb1a322aU, 0xca58321911f92543U, 0xfb2dcdf34e49fa38U, 0xd42fb6d751a122fcU,
  0x4ec4d502018e2821U, 0x1ae8d300a2470496U, 0xb0910395ae1cad2U, 0x3b6eb117af1841daU,
  0x9097e4f4f0eae061U, 0x31153dc7dc44fb5cU, 0xd00caa1f139b00c7U, 0xdceed4aafafb1b6U,
  0x332eaac9c7deee13U, 0xedd412bff7cca2f6U, 0x35b3b9d1a8ccc004U, 0xcda5d6f01f1a3ca9U,
  0x47e542ee62a19db0U, 0xcbd39f340e0f4bb5U, 0xe7cc72bd10c51b0fU, 0xef14260a3edc1ef2U,
  0x5addc731a52efa20U, 0x5312ec3f40ff1a61U, 0xa33c2ee6ac2b46b6U, 0xcbb1e0d50dc73e1dU,
  0x5fa75aca25201bf5U, 0x16ca359b93533ecfU, 0x265a20f7e9bea1ffU, 0x3e1af0052ff54632U,
  0xcd0f34194a33e365U, 0x5f8711542ea582cU, 0xe49fa045cad1dfbU, 0x10ed9c2a4645d2acU,
  0x3ad8e02fb8e77013U, 0x1e54e5f2282dfcbeU, 0xce52b111d6e0c8e2U, 0x2c3f52f527f1bec5U,
  0xee28a0a0d5ec58eeU, 0xe3f00d2dfc3dbab9U, 0x4fd69ed3091d3d39U, 0xfdb9c6c6f6b415ddU,
  0x51b000d8dd4ce5a3U, 0xbdf7bb0c9ff39d07U, 0xd1024a2534eea818U, 0x4305cf25e90ddb33U,
  0xdd4f33e550fde022U, 0x4d1b5356e6ce44bfU, 0x105339a3f03dcff2U, 0x5dd2b4175cb94356U,
  0x9c5bd9efb9d13c3dU, 0xa4c51da952d0d44aU, 0xae04e46ec337fdb8U, 0x5ed8d660cce255b4U,
  0x46adcab3e18322f6U, 0xa33b9f08332ce785U, 0xdd0b3906396afa0bU, 0xdb3f9cd416dacb0cU,
  0x512a91449a341U, 0x1b002a23023b864fU, 0xeb9f40fff631e1beU, 0x1a250398b44e4fe7U,
  0x49d65d38e0fd6426U, 0x3157df94bf1739dcU, 0xb732f15442e54457U, 0xa11adde35be461d6U,
  0xd42343bde9d3dfb7U, 0x8f57a936661da2d9U, 0xdc4cfae6ef315e06U, 0x621bd3cccca2dc0dU,
  0xb39daffb64f55d2eU, 0x523dd7f922c9bbe5U, 0x5edb14423fb7dc38U, 0x3a3c3ecb07db0e17U,
  0x54243dbe931054e9U, 0x564c261da61f1ebaU, 0x97e754bfa34c31f4U, 0xd9f25df32d3a5d23U,
  0xf11aecb1592959abU, 0x2f3ededd20e10aebU, 0xc801514bf0111f04U, 0x27e8ea1d64e395aeU,
  0x262cbbb90cee4923U, 0xeebc1330e4f74b9fU, 0x213ea92ae5021c57U, 0x671ba54ab61e3ee2U,
  0xb2f6cd2b42bbe9edU, 0xd9ababb6d3c10d04U, 0xca56c314e450f1ddU, 0x4647380ad021fbdbU,
