
#include "tensorflow_model_lcnn_quant.h"

// This is a TensorFlow Lite model file that has been converted into a C data
// array using the tensorflow.lite.util.convert_bytes_to_c_source() function.
// This form is useful for compiling into a binary for devices that don't have a
// file system.


// We need to keep the data array aligned on some architectures.
#ifdef __has_attribute
#define HAVE_ATTRIBUTE(x) __has_attribute(x)
#else
#define HAVE_ATTRIBUTE(x) 0
#endif
#if HAVE_ATTRIBUTE(aligned) || (defined(__GNUC__) && !defined(__clang__))
#define DATA_ALIGN_ATTRIBUTE __attribute__((aligned(4)))
#else
#define DATA_ALIGN_ATTRIBUTE
#endif

const unsigned char tensorflow_model_lcnn_quant[] DATA_ALIGN_ATTRIBUTE = {
    0x20, 0x00, 0x00, 0x00, 0x54, 0x46, 0x4c, 0x33, 0x00, 0x00, 0x00, 0x00, 0x14,
    0x00, 0x20, 0x00, 0x1c, 0x00, 0x18, 0x00, 0x14, 0x00, 0x10, 0x00, 0x0c, 0x00,
    0x00, 0x00, 0x08, 0x00, 0x04, 0x00, 0x14, 0x00, 0x00, 0x00, 0x1c, 0x00, 0x00,
    0x00, 0x88, 0x00, 0x00, 0x00, 0xe0, 0x00, 0x00, 0x00, 0x10, 0x43, 0x00, 0x00,
    0x20, 0x43, 0x00, 0x00, 0xb0, 0x4e, 0x00, 0x00, 0x03, 0x00, 0x00, 0x00, 0x01,
    0x00, 0x00, 0x00, 0x04, 0x00, 0x00, 0x00, 0xc6, 0xbb, 0xff, 0xff, 0x0c, 0x00,
    0x00, 0x00, 0x1c, 0x00, 0x00, 0x00, 0x38, 0x00, 0x00, 0x00, 0x0f, 0x00, 0x00,
    0x00, 0x73, 0x65, 0x72, 0x76, 0x69, 0x6e, 0x67, 0x5f, 0x64, 0x65, 0x66, 0x61,
    0x75, 0x6c, 0x74, 0x00, 0x01, 0x00, 0x00, 0x00, 0x04, 0x00, 0x00, 0x00, 0x94,
    0xff, 0xff, 0xff, 0x0f, 0x00, 0x00, 0x00, 0x04, 0x00, 0x00, 0x00, 0x07, 0x00,
    0x00, 0x00, 0x64, 0x65, 0x6e, 0x73, 0x65, 0x5f, 0x37, 0x00, 0x01, 0x00, 0x00,
    0x00, 0x04, 0x00, 0x00, 0x00, 0xa6, 0xbc, 0xff, 0xff, 0x04, 0x00, 0x00, 0x00,
    0x0c, 0x00, 0x00, 0x00, 0x61, 0x63, 0x63, 0x65, 0x6c, 0x65, 0x72, 0x61, 0x74,
    0x69, 0x6f, 0x6e, 0x00, 0x00, 0x00, 0x00, 0x02, 0x00, 0x00, 0x00, 0x34, 0x00,
    0x00, 0x00, 0x04, 0x00, 0x00, 0x00, 0xdc, 0xff, 0xff, 0xff, 0x12, 0x00, 0x00,
    0x00, 0x04, 0x00, 0x00, 0x00, 0x13, 0x00, 0x00, 0x00, 0x43, 0x4f, 0x4e, 0x56,
    0x45, 0x52, 0x53, 0x49, 0x4f, 0x4e, 0x5f, 0x4d, 0x45, 0x54, 0x41, 0x44, 0x41,
    0x54, 0x41, 0x00, 0x08, 0x00, 0x0c, 0x00, 0x08, 0x00, 0x04, 0x00, 0x08, 0x00,
    0x00, 0x00, 0x11, 0x00, 0x00, 0x00, 0x04, 0x00, 0x00, 0x00, 0x13, 0x00, 0x00,
    0x00, 0x6d, 0x69, 0x6e, 0x5f, 0x72, 0x75, 0x6e, 0x74, 0x69, 0x6d, 0x65, 0x5f,
    0x76, 0x65, 0x72, 0x73, 0x69, 0x6f, 0x6e, 0x00, 0x13, 0x00, 0x00, 0x00, 0x2c,
    0x42, 0x00, 0x00, 0x24, 0x42, 0x00, 0x00, 0x0c, 0x42, 0x00, 0x00, 0xdc, 0x41,
    0x00, 0x00, 0x4c, 0x41, 0x00, 0x00, 0xfc, 0x40, 0x00, 0x00, 0x6c, 0x01, 0x00,
    0x00, 0x3c, 0x01, 0x00, 0x00, 0xcc, 0x00, 0x00, 0x00, 0xc4, 0x00, 0x00, 0x00,
    0xbc, 0x00, 0x00, 0x00, 0xb4, 0x00, 0x00, 0x00, 0xac, 0x00, 0x00, 0x00, 0xa4,
    0x00, 0x00, 0x00, 0x9c, 0x00, 0x00, 0x00, 0x94, 0x00, 0x00, 0x00, 0x8c, 0x00,
    0x00, 0x00, 0x6c, 0x00, 0x00, 0x00, 0x04, 0x00, 0x00, 0x00, 0x6e, 0xbd, 0xff,
    0xff, 0x04, 0x00, 0x00, 0x00, 0x58, 0x00, 0x00, 0x00, 0x0c, 0x00, 0x00, 0x00,
    0x08, 0x00, 0x0e, 0x00, 0x08, 0x00, 0x04, 0x00, 0x08, 0x00, 0x00, 0x00, 0x10,
    0x00, 0x00, 0x00, 0x28, 0x00, 0x00, 0x00, 0x00, 0x00, 0x06, 0x00, 0x08, 0x00,
    0x04, 0x00, 0x06, 0x00, 0x00, 0x00, 0x04, 0x00, 0x00, 0x00, 0x01, 0x00, 0x00,
    0x00, 0xeb, 0x03, 0x00, 0x00, 0x00, 0x00, 0x0a, 0x00, 0x10, 0x00, 0x0c, 0x00,
    0x08, 0x00, 0x04, 0x00, 0x0a, 0x00, 0x00, 0x00, 0x02, 0x00, 0x00, 0x00, 0x02,
    0x00, 0x00, 0x00, 0x04, 0x00, 0x00, 0x00, 0x06, 0x00, 0x00, 0x00, 0x32, 0x2e,
    0x31, 0x34, 0x2e, 0x30, 0x00, 0x00, 0xd2, 0xbd, 0xff, 0xff, 0x04, 0x00, 0x00,
    0x00, 0x10, 0x00, 0x00, 0x00, 0x31, 0x2e, 0x31, 0x34, 0x2e, 0x30, 0x00, 0x00,
    0x00, 0x00, 0x00, 0x00, 0x00, 0x00, 0x00, 0x00, 0x34, 0xb3, 0xff, 0xff, 0x38,
    0xb3, 0xff, 0xff, 0x3c, 0xb3, 0xff, 0xff, 0x40, 0xb3, 0xff, 0xff, 0x44, 0xb3,
    0xff, 0xff, 0x48, 0xb3, 0xff, 0xff, 0x4c, 0xb3, 0xff, 0xff, 0x50, 0xb3, 0xff,
    0xff, 0x0e, 0xbe, 0xff, 0xff, 0x04, 0x00, 0x00, 0x00, 0x60, 0x00, 0x00, 0x00,
    0x24, 0x6d, 0x09, 0xb5, 0x81, 0xf3, 0x25, 0x58, 0x00, 0x31, 0x74, 0x03, 0xe3,
    0x7e, 0x15, 0xf4, 0x26, 0xfe, 0x14, 0x81, 0xef, 0x0f, 0x9d, 0xee, 0xd9, 0xde,
    0x7d, 0x2d, 0x39, 0x8d, 0x2e, 0x46, 0x82, 0x36, 0x49, 0x81, 0x72, 0x43, 0x0a,
    0x7f, 0x44, 0x09, 0x95, 0xb1, 0xf0, 0xd9, 0xe1, 0xfb, 0x20, 0x03, 0x1b, 0x24,
    0x02, 0x19, 0x9c, 0x00, 0x94, 0x8d, 0x05, 0x81, 0x90, 0x81, 0x0e, 0x5a, 0x65,
    0xd6, 0xb2, 0xae, 0x18, 0xbb, 0xba, 0x16, 0xe0, 0xb9, 0x6e, 0x14, 0x18, 0xae,
    0x27, 0x30, 0xa7, 0xd6, 0xbd, 0x7f, 0x29, 0x0c, 0x48, 0x06, 0x07, 0x0a, 0x35,
    0x0a, 0x58, 0xb6, 0xf5, 0x81, 0x7a, 0xbe, 0xff, 0xff, 0x04, 0x00, 0x00, 0x00,
    0x20, 0x00, 0x00, 0x00, 0xff, 0xfe, 0xff, 0xff, 0x48, 0x0a, 0x00, 0x00, 0xb8,
    0xf2, 0xff, 0xff, 0xf9, 0x01, 0x00, 0x00, 0x2a, 0x07, 0x00, 0x00, 0x10, 0xf6,
    0xff, 0xff, 0x37, 0xf1, 0xff, 0xff, 0x5d, 0x04, 0x00, 0x00, 0xa6, 0xbe, 0xff,
    0xff, 0x04, 0x00, 0x00, 0x00, 0x80, 0x3f, 0x00, 0x00, 0x00, 0x00, 0x00, 0x00,
    0x00, 0x00, 0x00, 0x00, 0x00, 0x00, 0x00, 0x00, 0x00, 0x00, 0x00, 0x00, 0x00,
    0x00, 0x00, 0x00, 0x00, 0x00, 0x00, 0x00, 0x00, 0x00, 0x00, 0x00, 0x00, 0x00,
    0x00, 0x00, 0x00, 0x00, 0x00, 0x00, 0x00, 0x00, 0x00, 0x00, 0x00, 0x00, 0x00,
    0x00, 0x00, 0x00, 0x00, 0x00, 0x00, 0x00, 0x00, 0x00, 0x00, 0x00, 0x00, 0x00,
    0x00, 0x00, 0x00, 0x00, 0x00, 0x00, 0x00, 0x00, 0x00, 0x00, 0x00, 0x00, 0x00,
    0x00, 0x00, 0x00, 0x00, 0x00, 0x00, 0x00, 0x00, 0x00, 0x00, 0x00, 0x00, 0x00,
    0x00, 0x00, 0x00, 0x00, 0x00, 0x00, 0x00, 0x00, 0x00, 0x00, 0x00, 0x00, 0x00,
    0x00, 0x00, 0x00, 0x00, 0x00, 0x00, 0x00, 0x00, 0x00, 0x00, 0x00, 0x00, 0x00,
    0x00, 0x00, 0x00, 0x00, 0x00, 0x00, 0x00, 0x00, 0x00, 0x00, 0x00, 0x00, 0x00,
    0x00, 0x00, 0x00, 0x00, 0x00, 0x00, 0x00, 0x00, 0x00, 0x00, 0x00, 0x00, 0x00,
    0x00, 0x00, 0x00, 0x00, 0x00, 0x00, 0x00, 0x00, 0x00, 0x00, 0x00, 0x00, 0x00,
    0x00, 0x00, 0x00, 0x00, 0x00, 0x00, 0x00, 0x00, 0x00, 0x00, 0x00, 0x00, 0x00,
    0x00, 0x00, 0x00, 0x00, 0x00, 0x00, 0x00, 0x00, 0x00, 0x00, 0x00, 0x00, 0x00,
    0x00, 0x00, 0x00, 0x00, 0x00, 0x00, 0x00, 0x00, 0x00, 0x00, 0x00, 0x00, 0x00,
    0x00, 0x00, 0x00, 0x00, 0x00, 0x00, 0x00, 0x00, 0x00, 0x00, 0x00, 0x00, 0x00,
    0x00, 0x00, 0x00, 0x00, 0x00, 0x00, 0x00, 0x00, 0x00, 0x00, 0x00, 0x00, 0x00,
    0x00, 0x00, 0x00, 0x00, 0x00, 0x00, 0x00, 0x00, 0x00, 0x00, 0x00, 0x00, 0x00,
    0x00, 0x00, 0x00, 0x00, 0x00, 0x00, 0x00, 0x00, 0x00, 0x00, 0x00, 0x00, 0x00,
    0x00, 0x00, 0x00, 0x00, 0x00, 0x00, 0x00, 0x00, 0x00, 0x00, 0x00, 0x00, 0x00,
    0x00, 0x00, 0x00, 0x00, 0x00, 0x00, 0x00, 0x00, 0x00, 0x00, 0x00, 0x00, 0x00,
    0x00, 0x00, 0x00, 0x00, 0x00, 0x00, 0x00, 0x00, 0x00, 0x00, 0x00, 0x00, 0x00,
    0x00, 0x00, 0x00, 0x00, 0x00, 0x00, 0x00, 0x00, 0x00, 0x00, 0x00, 0x00, 0x00,
    0x00, 0x00, 0x00, 0x00, 0x00, 0x00, 0x00, 0x00, 0x00, 0x00, 0x00, 0x00, 0x00,
    0x00, 0x00, 0x00, 0x00, 0x00, 0x00, 0x00, 0x00, 0x00, 0x00, 0x00, 0x00, 0x00,
    0x00, 0x00, 0x00, 0x00, 0x00, 0x00, 0x00, 0x00, 0x00, 0x00, 0x00, 0x00, 0x00,
    0x00, 0x00, 0x00, 0x00, 0x00, 0x00, 0x00, 0x00, 0x00, 0x00, 0x00, 0x00, 0x00,
    0x00, 0x00, 0x00, 0x00, 0x00, 0x00, 0x00, 0x00, 0x00, 0x00, 0x00, 0x00, 0x00,
    0x00, 0x00, 0x00, 0x00, 0x00, 0x00, 0x00, 0x00, 0x00, 0x00, 0x00, 0x00, 0x00,
    0x00, 0x00, 0x00, 0x00, 0x00, 0x00, 0x00, 0x00, 0x00, 0x00, 0x00, 0x00, 0x00,
    0x00, 0x00, 0x00, 0x00, 0x00, 0x00, 0x00, 0x00, 0x00, 0x00, 0x00, 0x00, 0x00,
    0x00, 0x00, 0x00, 0x00, 0x00, 0x00, 0x00, 0x00, 0x00, 0x00, 0x00, 0x00, 0x00,
    0x00, 0x00, 0x00, 0x00, 0x00, 0x00, 0x00, 0x00, 0x00, 0x00, 0x00, 0x00, 0x00,
    0x00, 0x00, 0x00, 0x00, 0x00, 0x00, 0x00, 0x00, 0x00, 0x00, 0x00, 0x00, 0x00,
    0x00, 0x00, 0x00, 0x00, 0x00, 0x00, 0x00, 0x00, 0x00, 0x00, 0x00, 0x00, 0x00,
    0x00, 0x00, 0x00, 0x00, 0x00, 0x00, 0x00, 0x00, 0x00, 0x00, 0x00, 0x00, 0x00,
    0x00, 0x00, 0x00, 0x00, 0x00, 0x00, 0x00, 0x00, 0x00, 0x00, 0x00, 0x00, 0x00,
    0x00, 0x00, 0x00, 0x00, 0x00, 0x00, 0x00, 0x00, 0x00, 0x00, 0x00, 0x00, 0x00,
    0x00, 0x00, 0x00, 0x00, 0x00, 0x00, 0x00, 0x00, 0x00, 0x00, 0x00, 0x00, 0x00,
    0x00, 0x00, 0x00, 0x00, 0x00, 0x00, 0x00, 0x00, 0x00, 0x00, 0x00, 0x00, 0x00,
    0x00, 0x00, 0x00, 0x00, 0x00, 0x00, 0x00, 0x00, 0x00, 0x00, 0x00, 0x00, 0x00,
    0x00, 0x00, 0x00, 0x00, 0x00, 0x00, 0x00, 0x00, 0x00, 0x00, 0x00, 0x00, 0x00,
    0x00, 0x00, 0x00, 0x00, 0x00, 0x00, 0x00, 0x00, 0x00, 0x00, 0x00, 0x00, 0x00,
    0x00, 0x00, 0x00, 0x00, 0x00, 0x00, 0x00, 0x00, 0x00, 0x00, 0x00, 0x00, 0x00,
    0x00, 0x00, 0x00, 0x00, 0x00, 0x00, 0x00, 0x00, 0x00, 0x00, 0x00, 0x00, 0x00,
    0x00, 0x00, 0x00, 0x00, 0x00, 0x00, 0x00, 0x00, 0x00, 0x00, 0x00, 0x00, 0x00,
    0x00, 0x00, 0x00, 0x00, 0x00, 0x00, 0x00, 0x00, 0x00, 0x00, 0x00, 0x00, 0x00,
    0x00, 0x00, 0x00, 0x00, 0x00, 0x00, 0x00, 0x00, 0x00, 0x00, 0x00, 0x00, 0x00,
    0x00, 0x00, 0x00, 0x00, 0x00, 0x00, 0x00, 0x00, 0x00, 0x00, 0x00, 0x00, 0x00,
    0x00, 0x00, 0x00, 0x00, 0x00, 0x00, 0x00, 0x00, 0x00, 0x00, 0x00, 0x00, 0x00,
    0x00, 0x00, 0x00, 0x00, 0x00, 0x00, 0x00, 0x00, 0x00, 0x00, 0x00, 0x00, 0x00,
    0x00, 0x00, 0x00, 0x00, 0x00, 0x00, 0x00, 0x00, 0x00, 0x00, 0x00, 0x00, 0x00,
    0x00, 0x00, 0x00, 0x00, 0x00, 0x00, 0x00, 0x00, 0x00, 0x00, 0x00, 0x00, 0x00,
    0x00, 0x00, 0x00, 0x00, 0x00, 0x00, 0x00, 0x00, 0x00, 0x00, 0x00, 0x00, 0x00,
    0x00, 0x00, 0x00, 0x00, 0x00, 0x00, 0x00, 0x00, 0x00, 0x00, 0x00, 0x00, 0x00,
    0x00, 0x00, 0x00, 0x00, 0x00, 0x00, 0x00, 0x00, 0x00, 0x00, 0x00, 0x00, 0x00,
    0x00, 0x00, 0x00, 0x00, 0x00, 0x00, 0x00, 0x00, 0x00, 0x00, 0x00, 0x00, 0x00,
    0x00, 0x00, 0x00, 0x00, 0x00, 0x00, 0x00, 0x00, 0x00, 0x00, 0x00, 0x00, 0x00,
    0x00, 0x00, 0x00, 0x00, 0x00, 0x00, 0x00, 0x00, 0x00, 0x00, 0x00, 0x00, 0x00,
    0x00, 0x00, 0x00, 0x00, 0x00, 0x00, 0x00, 0x00, 0x00, 0x00, 0x00, 0x00, 0x00,
    0x00, 0x00, 0x00, 0x00, 0x00, 0x00, 0x00, 0x00, 0x00, 0x00, 0x00, 0x00, 0x00,
    0x00, 0x00, 0x00, 0x00, 0x00, 0x00, 0x00, 0x00, 0x00, 0x00, 0x00, 0x00, 0x00,
    0x00, 0x00, 0x00, 0x00, 0x00, 0x00, 0x00, 0x00, 0x00, 0x00, 0x00, 0x00, 0x00,
    0x00, 0x00, 0x00, 0x00, 0x00, 0x00, 0x00, 0x00, 0x00, 0x00, 0x00, 0x00, 0x00,
    0x00, 0x00, 0x00, 0x00, 0x00, 0x00, 0x00, 0x00, 0x00, 0x00, 0x00, 0x00, 0x00,
    0x00, 0x00, 0x00, 0x00, 0x00, 0x00, 0x00, 0x00, 0x00, 0x00, 0x00, 0x00, 0x00,
    0x00, 0x00, 0x00, 0x00, 0x00, 0x00, 0x00, 0x00, 0x00, 0x00, 0x00, 0x00, 0x00,
    0x00, 0x00, 0x00, 0x00, 0x00, 0x00, 0x00, 0x00, 0x00, 0x00, 0x00, 0x00, 0x00,
    0x00, 0x00, 0x00, 0x00, 0x00, 0x00, 0x00, 0x00, 0x00, 0x00, 0x00, 0x00, 0x00,
    0x00, 0x00, 0x00, 0x00, 0x00, 0x00, 0x00, 0x00, 0x00, 0x00, 0x00, 0x00, 0x00,
    0x00, 0x00, 0x00, 0x00, 0x00, 0x00, 0x00, 0x00, 0x00, 0x00, 0x00, 0x00, 0x00,
    0x00, 0x00, 0x00, 0x00, 0x00, 0x00, 0x00, 0x00, 0x00, 0x00, 0x00, 0x00, 0x00,
    0x00, 0x00, 0x00, 0x00, 0x00, 0x00, 0x00, 0x00, 0x00, 0x00, 0x00, 0x00, 0x00,
    0x00, 0x00, 0x00, 0x00, 0x00, 0x00, 0x00, 0x00, 0x00, 0x00, 0x00, 0x00, 0x00,
    0x00, 0x00, 0x00, 0x00, 0x00, 0x00, 0x00, 0x00, 0x00, 0x00, 0x00, 0x00, 0x00,
    0x00, 0x00, 0x00, 0x00, 0x00, 0x00, 0x00, 0x00, 0x00, 0x00, 0x00, 0x00, 0x00,
    0x00, 0x00, 0x00, 0x00, 0x00, 0x00, 0x00, 0x00, 0x00, 0x00, 0x00, 0x00, 0x00,
    0x00, 0x00, 0x00, 0x00, 0x00, 0x00, 0x00, 0x00, 0x00, 0x00, 0x00, 0x00, 0x00,
    0x00, 0x00, 0x00, 0x00, 0x00, 0x00, 0x00, 0x00, 0x00, 0x00, 0x00, 0xd8, 0xaf,
    0x45, 0xf1, 0x16, 0x2e, 0x34, 0x19, 0xcf, 0xb1, 0x48, 0x16, 0x2b, 0x24, 0x44,
    0x26, 0xc9, 0xa0, 0x41, 0xef, 0x44, 0x22, 0x52, 0x29, 0xe0, 0x93, 0x3a, 0xf9,
    0x1b, 0x26, 0x54, 0x43, 0xca, 0xc0, 0x5a, 0x10, 0x27, 0x21, 0x2d, 0x19, 0xd6,
    0xa2, 0x51, 0x0b, 0x23, 0x09, 0x4b, 0x1c, 0xd6, 0x90, 0x5e, 0xfd, 0x11, 0x13,
    0x50, 0x40, 0xcc, 0xad, 0x39, 0x03, 0x18, 0x1a, 0x3d, 0x1c, 0xdb, 0xbf, 0x2f,
    0x11, 0x29, 0xfd, 0x46, 0x33, 0xc6, 0x81, 0x3d, 0x00, 0x28, 0x11, 0x5a, 0x22,
    0xce, 0x9f, 0x51, 0x0e, 0x2a, 0x29, 0x4e, 0x27, 0xe2, 0xbc, 0x4e, 0x0b, 0x2d,
    0x14, 0x38, 0x2e, 0xc7, 0xb1, 0x41, 0x12, 0x1e, 0x1c, 0x44, 0x12, 0xbc, 0x90,
    0x42, 0x19, 0x18, 0x2b, 0x5b, 0x39, 0xcc, 0xa9, 0x57, 0x13, 0x19, 0x2a, 0x42,
    0x37, 0xd6, 0x9e, 0x28, 0xf6, 0x2f, 0x10, 0x2d, 0x3d, 0xe6, 0x8e, 0x4e, 0xfb,
    0x16, 0x00, 0x49, 0x3a, 0xd5, 0x9e, 0x48, 0x1d, 0x3b, 0x25, 0x3d, 0x07, 0xbe,
    0xba, 0x38, 0x12, 0x20, 0x14, 0x70, 0x21, 0xbc, 0xb8, 0x3d, 0x0d, 0x0e, 0x3a,
    0x30, 0x2e, 0xc2, 0xab, 0x41, 0x07, 0x37, 0x2f, 0x3e, 0x39, 0xd1, 0xbf, 0x55,
    0x2c, 0x2d, 0x0f, 0x5a, 0x17, 0xd0, 0xa5, 0x2f, 0x0e, 0x16, 0x20, 0x50, 0x15,
    0xe7, 0xb5, 0x52, 0x10, 0x32, 0x14, 0x58, 0x25, 0xd0, 0xad, 0x62, 0x1a, 0x1c,
    0x08, 0x3f, 0x13, 0xce, 0x9f, 0x4f, 0x27, 0x21, 0x28, 0x40, 0x32, 0xcb, 0xaf,
    0x4f, 0x15, 0x17, 0x12, 0x4e, 0x37, 0xc5, 0x9f, 0x47, 0x11, 0x35, 0x1a, 0x3e,
    0x1f, 0xdd, 0x98, 0x47, 0x17, 0x12, 0x1d, 0x59, 0x23, 0xdd, 0xb1, 0x51, 0x0c,
    0x1b, 0xf8, 0x5f, 0x17, 0xcb, 0xb9, 0x52, 0xf0, 0x0e, 0x25, 0x4d, 0x28, 0xac,
    0x9f, 0x56, 0x15, 0x44, 0x1c, 0x34, 0x35, 0xdb, 0xa9, 0x47, 0xfd, 0x0e, 0x18,
    0x55, 0x33, 0xdf, 0xad, 0x4a, 0x0d, 0x31, 0x16, 0x45, 0x2e, 0xb9, 0xac, 0x4f,
    0x2f, 0x24, 0x0a, 0x56, 0x42, 0xca, 0x96, 0x3d, 0x19, 0x1b, 0x08, 0x46, 0x2a,
    0xb7, 0xb8, 0x40, 0x19, 0x25, 0x1f, 0x5d, 0x27, 0xc2, 0xaa, 0x50, 0x14, 0x24,
    0x0e, 0x49, 0x38, 0xc8, 0x9e, 0x5d, 0x07, 0x26, 0x1d, 0x52, 0x2d, 0xce, 0x99,
    0x43, 0x14, 0x14, 0x1f, 0x3e, 0x22, 0xc4, 0xb3, 0x68, 0x16, 0x24, 0x1c, 0x49,
    0x3c, 0xc8, 0x8b, 0x66, 0x0d, 0x28, 0x12, 0x4b, 0x40, 0xd6, 0xac, 0x47, 0x13,
    0x24, 0x1d, 0x45, 0x2d, 0xd3, 0x99, 0x45, 0x02, 0x1e, 0x21, 0x4d, 0x25, 0xc7,
    0xb1, 0x3c, 0x0f, 0x30, 0x1f, 0x5b, 0x1b, 0xd9, 0xb1, 0x4b, 0x00, 0x16, 0x1e,
    0x44, 0x38, 0xd9, 0xc8, 0x4d, 0x0e, 0x38, 0x17, 0x49, 0x2d, 0xc0, 0xa1, 0x4b,
    0x22, 0x0d, 0x39, 0x4f, 0x2d, 0xc8, 0xa2, 0x33, 0x02, 0x35, 0x15, 0x67, 0x3b,
    0xe4, 0xa1, 0x46, 0x16, 0x15, 0x0c, 0x4e, 0x21, 0xc5, 0xa6, 0x45, 0x05, 0x22,
    0x12, 0x41, 0x2d, 0xcc, 0xa5, 0x53, 0xf5, 0x3e, 0x14, 0x55, 0x2a, 0xd6, 0xa4,
    0x31, 0x08, 0x29, 0x22, 0x36, 0x2e, 0xc7, 0xa8, 0x48, 0xf6, 0x10, 0x01, 0x54,
    0x2a, 0xdc, 0xa9, 0x53, 0x2b, 0x1d, 0x27, 0x48, 0x3d, 0xe1, 0xbb, 0x52, 0x20,
    0x1c, 0x28, 0x53, 0x1e, 0xce, 0xb2, 0x5d, 0x1d, 0x10, 0x01, 0x55, 0x39, 0xbe,
    0xba, 0x6f, 0x12, 0x3d, 0x36, 0x40, 0x3f, 0xd7, 0xaa, 0x3f, 0xfe, 0x36, 0x2b,
    0x56, 0x2b, 0xd9, 0x99, 0x54, 0x0f, 0x2c, 0xfa, 0x55, 0x3b, 0xcb, 0xb7, 0x57,
    0x1e, 0x19, 0x18, 0x41, 0x32, 0xcf, 0xa0, 0x53, 0x0a, 0x1c, 0x07, 0x56, 0x21,
    0xd0, 0xa4, 0x4a, 0x18, 0x21, 0x0b, 0x5f, 0x18, 0xdb, 0xac, 0x37, 0x1a, 0x2c,
    0x0d, 0x4e, 0x2c, 0xd0, 0xb6, 0x47, 0xfe, 0x27, 0x20, 0x4d, 0x44, 0xe2, 0xa8,
    0x5d, 0x22, 0x15, 0x10, 0x3f, 0x30, 0xbe, 0xa2, 0x4c, 0x0e, 0x1e, 0x06, 0x51,
    0x1f, 0xdf, 0xa8, 0x45, 0xfd, 0x35, 0x0a, 0x72, 0x2b, 0xe1, 0x9e, 0x48, 0x20,
    0x21, 0x0b, 0x2f, 0x1e, 0xd0, 0xb9, 0x5d, 0x15, 0x0f, 0x04, 0x38, 0x1f, 0xbe,
    0xb7, 0x5c, 0x00, 0x2a, 0x27, 0x3a, 0x24, 0xbb, 0xc8, 0x48, 0x05, 0x1e, 0x13,
    0x28, 0x1d, 0xd0, 0xab, 0x3d, 0x1c, 0x42, 0x20, 0x3f, 0x13, 0xc2, 0x95, 0x53,
    0x11, 0x28, 0x0e, 0x52, 0x24, 0xcc, 0x99, 0x44, 0xed, 0x15, 0x34, 0x45, 0x3a,
    0xd5, 0xaa, 0x3e, 0x04, 0x29, 0x14, 0x3c, 0x1b, 0xe5, 0xc6, 0x58, 0xf2, 0x2b,
    0x1f, 0x34, 0x14, 0xbd, 0x91, 0x47, 0x16, 0x26, 0x23, 0x2e, 0x20, 0xcd, 0x9d,
    0x4f, 0x0f, 0x25, 0x2e, 0x30, 0x26, 0xdf, 0xab, 0x4a, 0xfa, 0x13, 0x0b, 0x51,
    0x25, 0xc8, 0xbf, 0x52, 0xec, 0x33, 0x11, 0x5c, 0x12, 0xd4, 0xb5, 0x44, 0xf9,
    0x2b, 0x06, 0x6d, 0x2e, 0xc3, 0xb9, 0x50, 0x27, 0x26, 0x2b, 0x4a, 0x29, 0xd7,
    0xb1, 0x43, 0x0b, 0x10, 0x24, 0x38, 0x16, 0xe2, 0x8c, 0x58, 0x19, 0x0d, 0x1d,
    0x4c, 0x33, 0xe8, 0x96, 0x61, 0x16, 0x39, 0x30, 0x4e, 0x1f, 0xb8, 0xaf, 0x4d,
    0xfc, 0x2f, 0x0e, 0x3f, 0x21, 0xe1, 0xa4, 0x56, 0x01, 0x20, 0x0c, 0x66, 0x34,
    0xcf, 0xa2, 0x45, 0x18, 0x22, 0x00, 0x4e, 0x13, 0xca, 0x96, 0x44, 0x24, 0x09,
    0x1a, 0x5a, 0x2a, 0xe3, 0xaf, 0x48, 0x06, 0x18, 0x12, 0x4d, 0x38, 0xc7, 0xb3,
    0x58, 0x0a, 0x3e, 0x25, 0x2b, 0x28, 0xda, 0xa0, 0x4a, 0x12, 0x1f, 0x2a, 0x67,
    0x25, 0xc3, 0xb6, 0x40, 0x23, 0x18, 0x08, 0x46, 0x3f, 0xe0, 0xb2, 0x43, 0x01,
    0x2c, 0x0e, 0x60, 0x1e, 0xdd, 0xb6, 0x45, 0x28, 0x20, 0x0c, 0x46, 0x3f, 0xe1,
    0xb8, 0x4f, 0xfc, 0x29, 0x1c, 0x53, 0x44, 0xec, 0xa3, 0x5e, 0xed, 0x33, 0x2e,
    0x39, 0x2b, 0xcf, 0x91, 0x42, 0x0c, 0x26, 0x12, 0x3b, 0x1a, 0xcc, 0xac, 0x41,
    0x05, 0x41, 0x2a, 0x5d, 0x36, 0xc2, 0xc7, 0x48, 0x1f, 0x0f, 0x1e, 0x46, 0x34,
    0xbf, 0xae, 0x3d, 0x12, 0x26, 0x00, 0x42, 0x0c, 0xcb, 0xb5, 0x4e, 0xf7, 0x1f,
    0x13, 0x34, 0x23, 0xd0, 0xa6, 0x4b, 0x14, 0x3b, 0x0e, 0x3c, 0x2a, 0xdb, 0xc4,
    0x5b, 0xec, 0x38, 0x10, 0x3a, 0x29, 0xd8, 0xa9, 0x56, 0xea, 0x2c, 0x26, 0x4e,
    0x2b, 0xb8, 0xbe, 0x46, 0x1b, 0x2b, 0x0a, 0x4b, 0x1a, 0xce, 0xc6, 0x59, 0x05,
    0x1f, 0x0e, 0x42, 0x18, 0xe0, 0x9e, 0x51, 0xf5, 0x2b, 0x2a, 0x51, 0x2c, 0xd0,
    0xa5, 0x4b, 0x21, 0x2c, 0x14, 0x47, 0x3c, 0xcb, 0xb8, 0x3e, 0x10, 0x20, 0x33,
    0x5c, 0x1b, 0xcb, 0xb7, 0x3e, 0x0c, 0x2b, 0x0b, 0x40, 0x24, 0xc2, 0xa0, 0x3f,
    0x01, 0x2a, 0x1c, 0x4a, 0x20, 0xcc, 0xb0, 0x62, 0x18, 0x1a, 0x19, 0x3e, 0x37,
    0xc2, 0x9d, 0x49, 0x0e, 0x3b, 0x23, 0x4a, 0x24, 0xdc, 0xa9, 0x4e, 0x0a, 0x2c,
    0x20, 0x47, 0x15, 0xc4, 0xa9, 0x3c, 0x07, 0x41, 0x19, 0x46, 0x08, 0xd5, 0x9d,
    0x33, 0x1e, 0x25, 0x16, 0x4c, 0x31, 0xcb, 0xa4, 0x45, 0x1d, 0x20, 0x20, 0x59,
    0x24, 0xbb, 0xac, 0x48, 0x15, 0x2e, 0x30, 0x4c, 0x38, 0xd8, 0xa0, 0x4e, 0x0d,
    0x20, 0x03, 0x51, 0x31, 0xc9, 0xb3, 0x57, 0x1d, 0x27, 0x1e, 0x39, 0x32, 0xc7,
    0xa5, 0x5b, 0xef, 0x21, 0x13, 0x46, 0x40, 0xd7, 0xae, 0x57, 0x2c, 0x3b, 0x06,
    0x52, 0x26, 0xe1, 0xca, 0x38, 0x0b, 0x35, 0x25, 0x60, 0x22, 0xc6, 0x9c, 0x50,
    0x03, 0x2d, 0x30, 0x33, 0x22, 0xc6, 0xae, 0x48, 0x17, 0x23, 0x28, 0x5d, 0x32,
    0x07, 0x23, 0x00, 0x9d, 0x32, 0xcb, 0xfe, 0x58, 0x05, 0x33, 0xd0, 0xb1, 0x42,
    0xb0, 0x0e, 0x55, 0x1a, 0x24, 0xeb, 0xc6, 0x24, 0xd1, 0xe0, 0x60, 0xe4, 0x14,
    0xd3, 0xd9, 0x37, 0xdf, 0x0c, 0x65, 0xfa, 0x2c, 0x20, 0xac, 0x49, 0xb6, 0x0b,
    0x2c, 0xf1, 0x1d, 0xf9, 0xdc, 0x39, 0xc0, 0xfe, 0x57, 0x15, 0x0a, 0x03, 0xc0,
    0x28, 0xbc, 0x0a, 0x50, 0x13, 0x39, 0xeb, 0xb2, 0x3f, 0xca, 0x0c, 0x48, 0x25,
    0x43, 0xfa, 0xb8, 0x21, 0xba, 0x01, 0x35, 0xf3, 0x0f, 0x0a, 0xc6, 0x34, 0xd9,
    0xfb, 0x30, 0x11, 0x1b, 0xe0, 0xc3, 0x0f, 0xca, 0x2d, 0x44, 0x0e, 0x41, 0xf1,
    0xb4, 0x3c, 0xd7, 0xe6, 0x37, 0xf7, 0x18, 0xe6, 0xa1, 0x15, 0xfe, 0xd8, 0x3d,
    0x12, 0x23, 0xd7, 0x9c, 0x42, 0xdd, 0x1d, 0x36, 0x08, 0x02, 0xd7, 0xcd, 0x1a,
    0xd7, 0x05, 0x42, 0xec, 0x29, 0xdf, 0xcc, 0x24, 0xc6, 0xf2, 0x36, 0xfb, 0x0d,
    0xdd, 0xd4, 0x21, 0xe4, 0xf3, 0x4e, 0xfe, 0x1a, 0x00, 0xce, 0x4b, 0xc6, 0xf7,
    0x23, 0xec, 0x15, 0xdb, 0xbd, 0x21, 0xd9, 0x10, 0x55, 0x10, 0x1e, 0xf1, 0xb7,
    0x15, 0xf4, 0x01, 0x4f, 0x0a, 0x29, 0x01, 0xa2, 0x3e, 0xd7, 0xe2, 0x28, 0xeb,
    0x3f, 0xe6, 0xbf, 0x1f, 0xe5, 0xf1, 0x4b, 0x1f, 0x23, 0xeb, 0xaf, 0x3e, 0xd4,
    0x0e, 0x2d, 0x02, 0x29, 0x0c, 0xc0, 0x3d, 0xf2, 0xfc, 0x59, 0x18, 0x1e, 0xf9,
    0x9b, 0x4b, 0xc3, 0xf3, 0x5e, 0xf0, 0x05, 0xfa, 0xb8, 0x35, 0xcf, 0xfc, 0x52,
    0xf5, 0x23, 0x00, 0xaa, 0x36, 0xcd, 0x02, 0x45, 0xe0, 0x15, 0xd3, 0xd7, 0x22,
    0xd5, 0xf1, 0x43, 0x1e, 0x21, 0xeb, 0xcb, 0x24, 0xe1, 0xfd, 0x3f, 0x07, 0x40,
    0xfa, 0xb9, 0x3f, 0xb9, 0xee, 0x26, 0x03, 0x33, 0xea, 0xb9, 0x1b, 0xdb, 0xe4,
    0x52, 0xed, 0x40, 0xe0, 0xd2, 0x52, 0xc1, 0xf8, 0x60, 0xe5, 0x28, 0xe9, 0xc1,
    0x46, 0xe3, 0xf0, 0x3a, 0xff, 0x34, 0xff, 0xe6, 0x26, 0xd2, 0x23, 0x3f, 0xd9,
    0x0c, 0xf8, 0xcc, 0x33, 0xc4, 0x10, 0x62, 0x0a, 0x1f, 0xe8, 0xd3, 0x1f, 0xe2,
    0xf1, 0x5e, 0xea, 0x1b, 0xec, 0xc9, 0x4f, 0xca, 0x23, 0x36, 0x07, 0x3b, 0xfb,
    0xbe, 0x58, 0xd2, 0x0a, 0x74, 0x01, 0x27, 0x0b, 0xe1, 0x22, 0xde, 0xe3, 0x4b,
    0xff, 0x21, 0xda, 0xbd, 0x28, 0xdf, 0x00, 0x5f, 0x0f, 0x2a, 0xef, 0xad, 0x16,
    0xcf, 0xff, 0x66, 0xf7, 0x39, 0x17, 0xb4, 0x3e, 0xe5, 0xe6, 0x3f, 0x1e, 0x26,
    0xdd, 0xbc, 0x41, 0xdf, 0x17, 0x37, 0xfd, 0x14, 0xf2, 0xbc, 0x3f, 0xd4, 0x0a,
    0x56, 0xe3, 0x44, 0xe9, 0xc2, 0x1f, 0xc5, 0xf6, 0x2f, 0x1e, 0x18, 0x0a, 0xd8,
    0x31, 0xf0, 0xda, 0x44, 0xe1, 0x3a, 0xf9, 0xb6, 0x2a, 0xc6, 0x0c, 0x4d, 0xfa,
    0x34, 0xe1, 0xbf, 0x2c, 0xcf, 0x0c, 0x49, 0x03, 0x37, 0xdf, 0xc6, 0x29, 0xce,
    0x00, 0x65, 0xfc, 0x34, 0xe3, 0xae, 0x3d, 0xb8, 0x0e, 0x36, 0xea, 0x2d, 0xd5,
    0xcb, 0x23, 0xc4, 0xee, 0x60, 0xf5, 0x41, 0xfd, 0xcf, 0x44, 0xd4, 0xed, 0x5a,
    0x07, 0x10, 0x06, 0xc2, 0x2e, 0xcc, 0xfb, 0x2f, 0xee, 0x36, 0x06, 0xbe, 0x15,
    0xb5, 0xff, 0x5f, 0x08, 0x25, 0x07, 0xdd, 0x30, 0xc2, 0x08, 0x3f, 0x05, 0x31,
    0xe2, 0xbc, 0x3b, 0xff, 0xf5, 0x4e, 0xf9, 0x39, 0x01, 0xc2, 0x18, 0xe4, 0x18,
    0x5a, 0x05, 0x48, 0xcb, 0xbf, 0x3b, 0xd8, 0xee, 0x4a, 0xf5, 0x35, 0xe7, 0xdf,
    0x2a, 0xd8, 0xf9, 0x4d, 0xf8, 0x08, 0xf5, 0xa3, 0x23, 0xb7, 0xe9, 0x69, 0xf5,
    0x28, 0x03, 0xc1, 0x22, 0xe2, 0x02, 0x39, 0x0e, 0x36, 0xf1, 0xaf, 0x26, 0xbc,
    0xc6, 0x34, 0x05, 0x0e, 0xfd, 0xbf, 0x22, 0xe5, 0xe0, 0x33, 0xf0, 0x30, 0xf4,
    0xe1, 0x33, 0xe9, 0xe8, 0x5c, 0x12, 0x3c, 0xf1, 0xdf, 0x43, 0xd6, 0xe5, 0x63,
    0xe7, 0x2a, 0xf9, 0xd0, 0x3a, 0xcb, 0xd0, 0x45, 0x02, 0x31, 0xf3, 0xc9, 0x2f,
    0xb6, 0x06, 0x1b, 0xf1, 0x0d, 0xde, 0xb7, 0x4c, 0xbd, 0xf5, 0x32, 0x20, 0x13,
    0xde, 0xd7, 0x36, 0xe5, 0xfb, 0x4a, 0xfb, 0x3d, 0xe0, 0xcf, 0x2e, 0xd0, 0xeb,
    0x67, 0x16, 0x3b, 0x00, 0xc4, 0x2e, 0xee, 0xe7, 0x32, 0xd8, 0x50, 0xee, 0xb5,
    0x1f, 0xc3, 0xdc, 0x3b, 0x1a, 0x38, 0xf1, 0xb2, 0x26, 0xdf, 0xed, 0x4a, 0xee,
    0x09, 0xdf, 0xb8, 0x21, 0xc4, 0x0f, 0x52, 0x12, 0x40, 0xef, 0xa6, 0x0f, 0xe4,
    0xf6, 0x5e, 0x00, 0x28, 0xf8, 0xac, 0x34, 0xdf, 0xf7, 0x49, 0x1e, 0x10, 0xff,
    0xbe, 0x22, 0xc3, 0x0c, 0x45, 0xfb, 0x06, 0xf6, 0xcc, 0x15, 0xc9, 0x06, 0x36,
    0xf3, 0x2b, 0xe4, 0x9b, 0x2b, 0xcb, 0x03, 0x50, 0x04, 0x3b, 0xdf, 0xc1, 0x28,
    0xbf, 0x19, 0x22, 0x03, 0x26, 0xdf, 0x9f, 0x1c, 0xc0, 0x11, 0x40, 0x0c, 0x36,
    0xdf, 0xbd, 0x43, 0xe4, 0xf6, 0x4a, 0xfd, 0x1d, 0xde, 0xce, 0x14, 0xb5, 0x16,
    0x3d, 0x0a, 0x32, 0xeb, 0xa2, 0x29, 0xec, 0xe7, 0x3b, 0x0b, 0x00, 0xd4, 0xb2,
    0x17, 0xce, 0xfc, 0x55, 0x05, 0x22, 0x07, 0xa7, 0x40, 0xd5, 0xf8, 0x3e, 0xf1,
    0x24, 0x0b, 0xc8, 0x2c, 0xd7, 0xff, 0x3e, 0x16, 0x2c, 0xdc, 0xbc, 0x28, 0xeb,
    0x12, 0x5b, 0x1b, 0x1d, 0xfc, 0xbe, 0x22, 0xbe, 0xe7, 0x3b, 0x0f, 0x18, 0xf1,
    0xcb, 0x26, 0xef, 0x0a, 0x2a, 0x02, 0x17, 0xdd, 0xb6, 0x1e, 0xbc, 0xf5, 0x43,
    0xe4, 0x30, 0xf7, 0xdf, 0x3d, 0xef, 0xea, 0x3d, 0x02, 0x56, 0xff, 0xc0, 0x2a,
    0xd7, 0xe4, 0x31, 0x09, 0x1f, 0x01, 0xba, 0x2f, 0xd5, 0x04, 0x57, 0x07, 0x11,
    0xf9, 0xb7, 0x37, 0xcf, 0x12, 0x30, 0x15, 0x31, 0xd8, 0xb1, 0x39, 0xcb, 0x2a,
    0x44, 0xf8, 0x35, 0x02, 0xc7, 0x4b, 0xc6, 0xf4, 0x44, 0x13, 0x10, 0xed, 0xaf,
    0x32, 0xe2, 0x20, 0x33, 0x03, 0x08, 0xf3, 0xb5, 0x42, 0xcd, 0xf6, 0x43, 0xeb,
    0x35, 0x07, 0xcd, 0x26, 0xe8, 0x01, 0x41, 0xf0, 0x31, 0xfd, 0xc9, 0x46, 0xfc,
    0x0a, 0x5f, 0x04, 0x3a, 0xe9, 0xc3, 0x43, 0xa7, 0x00, 0x2c, 0xed, 0x3d, 0x12,
    0xcd, 0x13, 0xbc, 0xf8, 0x64, 0x04, 0x22, 0xf0, 0xb4, 0x45, 0xcc, 0x0e, 0x59,
    0x06, 0x41, 0xe4, 0xa8, 0x46, 0xe4, 0xef, 0x49, 0x0b, 0x25, 0x00, 0xa6, 0x49,
    0xdd, 0xfb, 0x54, 0x07, 0x48, 0xfb, 0xd9, 0x35, 0xb2, 0x07, 0x57, 0xea, 0x46,
    0xe6, 0xb4, 0x3b, 0xe7, 0xef, 0x43, 0xee, 0x0a, 0xdb, 0xc6, 0x2f, 0xdf, 0xed,
    0x58, 0xf8, 0x26, 0xeb, 0xce, 0x3a, 0xd6, 0xf2, 0x44, 0xd9, 0x42, 0x05, 0xd1,
    0x16, 0xbe, 0xf6, 0x56, 0x09, 0x29, 0x03, 0xbc, 0x17, 0xb9, 0xe5, 0x38, 0xe0,
    0x34, 0xe8, 0xce, 0x1e, 0xc8, 0xe8, 0x4a, 0xf3, 0x20, 0x16, 0xbe, 0x07, 0xc0,
    0xfc, 0x60, 0xf7, 0x27, 0x04, 0xc0, 0x48, 0xca, 0xe4, 0x5f, 0x17, 0x3a, 0xe8,
    0xbc, 0x3f, 0xd7, 0x07, 0x52, 0x08, 0x33, 0xf3, 0xd0, 0x39, 0xc4, 0xf7, 0x31,
    0x02, 0x32, 0xde, 0xbf, 0x56, 0xc6, 0xf8, 0x53, 0xfb, 0x2b, 0xe1, 0xd3, 0x0f,
    0xdd, 0xfc, 0x30, 0xeb, 0x1f, 0x06, 0xa6, 0x2c, 0xfc, 0x05, 0x65, 0x1d, 0x34,
    0xef, 0xe3, 0x05, 0xd4, 0x20, 0x46, 0x0a, 0x38, 0xf3, 0xd2, 0x43, 0xc6, 0xf7,
    0x34, 0xf3, 0x13, 0xe7, 0x99, 0x42, 0xc9, 0xed, 0x69, 0x1b, 0x26, 0x05, 0xc1,
    0x3f, 0xc1, 0xff, 0x3e, 0xf5, 0x34, 0xee, 0xc8, 0x3f, 0xe2, 0xf9, 0x40, 0x01,
    0x1e, 0xe7, 0xb0, 0x47, 0xd8, 0xe8, 0x50, 0xfb, 0x3a, 0xe7, 0xce, 0x29, 0xf4,
    0x09, 0x53, 0xfd, 0xce, 0xdb, 0x43, 0x08, 0x09, 0xf0, 0xf9, 0xff, 0xd3, 0xd5,
    0x41, 0x14, 0x22, 0xe1, 0xfd, 0x21, 0xd8, 0xd0, 0x4d, 0x11, 0x19, 0xe3, 0x14,
    0xfb, 0xe4, 0xda, 0x59, 0x18, 0x33, 0xd7, 0xff, 0x03, 0xd0, 0xe9, 0x43, 0x0b,
    0x12, 0xdf, 0x11, 0xeb, 0xc8, 0xed, 0x5c, 0xff, 0x22, 0xf1, 0x09, 0xed, 0xc2,
    0xcf, 0x58, 0x06, 0x1a, 0xd9, 0xf8, 0x17, 0xc8, 0xd3, 0x4a, 0x04, 0x1b, 0xd6,
    0xf5, 0x15, 0xd6, 0xd2, 0x39, 0x12, 0x0e, 0xe7, 0xea, 0x19, 0xc1, 0xcd, 0x44,
    0xfb, 0x13, 0xeb, 0xf2, 0x12, 0xcf, 0xc1, 0x5e, 0x12, 0x03, 0xf6, 0xf9, 0x01,
    0xc6, 0xc8, 0x68, 0x09, 0x1a, 0xd6, 0xec, 0x02, 0xe6, 0xd0, 0x45, 0x01, 0x17,
    0xc7, 0xf0, 0x14, 0xc6, 0xca, 0x50, 0x0b, 0x18, 0xf6, 0xff, 0x07, 0xc6, 0xcf,
    0x62, 0xfb, 0x21, 0xdb, 0x06, 0xf6, 0xdf, 0xc8, 0x36, 0x15, 0x29, 0xdd, 0xfc,
    0x0d, 0xd9, 0xd9, 0x47, 0x0d, 0x0e, 0xe7, 0x13, 0x19, 0xc3, 0xd9, 0x41, 0x14,
    0x10, 0xeb, 0x09, 0x16, 0xc1, 0xc0, 0x36, 0x0c, 0x04, 0xde, 0x11, 0xf9, 0xe6,
    0xdc, 0x5d, 0xf3, 0x28, 0xc8, 0x10, 0x06, 0xd5, 0xcd, 0x50, 0x05, 0x0c, 0xf5,
    0xf2, 0xfa, 0xed, 0xd0, 0x4f, 0x19, 0x26, 0xd3, 0xfb, 0x07, 0xbf, 0xdd, 0x54,
    0xfb, 0x19, 0xfb, 0xf0, 0x05, 0xdc, 0xd6, 0x51, 0x18, 0x1d, 0xe5, 0xf8, 0x05,
    0xd4, 0xd9, 0x41, 0x0e, 0x25, 0xd8, 0xf4, 0x15, 0xc5, 0xd2, 0x5d, 0x05, 0x16,
    0xd9, 0x0a, 0x07, 0xcd, 0xc3, 0x40, 0x0a, 0x12, 0xd8, 0xf9, 0x07, 0xbd, 0xda,
    0x4f, 0x08, 0x27, 0xcf, 0x08, 0x06, 0xdd, 0xd6, 0x4b, 0xfc, 0x06, 0xd2, 0x08,
    0xf8, 0xd0, 0xe4, 0x5e, 0x0a, 0x05, 0xed, 0x04, 0x13, 0xce, 0xd3, 0x58, 0x05,
    0x1f, 0xd8, 0xee, 0x17, 0xea, 0xd7, 0x56, 0x0f, 0x0e, 0xe2, 0xef, 0xec, 0xbf,
    0xc7, 0x52, 0x00, 0x12, 0xee, 0x04, 0x13, 0xe6, 0xc0, 0x65, 0x06, 0x19, 0xf7,
    0xfa, 0x03, 0xc4, 0xe8, 0x49, 0x1e, 0x2c, 0xe5, 0x07, 0x07, 0xe2, 0xe8, 0x66,
    0xf9, 0x19, 0xf8, 0x11, 0x08, 0xc6, 0xd3, 0x4a, 0x01, 0x2f, 0xe7, 0x02, 0x0e,
    0xc8, 0xe3, 0x4b, 0x0b, 0x22, 0xe7, 0xf1, 0x13, 0xc2, 0xd1, 0x4d, 0x12, 0x10,
    0xcb, 0xea, 0x0b, 0xcf, 0xc9, 0x40, 0x10, 0x31, 0xdd, 0xfc, 0x0c, 0xde, 0xc5,
    0x45, 0x0f, 0x14, 0xec, 0xf2, 0xfa, 0xcc, 0xd5, 0x55, 0x0a, 0x16, 0xd7, 0xfb,
    0x0c, 0xcd, 0xdc, 0x43, 0x03, 0x0f, 0xeb, 0x00, 0x11, 0xc9, 0xd5, 0x60, 0x1b,
    0x0a, 0xd8, 0xf7, 0xfd, 0xde, 0xd3, 0x4e, 0x1b, 0x0e, 0xe8, 0xf0, 0x02, 0xbc,
    0xda, 0x60, 0xfd, 0x1c, 0xf0, 0xed, 0x0d, 0xcd, 0xe1, 0x4c, 0x11, 0x10, 0xda,
    0x05, 0xf7, 0xbf, 0xd7, 0x53, 0x00, 0x1c, 0xfa, 0xfc, 0x00, 0xdb, 0xcf, 0x65,
    0x1a, 0x18, 0xe1, 0x07, 0x14, 0xe3, 0xd3, 0x5f, 0x01, 0x08, 0xdc, 0x0c, 0x0c,
    0xe5, 0xc0, 0x60, 0xfe, 0x26, 0xda, 0xf0, 0x14, 0xc3, 0xda, 0x48, 0x0e, 0x12,
    0xe1, 0xfe, 0x02, 0xc3, 0xd4, 0x43, 0x04, 0x31, 0xd3, 0xee, 0xff, 0xdb, 0xdb,
    0x5a, 0x09, 0xfc, 0xf6, 0xf5, 0x0c, 0xc8, 0xdd, 0x4e, 0xfd, 0x14, 0xe1, 0x03,
    0xfe, 0xe2, 0xe0, 0x55, 0x16, 0x36, 0xd9, 0x0c, 0xf6, 0xd5, 0xd0, 0x60, 0x0b,
    0x17, 0xf7, 0x0b, 0x1b, 0xf5, 0xc7, 0x43, 0x12, 0x0c, 0xe2, 0x02, 0x0f, 0xd1,
    0xc3, 0x35, 0x10, 0x1b, 0xd0, 0x04, 0x01, 0xd2, 0xd4, 0x67, 0x00, 0x14, 0xee,
    0xfe, 0x17, 0xdc, 0xe1, 0x5c, 0x16, 0x29, 0xd1, 0xf4, 0x10, 0xe3, 0xdc, 0x4a,
    0xfd, 0xf5, 0xdb, 0xfb, 0x1c, 0xdd, 0xca, 0x4e, 0x16, 0x08, 0xe6, 0xfb, 0xf3,
    0xe1, 0xdc, 0x53, 0x0e, 0x1c, 0xd2, 0x02, 0x06, 0xc6, 0xde, 0x64, 0x05, 0x2e,
    0xd6, 0x05, 0xff, 0xc3, 0xde, 0x58, 0x06, 0x27, 0xdb, 0x02, 0x1d, 0xda, 0xce,
    0x4c, 0x12, 0x0a, 0xd3, 0xea, 0x02, 0xd6, 0xc8, 0x54, 0x0b, 0x0a, 0xe9, 0xf3,
    0x0d, 0xcb, 0xce, 0x60, 0xfe, 0x14, 0xda, 0xf6, 0x02, 0xc0, 0xdf, 0x69, 0xfc,
    0x16, 0xe1, 0x0b, 0x08, 0xc0, 0xd6, 0x54, 0xf2, 0x14, 0xc4, 0x07, 0xfd, 0xcc,
    0xce, 0x3f, 0xf7, 0x29, 0xd4, 0x0a, 0x17, 0xd8, 0xd8, 0x62, 0x02, 0x0b, 0xeb,
    0xf4, 0xf3, 0xd5, 0xd7, 0x3f, 0xf9, 0x10, 0xf0, 0x04, 0x14, 0xe1, 0xd6, 0x4a,
    0x16, 0x24, 0xdd, 0xf0, 0x11, 0xc6, 0xd1, 0x45, 0x09, 0x22, 0xd2, 0x00, 0x1b,
    0xca, 0xf3, 0x4e, 0x03, 0x14, 0xe0, 0x0b, 0x17, 0xcd, 0xcf, 0x3f, 0x09, 0x1b,
    0xe2, 0xf1, 0x0d, 0xd6, 0xb8, 0x51, 0x0e, 0x1d, 0xd1, 0xed, 0x03, 0xcf, 0xde,
    0x50, 0xf8, 0x1b, 0xf0, 0xf0, 0x14, 0xe8, 0xdf, 0x4f, 0x14, 0x14, 0xcd, 0xf1,
    0x02, 0xc7, 0xdd, 0x5c, 0xf3, 0x18, 0xde, 0x11, 0x0c, 0xdc, 0xd2, 0x4b, 0xfc,
    0x05, 0xe6, 0xfc, 0x14, 0xdd, 0xd5, 0x52, 0xf9, 0x0c, 0xdb, 0xf5, 0xfe, 0xd0,
    0xc2, 0x60, 0x0b, 0x15, 0xf8, 0x09, 0x01, 0xe9, 0xe0, 0x48, 0x10, 0x16, 0xe7,
    0xf3, 0xfd, 0xcb, 0xde, 0x4f, 0x08, 0x11, 0xdf, 0xff, 0x02, 0xd9, 0xd1, 0x59,
    0x0e, 0x28, 0xe8, 0xee, 0x19, 0xce, 0xc8, 0x48, 0x04, 0x17, 0xdc, 0xf7, 0x08,
    0xd9, 0xc7, 0x5e, 0xfc, 0x27, 0xd5, 0x11, 0xf7, 0xcf, 0xd7, 0x5f, 0x06, 0x23,
    0xbe, 0x14, 0x09, 0xe0, 0xe9, 0x42, 0xf9, 0x20, 0xd3, 0xf3, 0x19, 0xe3, 0xdc,
    0x57, 0xe8, 0x0b, 0xdb, 0x0d, 0xf6, 0xc5, 0xd3, 0x56, 0x04, 0x27, 0xdb, 0x16,
    0x0b, 0xc8, 0xd6, 0x49, 0xfe, 0x13, 0xe6, 0xed, 0x2d, 0xca, 0xcb, 0x57, 0xfb,
    0x10, 0xf2, 0x0a, 0xf9, 0xc1, 0xdd, 0x6a, 0xfd, 0x19, 0xe0, 0x0a, 0xfe, 0xbe,
    0xd0, 0x49, 0x05, 0x14, 0xe9, 0xf7, 0x04, 0xcf, 0xd9, 0x60, 0xf6, 0x0d, 0xd4,
    0xf6, 0x06, 0xd4, 0xdb, 0x4a, 0x0d, 0x15, 0xd5, 0xf9, 0xf5, 0xd7, 0xd8, 0x57,
    0x0d, 0x1f, 0xf7, 0x0f, 0x06, 0xcb, 0xc9, 0x4c, 0x00, 0x07, 0xec, 0xe9, 0xf7,
    0xed, 0xd5, 0x61, 0xfd, 0x13, 0xd3, 0x0f, 0x1f, 0xe2, 0xd2, 0x59, 0x0c, 0x20,
    0xde, 0x0c, 0x06, 0xd4, 0xd7, 0x55, 0x0c, 0x1d, 0xea, 0xed, 0x07, 0xdb, 0xde,
    0x4d, 0x00, 0x00, 0xee, 0x03, 0xfa, 0xc5, 0xe4, 0x45, 0xf1, 0x23, 0xce, 0x14,
    0xee, 0xd7, 0xe1, 0x5f, 0x1a, 0x29, 0xd0, 0xf7, 0x16, 0xc3, 0xce, 0x56, 0xfd,
    0x1b, 0xd4, 0xf8, 0xf7, 0xc6, 0xd3, 0x43, 0x01, 0x1c, 0xd5, 0x0a, 0x04, 0xc8,
    0xd9, 0x4a, 0xf8, 0x22, 0xdb, 0x07, 0x0d, 0xd7, 0xe4, 0x53, 0x00, 0x0b, 0xca,
    0x03, 0xf3, 0xc6, 0xeb, 0x5d, 0x15, 0x24, 0xe1, 0xf7, 0x14, 0xe3, 0xd3, 0x61,
    0x16, 0x12, 0xd0, 0x07, 0x1c, 0xd4, 0xd6, 0x50, 0x06, 0x19, 0xea, 0xfb, 0x17,
    0xce, 0xc5, 0x68, 0x1b, 0x1b, 0xde, 0x10, 0x08, 0xd9, 0xd0, 0x5d, 0x01, 0x31,
    0xd3, 0x06, 0x0e, 0xdc, 0xd8, 0x5d, 0x0e, 0x17, 0xd5, 0xf4, 0xfe, 0xc7, 0xe0,
    0x4c, 0xf7, 0x0f, 0xe3, 0x06, 0xf9, 0xe0, 0xdc, 0x53, 0x1f, 0x21, 0xf3, 0x13,
    0xfe, 0xc2, 0xd7, 0x6e, 0xfe, 0x1e, 0xe9, 0x02, 0x0b, 0xd8, 0xe3, 0x51, 0x16,
    0x18, 0xec, 0xf3, 0xfe, 0xca, 0xcb, 0x45, 0xf6, 0xff, 0xe0, 0x0b, 0x1e, 0xe8,
    0xda, 0x4f, 0x0d, 0x24, 0xee, 0xee, 0x02, 0xe1, 0xd5, 0x4a, 0x13, 0x28, 0xca,
    0xf6, 0xf9, 0xcc, 0xde, 0x4f, 0x0b, 0x25, 0xf7, 0xe5, 0xfe, 0xd2, 0xd3, 0x54,
    0xfd, 0x31, 0xe6, 0xff, 0x00, 0x00, 0x00, 0x00, 0x00, 0x00, 0x00, 0x00, 0x00,
    0x00, 0x00, 0x00, 0x00, 0x00, 0x00, 0x00, 0x00, 0x00, 0x00, 0x00, 0x00, 0x00,
    0x00, 0x00, 0x00, 0x00, 0x00, 0x00, 0x00, 0x00, 0x00, 0x00, 0x00, 0x00, 0x00,
    0x00, 0x00, 0x00, 0x00, 0x00, 0x00, 0x00, 0x00, 0x00, 0x00, 0x00, 0x00, 0x00,
    0x00, 0x00, 0x00, 0x00, 0x00, 0x00, 0x00, 0x00, 0x00, 0x00, 0x00, 0x00, 0x00,
    0x00, 0x00, 0x00, 0x00, 0x00, 0x00, 0x00, 0x00, 0x00, 0x00, 0x00, 0x00, 0x00,
    0x00, 0x00, 0x00, 0x00, 0x00, 0x00, 0x00, 0x00, 0x00, 0x00, 0x00, 0x00, 0x00,
    0x00, 0x00, 0x00, 0x00, 0x00, 0x00, 0x00, 0x00, 0x00, 0x00, 0x00, 0x00, 0x00,
    0x00, 0x00, 0x00, 0x00, 0x00, 0x00, 0x00, 0x00, 0x00, 0x00, 0x00, 0x00, 0x00,
    0x00, 0x00, 0x00, 0x00, 0x00, 0x00, 0x00, 0x00, 0x00, 0x00, 0x00, 0x00, 0x00,
    0x00, 0x00, 0x00, 0x00, 0x00, 0x00, 0x00, 0x00, 0x00, 0x00, 0x00, 0x00, 0x00,
    0x00, 0x00, 0x00, 0x00, 0x00, 0x00, 0x00, 0x00, 0x00, 0x00, 0x00, 0x00, 0x00,
    0x00, 0x00, 0x00, 0x00, 0x00, 0x00, 0x00, 0x00, 0x00, 0x00, 0x00, 0x00, 0x00,
    0x00, 0x00, 0x00, 0x00, 0x00, 0x00, 0x00, 0x00, 0x00, 0x00, 0x00, 0x00, 0x00,
    0x00, 0x00, 0x00, 0x00, 0x00, 0x00, 0x00, 0x00, 0x00, 0x00, 0x00, 0x00, 0x00,
    0x00, 0x00, 0x00, 0x00, 0x00, 0x00, 0x00, 0x00, 0x00, 0x00, 0x00, 0x00, 0x00,
    0x00, 0x00, 0x00, 0x00, 0x00, 0x00, 0x00, 0x00, 0x00, 0x00, 0x00, 0x00, 0x00,
    0x00, 0x00, 0x00, 0x00, 0x00, 0x00, 0x00, 0x00, 0x00, 0x00, 0x00, 0x00, 0x00,
    0x00, 0x00, 0x00, 0x00, 0x00, 0x00, 0x00, 0x00, 0x00, 0x00, 0x00, 0x00, 0x00,
    0x00, 0x00, 0x00, 0x00, 0x00, 0x00, 0x00, 0x00, 0x00, 0x00, 0x00, 0x00, 0x00,
    0x00, 0x00, 0x00, 0x00, 0x00, 0x00, 0x00, 0x00, 0x00, 0x00, 0x00, 0x00, 0x00,
    0x00, 0x00, 0x00, 0x00, 0x00, 0x00, 0x00, 0x00, 0x00, 0x00, 0x00, 0x00, 0x00,
    0x00, 0x00, 0x00, 0x00, 0x00, 0x00, 0x00, 0x00, 0x00, 0x00, 0x00, 0x00, 0x00,
    0x00, 0x00, 0x00, 0x00, 0x00, 0x00, 0x00, 0x00, 0x00, 0x00, 0x00, 0x00, 0x00,
    0x00, 0x00, 0x00, 0x00, 0x00, 0x00, 0x00, 0x00, 0x00, 0x00, 0x00, 0x00, 0x00,
    0x00, 0x00, 0x00, 0x00, 0x00, 0x00, 0x00, 0x00, 0x00, 0x00, 0x00, 0x00, 0x00,
    0x00, 0x00, 0x00, 0x00, 0x00, 0x00, 0x00, 0x00, 0x00, 0x00, 0x00, 0x00, 0x00,
    0x00, 0x00, 0x00, 0x00, 0x00, 0x00, 0x00, 0x00, 0x00, 0x00, 0x00, 0x00, 0x00,
    0x00, 0x00, 0x00, 0x00, 0x00, 0x00, 0x00, 0x00, 0x00, 0x00, 0x00, 0x00, 0x00,
    0x00, 0x00, 0x00, 0x00, 0x00, 0x00, 0x00, 0x00, 0x00, 0x00, 0x00, 0x00, 0x00,
    0x00, 0x00, 0x00, 0x00, 0x00, 0x00, 0x00, 0x00, 0x00, 0x00, 0x00, 0x00, 0x00,
    0x00, 0x00, 0x00, 0x00, 0x00, 0x00, 0x00, 0x00, 0x00, 0x00, 0x00, 0x00, 0x00,
    0x00, 0x00, 0x00, 0x00, 0x00, 0x00, 0x00, 0x00, 0x00, 0x00, 0x00, 0x00, 0x00,
    0x00, 0x00, 0x00, 0x00, 0x00, 0x00, 0x00, 0x00, 0x00, 0x00, 0x00, 0x00, 0x00,
    0x00, 0x00, 0x00, 0x00, 0x00, 0x00, 0x00, 0x00, 0x00, 0x00, 0x00, 0x00, 0x00,
    0x00, 0x00, 0x00, 0x00, 0x00, 0x00, 0x00, 0x00, 0x00, 0x00, 0x00, 0x00, 0x00,
    0x00, 0x00, 0x00, 0x00, 0x00, 0x00, 0x00, 0x00, 0x00, 0x00, 0x00, 0x00, 0x00,
    0x00, 0x00, 0x00, 0x00, 0x00, 0x00, 0x00, 0x00, 0x00, 0x00, 0x00, 0x00, 0x00,
    0x00, 0x00, 0x00, 0x00, 0x00, 0x00, 0x00, 0x00, 0x00, 0x00, 0x00, 0x00, 0x00,
    0x00, 0x00, 0x00, 0x00, 0x00, 0x00, 0x00, 0x00, 0x00, 0x00, 0x00, 0x00, 0x00,
    0x00, 0x00, 0x00, 0x00, 0x00, 0x00, 0x00, 0x00, 0x00, 0x00, 0x00, 0x00, 0x00,
    0x00, 0x00, 0x00, 0x00, 0x00, 0x00, 0x00, 0x00, 0x00, 0x00, 0x00, 0x00, 0x00,
    0x00, 0x00, 0x00, 0x00, 0x00, 0x00, 0x00, 0x00, 0x00, 0x00, 0x00, 0x00, 0x00,
    0x00, 0x00, 0x00, 0x00, 0x00, 0x00, 0x00, 0x00, 0x00, 0x00, 0x00, 0x00, 0x00,
    0x00, 0x00, 0x00, 0x00, 0x00, 0x00, 0x00, 0x00, 0x00, 0x00, 0x00, 0x00, 0x00,
    0x00, 0x00, 0x00, 0x00, 0x00, 0x00, 0x00, 0x00, 0x00, 0x00, 0x00, 0x00, 0x00,
    0x00, 0x00, 0x00, 0x00, 0x00, 0x00, 0x00, 0x00, 0x00, 0x00, 0x00, 0x00, 0x00,
    0x00, 0x00, 0x00, 0x00, 0x00, 0x00, 0x00, 0x00, 0x00, 0x00, 0x00, 0x00, 0x00,
    0x00, 0x00, 0x00, 0x00, 0x00, 0x00, 0x00, 0x00, 0x00, 0x00, 0x00, 0x00, 0x00,
    0x00, 0x00, 0x00, 0x00, 0x00, 0x00, 0x00, 0x00, 0x00, 0x00, 0x00, 0x00, 0x00,
    0x00, 0x00, 0x00, 0x00, 0x00, 0x00, 0x00, 0x00, 0x00, 0x00, 0x00, 0x00, 0x00,
    0x00, 0x00, 0x00, 0x00, 0x00, 0x00, 0x00, 0x00, 0x00, 0x00, 0x00, 0x00, 0x00,
    0x00, 0x00, 0x00, 0x00, 0x00, 0x00, 0x00, 0x00, 0x00, 0x00, 0x00, 0x00, 0x00,
    0x00, 0x00, 0x00, 0x00, 0x00, 0x00, 0x00, 0x00, 0x00, 0x00, 0x00, 0x00, 0x00,
    0x00, 0x00, 0x00, 0x00, 0x00, 0x00, 0x00, 0x00, 0x00, 0x00, 0x00, 0x00, 0x00,
    0x00, 0x00, 0x00, 0x00, 0x00, 0x00, 0x00, 0x00, 0x00, 0x00, 0x00, 0x00, 0x00,
    0x00, 0x00, 0x00, 0x00, 0x00, 0x00, 0x00, 0x00, 0x00, 0x00, 0x00, 0x00, 0x00,
    0x00, 0x00, 0x00, 0x00, 0x00, 0x00, 0x00, 0x00, 0x00, 0x00, 0x00, 0x00, 0x00,
    0x00, 0x00, 0x00, 0x00, 0x00, 0x00, 0x00, 0x00, 0x00, 0x00, 0x00, 0x00, 0x00,
    0x00, 0x00, 0x00, 0x00, 0x00, 0x00, 0x00, 0x00, 0x00, 0x00, 0x00, 0x00, 0x00,
    0x00, 0x00, 0x00, 0x00, 0x00, 0x00, 0x00, 0x00, 0x00, 0x00, 0x00, 0x00, 0x00,
    0x00, 0x00, 0x00, 0x00, 0x00, 0x00, 0x00, 0x00, 0x00, 0x00, 0x00, 0x00, 0x00,
    0x00, 0x00, 0x00, 0x00, 0x00, 0x00, 0x00, 0x00, 0x00, 0x00, 0x00, 0x00, 0x00,
    0x00, 0x00, 0x00, 0x00, 0x00, 0x00, 0x00, 0x00, 0x00, 0x00, 0x00, 0x00, 0x00,
    0x00, 0x00, 0x00, 0x00, 0x00, 0x00, 0x00, 0x00, 0x00, 0x00, 0x00, 0x00, 0x00,
    0x00, 0x00, 0x00, 0x00, 0x00, 0x00, 0x00, 0x00, 0x00, 0x00, 0x00, 0x00, 0x00,
    0x00, 0x00, 0x00, 0x00, 0x00, 0x00, 0x00, 0x00, 0x00, 0x00, 0x00, 0x00, 0x00,
    0x00, 0x00, 0x00, 0x00, 0x00, 0x00, 0x00, 0x00, 0x00, 0x00, 0x00, 0x00, 0x00,
    0x00, 0x00, 0x00, 0x00, 0x00, 0x00, 0x00, 0x00, 0x00, 0x00, 0x00, 0x00, 0x00,
    0x00, 0x00, 0x00, 0x00, 0x00, 0x00, 0x00, 0x00, 0x00, 0x00, 0x00, 0x00, 0x00,
    0x00, 0x00, 0x00, 0x00, 0x00, 0x00, 0x00, 0x00, 0x00, 0x00, 0x00, 0x00, 0x00,
    0x00, 0x00, 0x00, 0x00, 0x00, 0x00, 0x00, 0x00, 0x00, 0x00, 0x00, 0x00, 0x00,
    0x00, 0x00, 0x00, 0x00, 0x00, 0x00, 0x00, 0x00, 0x00, 0x00, 0x00, 0x00, 0x00,
    0x00, 0x00, 0x00, 0x00, 0x00, 0x00, 0x00, 0x00, 0x00, 0x00, 0x00, 0x00, 0x00,
    0x00, 0x00, 0x00, 0x00, 0x00, 0x00, 0x00, 0x00, 0x00, 0x00, 0x00, 0x00, 0x00,
    0x00, 0x00, 0x00, 0x00, 0x00, 0x00, 0x00, 0x00, 0x00, 0x00, 0x00, 0x00, 0x00,
    0x00, 0x00, 0x00, 0x00, 0x00, 0x00, 0x00, 0x00, 0x00, 0x00, 0x00, 0x00, 0x00,
    0x00, 0x00, 0x00, 0x00, 0x00, 0x00, 0x00, 0x00, 0x00, 0x00, 0x00, 0x00, 0x00,
    0x00, 0x00, 0x00, 0x00, 0x00, 0x00, 0xd0, 0x01, 0xda, 0x0f, 0x3a, 0xce, 0xf0,
    0x27, 0xbe, 0x00, 0xed, 0x1e, 0x29, 0xbf, 0xe0, 0x36, 0xcb, 0xfd, 0xf9, 0x10,
    0x42, 0xcc, 0xfe, 0x31, 0xb2, 0x04, 0xda, 0x2d, 0x30, 0xbf, 0xfc, 0x3d, 0xcd,
    0x12, 0xf5, 0x0c, 0x4e, 0xc6, 0xed, 0x38, 0xd5, 0xf3, 0xe7, 0x1d, 0x1e, 0xe5,
    0xe4, 0x3a, 0xc2, 0x06, 0xef, 0x0c, 0x45, 0xdd, 0xf8, 0x44, 0xe3, 0xfb, 0xd3,
    0x0e, 0x1f, 0xd0, 0xe4, 0x41, 0xd7, 0x13, 0xd3, 0x19, 0x46, 0xcc, 0xfc, 0x2e,
    0xd6, 0x18, 0xea, 0xfb, 0x35, 0xd3, 0xe2, 0x2e, 0xcb, 0x03, 0xd3, 0x0d, 0x3b,
    0xce, 0xe0, 0x2a, 0xd0, 0x08, 0xeb, 0x08, 0x3a, 0xe4, 0xeb, 0x42, 0xc9, 0x07,
    0xd7, 0x16, 0x3c, 0xd6, 0xe7, 0x44, 0xc0, 0xf9, 0xdb, 0x17, 0x42, 0xcc, 0xea,
    0x33, 0xc7, 0xef, 0xd7, 0x19, 0x38, 0xbb, 0xf2, 0x4e, 0xd8, 0xea, 0xc6, 0x15,
    0x3a, 0xda, 0xd7, 0x29, 0xcd, 0xed, 0xd6, 0x25, 0x39, 0xb4, 0xe1, 0x4c, 0xdf,
    0xf8, 0xea, 0x0f, 0x31, 0xbd, 0xe9, 0x3a, 0xbf, 0xfc, 0xdc, 0x19, 0x4b, 0xbd,
    0xe3, 0x40, 0xcb, 0x00, 0xd3, 0x1e, 0x1a, 0xf2, 0xe6, 0x2f, 0xd0, 0xf2, 0xe6,
    0x1f, 0x2a, 0xda, 0x02, 0x1e, 0xd3, 0x02, 0xeb, 0xfe, 0x45, 0xbb, 0xf2, 0x2f,
    0xdb, 0xf0, 0xf2, 0x1e, 0x39, 0xcf, 0x09, 0x24, 0xd1, 0xe2, 0xe5, 0xfd, 0x22,
    0xe0, 0xe9, 0x43, 0xd2, 0xec, 0xda, 0x0c, 0x37, 0xe7, 0xec, 0x3f, 0xce, 0xf8,
    0xf3, 0xfe, 0x3e, 0xcd, 0xfa, 0x53, 0xd6, 0xe4, 0xd9, 0xf7, 0x21, 0xc0, 0x01,
    0x3a, 0xcb, 0x00, 0xe3, 0x02, 0x10, 0xcb, 0xde, 0x43, 0xcc, 0xe0, 0xde, 0x13,
    0x2c, 0xc3, 0xe1, 0x3e, 0xc7, 0xf2, 0xe0, 0x16, 0x28, 0xd3, 0xec, 0x3b, 0xd4,
    0x13, 0xd4, 0x29, 0x0d, 0xb9, 0xda, 0x2b, 0xc6, 0xe6, 0xd7, 0x01, 0x58, 0xcb,
    0xf6, 0x37, 0xc6, 0x0b, 0xe9, 0x22, 0x27, 0xcd, 0xf3, 0x42, 0xd2, 0x04, 0xdf,
    0x0d, 0x20, 0xd1, 0xe4, 0x34, 0xd7, 0x0c, 0xf3, 0x00, 0x28, 0xd6, 0xf6, 0x54,
    0xbb, 0xfd, 0xf0, 0xf8, 0x2e, 0xdd, 0xe7, 0x40, 0xd1, 0xec, 0xe3, 0x1a, 0x1b,
    0xba, 0xf3, 0x35, 0xcd, 0xfc, 0x04, 0x0c, 0x32, 0xd7, 0xff, 0x44, 0xd7, 0x09,
    0xf4, 0x06, 0x44, 0xd2, 0xe6, 0x3e, 0xcd, 0xf4, 0xf7, 0x22, 0x20, 0xcc, 0xec,
    0x40, 0xdc, 0xfd, 0xe6, 0x15, 0x37, 0xd3, 0xec, 0x2a, 0xef, 0xf0, 0xf0, 0x04,
    0x1e, 0xd6, 0xd4, 0x36, 0xc5, 0xee, 0xe6, 0xfe, 0x26, 0xdc, 0x05, 0x34, 0xc5,
    0xea, 0xf0, 0x1f, 0x35, 0xd3, 0xe0, 0x29, 0xc3, 0xf3, 0xd7, 0x15, 0x37, 0xc4,
    0xe2, 0x2f, 0xce, 0x10, 0xda, 0x17, 0x2c, 0xca, 0xe5, 0x3e, 0xc0, 0xe0, 0xf1,
    0x03, 0x2c, 0xce, 0xf8, 0x31, 0xd2, 0x03, 0xfd, 0x0d, 0x1f, 0xd5, 0xe5, 0x21,
    0xdb, 0x13, 0xf8, 0x12, 0x3f, 0xbf, 0xfa, 0x2e, 0xd2, 0xf8, 0xe0, 0x18, 0x20,
    0xcd, 0xe4, 0x4c, 0xde, 0xee, 0xc2, 0x12, 0x36, 0xdc, 0xd9, 0x42, 0xca, 0xfd,
    0xe7, 0x06, 0x46, 0xd6, 0xd7, 0x39, 0xd3, 0xfc, 0xed, 0x1c, 0x24, 0xc5, 0xe1,
    0x27, 0xc9, 0x01, 0xed, 0x0e, 0x37, 0xd0, 0xfa, 0x3e, 0xd4, 0xfa, 0xef, 0x1f,
    0x23, 0xe2, 0xe9, 0x3d, 0xc2, 0xfa, 0xfb, 0xf4, 0x2c, 0xbf, 0xf9, 0x40, 0xd0,
    0x01, 0xfd, 0x29, 0x23, 0xc8, 0xdb, 0x41, 0xd2, 0xfd, 0xed, 0x13, 0x29, 0xd3,
    0xf3, 0x47, 0xd5, 0xfe, 0xcf, 0xff, 0x33, 0xbc, 0xe5, 0x3f, 0xdd, 0x22, 0xe6,
    0x1a, 0x49, 0xc2, 0xe0, 0x46, 0xe1, 0x02, 0xf0, 0x23, 0x30, 0xce, 0x06, 0x27,
    0xd7, 0xf7, 0xd1, 0x03, 0x32, 0xb3, 0xf0, 0x3d, 0xd8, 0x08, 0xf0, 0x12, 0x2b,
    0xe4, 0xee, 0x31, 0xd2, 0xea, 0xe9, 0xf6, 0x29, 0xcd, 0xec, 0x51, 0xc8, 0xe3,
    0xf1, 0x2e, 0x34, 0xac, 0xe8, 0x45, 0xcb, 0xfe, 0xe5, 0x0e, 0x2a, 0xd0, 0xe8,
    0x41, 0xc6, 0xed, 0xec, 0x14, 0x52, 0xc7, 0xe6, 0x25, 0xdd, 0xfe, 0xec, 0x12,
    0x1b, 0xd7, 0xf1, 0x3a, 0xc2, 0xea, 0xed, 0x0a, 0x3b, 0xd3, 0xea, 0x27, 0xcb,
    0x05, 0xd6, 0x2e, 0x3b, 0xe2, 0xfd, 0x3c, 0xc4, 0xf2, 0xed, 0x0b, 0x2b, 0xd4,
    0xe7, 0x32, 0xd7, 0x01, 0xd1, 0x09, 0x42, 0xcb, 0xf3, 0x26, 0xd9, 0xed, 0xec,
    0x19, 0x39, 0xdd, 0xfb, 0x43, 0xdd, 0xf6, 0xe7, 0x01, 0x3f, 0xcb, 0xfb, 0x2c,
    0xd1, 0xed, 0xea, 0x01, 0x4a, 0xda, 0xe0, 0x42, 0xd3, 0xfb, 0xeb, 0x1f, 0x26,
    0xd9, 0xfb, 0x3d, 0xe2, 0xf5, 0xde, 0x29, 0x34, 0xcc, 0xe7, 0x41, 0xbf, 0x01,
    0xe1, 0x1a, 0x31, 0xd8, 0xe7, 0x2d, 0xdd, 0xf8, 0xe8, 0xf7, 0x31, 0xd0, 0xdd,
    0x24, 0xe4, 0x07, 0xc2, 0x13, 0x36, 0xcd, 0xf4, 0x25, 0xe3, 0xf7, 0xef, 0x0f,
    0x47, 0xb3, 0xe4, 0x20, 0xe0, 0xfc, 0xdd, 0x1e, 0x36, 0xc6, 0xe2, 0x38, 0xd4,
    0xe0, 0xe0, 0x24, 0x3a, 0xca, 0x0f, 0x31, 0xd6, 0x03, 0xe9, 0x1a, 0x30, 0xc5,
    0xf1, 0x41, 0xc1, 0xf8, 0xd2, 0xfe, 0x25, 0xd9, 0xf0, 0x42, 0xd3, 0xff, 0xe4,
    0x1d, 0x34, 0xcd, 0x06, 0x33, 0xcb, 0xf1, 0xf4, 0x08, 0x2e, 0xdb, 0xee, 0x3d,
    0xce, 0xed, 0xd9, 0x07, 0x0c, 0xc4, 0xf4, 0x3e, 0xdf, 0xf6, 0xe1, 0x17, 0x38,
    0xc7, 0xd9, 0x2d, 0xcf, 0x18, 0xf5, 0x15, 0x28, 0xcd, 0xe2, 0x27, 0xc5, 0x05,
    0xd6, 0x12, 0x43, 0xd9, 0xec, 0x23, 0xd7, 0x09, 0xef, 0x10, 0x35, 0xed, 0xe0,
    0x2d, 0xb4, 0xeb, 0xe1, 0x0d, 0x4d, 0xd3, 0xfe, 0x24, 0xcf, 0xf6, 0xd1, 0x0d,
    0x43, 0xdf, 0xea, 0x47, 0xc5, 0x01, 0xde, 0x24, 0x14, 0xdc, 0xe4, 0x1f, 0xd8,
    0xfc, 0xd6, 0x1a, 0x30, 0xcc, 0xf3, 0x34, 0xe0, 0xef, 0xe4, 0x13, 0x2a, 0xc0,
    0xe6, 0x27, 0xcc, 0x06, 0xd9, 0x09, 0x39, 0xc6, 0xeb, 0x24, 0xd7, 0xe5, 0xda,
    0x39, 0x37, 0xc2, 0xe7, 0x42, 0xcc, 0xf2, 0xee, 0x02, 0x45, 0xbe, 0xee, 0x44,
    0xc7, 0xfa, 0xf7, 0x16, 0x2f, 0xea, 0xe2, 0x44, 0xd0, 0xf9, 0xd8, 0x1e, 0x31,
    0xb8, 0xf6, 0x3c, 0xc0, 0xf8, 0xef, 0x14, 0x28, 0xd4, 0x03, 0x20, 0xe9, 0x09,
    0xda, 0xff, 0x25, 0xbb, 0xd6, 0x30, 0xdd, 0xfb, 0xdf, 0x11, 0x2e, 0xca, 0xf0,
    0x50, 0xd4, 0xe7, 0x00, 0x22, 0x2e, 0xea, 0x0b, 0x29, 0xd4, 0xf8, 0xe6, 0x31,
    0x2e, 0xe3, 0xf4, 0x24, 0xd2, 0xff, 0xe7, 0xfc, 0x37, 0xd6, 0xee, 0x26, 0xcd,
    0xf5, 0xdd, 0x0e, 0x37, 0xe3, 0xf0, 0x41, 0xc6, 0x05, 0xeb, 0x06, 0x3d, 0xdb,
    0xed, 0x2f, 0xdb, 0xe5, 0xef, 0x0e, 0x44, 0xe1, 0xdd, 0x45, 0xc1, 0xf2, 0xea,
    0xfd, 0x24, 0xc9, 0xf5, 0x2d, 0xb6, 0xfc, 0x00, 0x23, 0x3f, 0xe4, 0xd0, 0x34,
    0xd4, 0xf2, 0x03, 0x18, 0x30, 0xba, 0xea, 0x22, 0xcd, 0xff, 0xd9, 0x10, 0x35,
    0xda, 0xdd, 0x4d, 0xba, 0x0a, 0xe2, 0x26, 0x19, 0xcb, 0xe4, 0x29, 0xe2, 0xe8,
    0x09, 0x13, 0x21, 0xc0, 0xd4, 0x19, 0xd3, 0xef, 0xe5, 0x07, 0x41, 0xca, 0xda,
    0x22, 0xd0, 0xee, 0xf1, 0x07, 0x32, 0xd3, 0xf7, 0x2f, 0xce, 0xf5, 0xe6, 0x0b,
    0x39, 0xc7, 0xdf, 0x3e, 0xc6, 0xf8, 0xe4, 0x05, 0x3d, 0xd3, 0x07, 0x47, 0xbe,
    0xf1, 0xe8, 0x0c, 0x28, 0xd5, 0xdc, 0x4a, 0xdc, 0xe7, 0xfa, 0x0f, 0x39, 0xbd,
    0xdd, 0x31, 0xd3, 0xf5, 0xed, 0x0c, 0x42, 0xdd, 0xe0, 0x2e, 0xc4, 0xfb, 0xdd,
    0x0e, 0x22, 0xcc, 0xea, 0x41, 0xcf, 0x0e, 0xfc, 0x0e, 0x2e, 0xdc, 0xf5, 0x1e,
    0xc9, 0x10, 0xda, 0x12, 0x2b, 0xd7, 0xe2, 0x45, 0xd9, 0xcf, 0xc0, 0x28, 0x53,
    0xd4, 0xd4, 0xfe, 0xe0, 0xf2, 0xeb, 0x0b, 0x0f, 0xea, 0xcf, 0x05, 0xdc, 0xda,
    0xe9, 0x09, 0x52, 0xe3, 0x02, 0x0b, 0xd7, 0xe9, 0xf2, 0x10, 0x1a, 0xfb, 0xee,
    0x19, 0xe0, 0xc7, 0xe4, 0x0a, 0x58, 0xf4, 0xed, 0x07, 0xbe, 0xca, 0xce, 0xfe,
    0x30, 0xda, 0xf2, 0x27, 0xea, 0xda, 0xed, 0x01, 0x1e, 0xf2, 0xe0, 0x1f, 0xc1,
    0xdb, 0xd8, 0x44, 0x3f, 0x07, 0xfd, 0x4b, 0xee, 0xdb, 0xdc, 0xf3, 0x54, 0xd6,
    0xd6, 0x19, 0xe5, 0x05, 0xdb, 0x36, 0x30, 0x05, 0xf9, 0x0c, 0xbf, 0xff, 0xde,
    0x0e, 0x38, 0xe1, 0xe3, 0x25, 0xc1, 0xd4, 0xcf, 0x2e, 0x34, 0xee, 0xe4, 0x2e,
    0xf8, 0xca, 0x03, 0x2b, 0x43, 0xdc, 0xf2, 0x42, 0xdf, 0xf2, 0xd3, 0x36, 0x20,
    0xcc, 0x02, 0x26, 0xf2, 0x08, 0xee, 0xf8, 0x1b, 0xe9, 0xe2, 0x0f, 0xce, 0x07,
    0xcc, 0x06, 0x44, 0xde, 0xfd, 0x09, 0xdd, 0xe0, 0xe1, 0x05, 0x32, 0xef, 0xef,
    0x3c, 0xd5, 0xf5, 0xf2, 0x3a, 0x47, 0xe7, 0x00, 0x25, 0xe3, 0xd7, 0xfd, 0x19,
    0x29, 0xc4, 0xf1, 0x1a, 0xd4, 0xe0, 0xe3, 0x0d, 0x44, 0xd7, 0xf7, 0x02, 0xd5,
    0xd8, 0xda, 0x07, 0x41, 0xd2, 0xf5, 0x10, 0xf3, 0xcd, 0xfc, 0x25, 0x4d, 0xcb,
    0xec, 0x1c, 0xe0, 0xe9, 0xea, 0x0c, 0x13, 0xec, 0xea, 0x35, 0xea, 0x10, 0xef,
    0xe0, 0x28, 0xd9, 0xe3, 0x45, 0xec, 0xc9, 0xcd, 0x27, 0x45, 0xc8, 0xcf, 0x3b,
    0xcc, 0x0d, 0xc2, 0x1b, 0x3a, 0xdc, 0xd8, 0x30, 0xea, 0x0a, 0xd1, 0xfc, 0x3f,
    0xbc, 0xe1, 0x3d, 0xe3, 0xf2, 0xef, 0x32, 0x46, 0xea, 0xec, 0x34, 0xe3, 0x03,
    0xda, 0x1e, 0x2a, 0xc2, 0x00, 0x15, 0xe0, 0xf2, 0xfc, 0x2a, 0x2d, 0xee, 0x04,
    0x28, 0xfb, 0xe3, 0xdd, 0x16, 0x3d, 0xe9, 0xd3, 0x25, 0xee, 0x03, 0xe9, 0x1d,
    0x21, 0xf3, 0xfa, 0x0e, 0xf0, 0xf0, 0xd8, 0x1b, 0x29, 0xd1, 0xf3, 0x2c, 0xbd,
    0xf7, 0xe1, 0x0e, 0x41, 0x07, 0x1b, 0x10, 0xda, 0xf4, 0xd2, 0x11, 0x46, 0xe2,
    0xdd, 0x18, 0xf1, 0xd6, 0xde, 0x2c, 0x35, 0xd2, 0x08, 0x1f, 0xc1, 0xfd, 0x05,
    0x1e, 0x2a, 0xf1, 0xd1, 0x28, 0xd0, 0xe5, 0xee, 0x2e, 0x1b, 0xeb, 0xfb, 0x24,
    0xb8, 0xeb, 0xe5, 0x18, 0x43, 0xea, 0xe2, 0x27, 0xe7, 0x06, 0xe5, 0x3d, 0x3d,
    0xd7, 0xd7, 0x21, 0xbf, 0xe0, 0xdd, 0x2b, 0x3a, 0xe1, 0xcf, 0x26, 0xe0, 0xe6,
    0xc6, 0x46, 0x2e, 0xed, 0xe9, 0x21, 0xf6, 0xe1, 0x00, 0x13, 0x1f, 0xd2, 0xe9,
    0x31, 0xd4, 0xd9, 0xdb, 0x0d, 0x3a, 0xd1, 0xd2, 0x29, 0xfb, 0xee, 0xd6, 0xfc,
    0x33, 0xe8, 0xf9, 0x00, 0xce, 0xd6, 0xfe, 0x1d, 0x23, 0xda, 0x01, 0x2b, 0xd9,
    0xdd, 0xcc, 0x2f, 0x18, 0xfa, 0x05, 0x15, 0xfc, 0xef, 0xdc, 0xfd, 0x03, 0xb6,
    0xdd, 0x24, 0xc6, 0xee, 0xdc, 0x36, 0x32, 0xcf, 0xe5, 0x38, 0xd5, 0xd7, 0xee,
    0x05, 0x48, 0xdd, 0xfd, 0x31, 0xd3, 0xe2, 0xf4, 0x30, 0x43, 0xde, 0xce, 0x00,
    0xf4, 0xd7, 0xdf, 0xfa, 0x2f, 0xed, 0x0e, 0x44, 0xcc, 0xf4, 0xf6, 0x09, 0x23,
    0xfe, 0xe9, 0x44, 0xe5, 0xdd, 0xcf, 0xfa, 0x2f, 0xdd, 0x01, 0x12, 0xe7, 0xf0,
    0xba, 0x01, 0x19, 0xd5, 0xd1, 0x2e, 0xd9, 0xee, 0xeb, 0xff, 0x3d, 0xf2, 0x05,
    0x40, 0x03, 0xe9, 0xd9, 0xfe, 0x32, 0xe8, 0x01, 0x29, 0xdf, 0xe1, 0xe6, 0x0b,
    0x19, 0xe4, 0xfb, 0x20, 0xdf, 0xd6, 0xde, 0x1e, 0x26, 0xd4, 0xff, 0x38, 0xc1,
    0xd3, 0xeb, 0x38, 0x3a, 0xed, 0xf7, 0x17, 0xf0, 0xd4, 0xcf, 0x15, 0x46, 0xb7,
    0xf7, 0x0b, 0xd5, 0xdf, 0xc0, 0x0b, 0x1a, 0xdb, 0xe1, 0x42, 0xc8, 0xdc, 0xe6,
    0x1f, 0x13, 0xea, 0xe1, 0x31, 0xe1, 0xde, 0xde, 0x08, 0x12, 0xd8, 0x0a, 0x20,
    0xaf, 0xeb, 0xf0, 0x1b, 0x14, 0xe9, 0xf7, 0x0d, 0xb8, 0xd8, 0xd8, 0x28, 0x3d,
    0xdd, 0xca, 0x2b, 0xdd, 0xde, 0xd1, 0x45, 0x58, 0xd8, 0x06, 0x0f, 0xcc, 0xce,
    0xdf, 0x28, 0x1d, 0xe1, 0xfa, 0x2b, 0xcd, 0xf9, 0xf9, 0x32, 0x3c, 0xec, 0xfb,
    0x2b, 0xb8, 0xe3, 0xcb, 0x12, 0x3e, 0xcd, 0xde, 0x1b, 0xdc, 0xd6, 0xf7, 0x30,
    0x20, 0xb9, 0x00, 0x0f, 0xe0, 0xcf, 0xd3, 0x1d, 0x2f, 0xbf, 0xde, 0x36, 0xe2,
    0x00, 0xde, 0x29, 0x30, 0xeb, 0xe0, 0x32, 0xef, 0xfa, 0xe6, 0x29, 0x15, 0xdb,
    0xf6, 0x39, 0xce, 0x03, 0xdc, 0x2b, 0x4f, 0xea, 0x01, 0x26, 0xb9, 0xe7, 0xd2,
    0x3a, 0x3a, 0xc4, 0xc4, 0x38, 0xe2, 0xfe, 0xdf, 0x08, 0x4f, 0xd9, 0xe4, 0x0a,
    0xfc, 0xef, 0xe0, 0x18, 0x3d, 0xe0, 0xec, 0x2a, 0xf1, 0x0c, 0xc6, 0x0b, 0x35,
    0xd7, 0xe0, 0x11, 0xc6, 0x09, 0xe5, 0x1b, 0x16, 0xe3, 0xe3, 0x0c, 0xc7, 0xf0,
    0x00, 0x02, 0x33, 0x02, 0xea, 0x1d, 0xec, 0xef, 0xe3, 0x0a, 0x40, 0xe4, 0xfe,
    0x1c, 0xbb, 0xc7, 0xd1, 0xfa, 0x32, 0xc4, 0xdc, 0x2a, 0xe9, 0xe0, 0xce, 0x12,
    0x40, 0xe2, 0x12, 0x1d, 0xbe, 0xd5, 0xdf, 0x28, 0x1f, 0xdf, 0xe7, 0x1c, 0xdb,
    0xeb, 0xdb, 0x26, 0x3f, 0xe0, 0xe4, 0x36, 0xf6, 0xea, 0x04, 0x30, 0x32, 0xcf,
    0x05, 0x15, 0xe5, 0xdd, 0xf2, 0x1c, 0x2d, 0xf3, 0xc8, 0x14, 0xf0, 0xc5, 0xdd,
    0x05, 0x10, 0xf6, 0xe0, 0x47, 0xc0, 0xcc, 0xc6, 0xfb, 0x42, 0xc4, 0xec, 0x1b,
    0xe7, 0xf0, 0x05, 0xff, 0x23, 0xfe, 0xe8, 0x3a, 0xf4, 0xdf, 0xee, 0x19, 0x0d,
    0xcc, 0xe6, 0x18, 0xff, 0xf0, 0xcd, 0x38, 0x3a, 0xe6, 0xdf, 0x17, 0xe4, 0x0e,
    0xff, 0x07, 0x23, 0xf4, 0xef, 0x12, 0xd3, 0xd9, 0xdb, 0x1d, 0x2d, 0xe5, 0xe8,
    0x19, 0xd8, 0xf8, 0xe8, 0x01, 0x2d, 0xe2, 0xff, 0x19, 0xea, 0xd8, 0xc3, 0x1c,
    0x1c, 0xf5, 0x03, 0x3a, 0xd5, 0xf5, 0xe8, 0x07, 0x49, 0xb6, 0xf4, 0x08, 0xe2,
    0xe3, 0xf6, 0x13, 0x43, 0xbb, 0xd8, 0x20, 0xd8, 0xda, 0xbf, 0x1f, 0x19, 0xd6,
    0xeb, 0x1d, 0xbe, 0xcf, 0xd6, 0x27, 0x2d, 0xe0, 0xcc, 0x32, 0xd4, 0xd7, 0xe0,
    0xec, 0x2c, 0xe9, 0x03, 0x46, 0xbb, 0xef, 0xc3, 0x10, 0x26, 0xd2, 0x10, 0x35,
    0xc7, 0xdd, 0xe6, 0x09, 0x2f, 0xf0, 0x02, 0xfa, 0xc1, 0xf5, 0xe5, 0x2b, 0x1b,
    0xd9, 0xeb, 0x18, 0x02, 0x0d, 0xd5, 0x24, 0x30, 0xc6, 0xf6, 0x0a, 0xbe, 0xe3,
    0xd7, 0x11, 0x26, 0xd8, 0xf9, 0x27, 0xe1, 0xe6, 0x0d, 0x23, 0x30, 0xdc, 0xef,
    0x2a, 0xc5, 0xe2, 0xf0, 0xf3, 0x3d, 0xef, 0xf8, 0x2e, 0xd5, 0x04, 0xf8, 0x14,
    0x4d, 0xf8, 0xeb, 0x28, 0xd9, 0xcd, 0xd3, 0x2a, 0x48, 0xbc, 0x0c, 0x0d, 0xda,
    0xff, 0xf2, 0x09, 0x48, 0xc0, 0xeb, 0x1c, 0xfd, 0xca, 0xfd, 0x1d, 0x38, 0xeb,
    0xfd, 0x14, 0xd0, 0xe7, 0xbd, 0x12, 0x32, 0xe0, 0x06, 0x19, 0xd5, 0xfe, 0xfb,
    0x1c, 0x39, 0xc2, 0xfb, 0x1f, 0xd0, 0x01, 0xe0, 0x3e, 0x4b, 0xbe, 0xfe, 0x2e,
    0xf2, 0xf4, 0xe1, 0x17, 0x27, 0xc2, 0x07, 0x3b, 0xef, 0x02, 0xbc, 0x11, 0x28,
    0xf3, 0xe6, 0x22, 0xef, 0xda, 0xfc, 0x38, 0x1b, 0xe8, 0xda, 0x44, 0xfe, 0xef,
    0xf8, 0xf6, 0x53, 0xf1, 0xfb, 0x24, 0xde, 0x00, 0xf9, 0x00, 0x36, 0xfc, 0x01,
    0x19, 0xc3, 0x09, 0xe8, 0x35, 0x11, 0xf4, 0x05, 0x2f, 0xdc, 0xf4, 0x04, 0x20,
    0x36, 0xf9, 0xe3, 0x06, 0xdb, 0x03, 0xea, 0x23, 0x34, 0xf1, 0x05, 0x0d, 0xcd,
    0xc2, 0xcf, 0x04, 0x44, 0xe0, 0xd5, 0x0f, 0xc5, 0xd3, 0xbf, 0x3b, 0x38, 0xc5,
    0xf1, 0x29, 0xea, 0xf3, 0xfa, 0xf6, 0x4c, 0xdb, 0x15, 0x1d, 0xf2, 0xf3, 0xe4,
    0x0a, 0x1e, 0xfb, 0x06, 0x27, 0xd4, 0xc7, 0xd7, 0x2a, 0x31, 0xf5, 0xe2, 0x38,
    0xce, 0xf4, 0xcb, 0x27, 0x3d, 0xdd, 0xeb, 0x0c, 0xfc, 0xeb, 0xc1, 0x14, 0x21,
    0xd1, 0xe4, 0x22, 0xe5, 0x15, 0xcf, 0x17, 0x17, 0xdb, 0xeb, 0x3b, 0x00, 0x0d,
    0xdc, 0x21, 0x34, 0xd7, 0xee, 0x0c, 0xf2, 0xf5, 0xe7, 0x2f, 0x16, 0xdd, 0xf0,
    0x21, 0xed, 0xf9, 0xf0, 0x07, 0x38, 0xe2, 0xdf, 0x00, 0xe1, 0xf6, 0xe3, 0x1e,
    0x11, 0x03, 0x05, 0x36, 0xe6, 0xdd, 0xe8, 0xfd, 0x29, 0xc7, 0xdf, 0x3a, 0xda,
    0xe6, 0xe1, 0x1a, 0x2a, 0xf2, 0xf5, 0x21, 0xe4, 0x04, 0xdc, 0x07, 0x39, 0xce,
    0xe9, 0x1c, 0xde, 0x05, 0xcb, 0x26, 0x14, 0xce, 0xf8, 0x32, 0xe0, 0xdc, 0xeb,
    0xfd, 0x2b, 0xf8, 0xc3, 0x0d, 0xf2, 0xf7, 0xcd, 0x1c, 0x39, 0xc8, 0xe5, 0x10,
    0xf5, 0xec, 0xf3, 0x1e, 0x17, 0xde, 0xeb, 0x32, 0xfe, 0xfc, 0xf0, 0xff, 0x0f,
    0xc8, 0xf2, 0x0d, 0xe0, 0xf3, 0xd4, 0x00, 0x0b, 0xf3, 0xd9, 0x32, 0xd9, 0x00,
    0xe0, 0x21, 0x1f, 0xf0, 0xec, 0xfe, 0xf9, 0xda, 0xec, 0x17, 0x19, 0xf4, 0x00,
    0x18, 0xdb, 0xe1, 0xee, 0x15, 0x33, 0xc6, 0xe4, 0x36, 0xc2, 0x0b, 0xc8, 0x11,
    0x20, 0xee, 0x07, 0x2f, 0xd5, 0x02, 0xd2, 0x25, 0x32, 0xe6, 0xe5, 0x23, 0xd8,
    0xe5, 0xcf, 0x33, 0x2b, 0xc0, 0xe6, 0x01, 0xc9, 0x08, 0xd7, 0x24, 0x1a, 0xd2,
    0xf0, 0x05, 0xd9, 0xe2, 0xd7, 0x21, 0x38, 0xe8, 0x08, 0xf4, 0xe4, 0xcf, 0xf5,
    0x41, 0x11, 0xe0, 0xf4, 0x00, 0xc7, 0xf2, 0xed, 0x08, 0x2e, 0xdb, 0x01, 0x12,
    0xdc, 0xe1, 0xc6, 0x0f, 0x2b, 0xfa, 0xf1, 0x35, 0x03, 0xe8, 0xc9, 0x00, 0x31,
    0xd9, 0xdd, 0x2a, 0xc1, 0xf5, 0xec, 0x12, 0x2d, 0xd4, 0x0f, 0x17, 0xda, 0xd7,
    0xde, 0x29, 0x28, 0xeb, 0xeb, 0x26, 0xe3, 0xe4, 0xd8, 0x12, 0x2b, 0xd9, 0xf9,
    0x16, 0x02, 0x03, 0xd0, 0x0c, 0x38, 0xc7, 0xdf, 0x34, 0xe2, 0xfc, 0xd9, 0x20,
    0x0e, 0xc1, 0xee, 0x01, 0xca, 0xfc, 0xd9, 0x16, 0x27, 0xdd, 0xd0, 0x0f, 0xfa,
    0xd1, 0xbc, 0x29, 0x1e, 0xec, 0xd8, 0x29, 0xf8, 0xd9, 0xcb, 0x11, 0x19, 0xc0,
    0xf2, 0x24, 0xfe, 0xf8, 0xd3, 0x27, 0x1f, 0xdc, 0xfc, 0x25, 0xe6, 0xde, 0xde,
    0x08, 0x33, 0xcf, 0xeb, 0x19, 0xd3, 0xe1, 0xd7, 0x1b, 0x25, 0xeb, 0xee, 0x2a,
    0xd8, 0xf0, 0xfa, 0x0d, 0x39, 0xbd, 0xe6, 0x17, 0xc3, 0x0c, 0xcb, 0x29, 0x38,
    0xe7, 0xf9, 0x0f, 0xdd, 0x01, 0xde, 0x1c, 0x1f, 0xd8, 0x17, 0x10, 0xe2, 0xdb,
    0xc4, 0x1c, 0x2b, 0xf7, 0xd1, 0x3b, 0xea, 0xf7, 0xc0, 0x22, 0x45, 0xc6, 0xeb,
    0x1d, 0xd8, 0xfa, 0xda, 0x18, 0x56, 0xd4, 0xd4, 0x27, 0xd4, 0xf4, 0xe4, 0x2d,
    0x39, 0xfb, 0xcc, 0x1d, 0xf0, 0xd0, 0xd7, 0x09, 0x1f, 0xef, 0xd5, 0xf5, 0xe9,
    0xff, 0xcb, 0x32, 0x16, 0xe4, 0xc8, 0x28, 0xdc, 0xed, 0xe4, 0x19, 0x39, 0xc8,
    0xf9, 0x17, 0xcf, 0xe2, 0xcc, 0x35, 0x38, 0xdb, 0xcf, 0xfa, 0xfc, 0x06, 0xc8,
    0x23, 0x41, 0xc5, 0xde, 0x11, 0xf3, 0xfc, 0xcc, 0x27, 0x12, 0xf3, 0xe7, 0x20,
    0xe9, 0xeb, 0xe6, 0x35, 0x31, 0xea, 0xf7, 0x2b, 0xd8, 0xe2, 0xd9, 0x20, 0x30,
    0xce, 0xe0, 0x02, 0xcd, 0xe2, 0xdd, 0x2f, 0x06, 0xe3, 0xda, 0x01, 0xcf, 0xe7,
    0xde, 0x31, 0x28, 0xff, 0xdd, 0x06, 0xe7, 0xf7, 0xf7, 0x1e, 0x2c, 0xf3, 0xe5,
    0x13, 0xed, 0xe0, 0xc1, 0xf8, 0x2b, 0xe6, 0xfc, 0x16, 0xd0, 0x06, 0xd5, 0x14,
    0x1b, 0xfc, 0xda, 0x3b, 0xec, 0xeb, 0xf8, 0x38, 0x3b, 0xf1, 0xf1, 0x05, 0xeb,
    0xfd, 0xce, 0x08, 0x2f, 0xb6, 0xfa, 0x28, 0xdb, 0xf9, 0xd9, 0x26, 0x37, 0xf8,
    0xe5, 0x22, 0xff, 0xfd, 0xcd, 0x0c, 0x48, 0xdb, 0x04, 0x28, 0x0a, 0xf4, 0xdc,
    0x1d, 0x0e, 0xd6, 0xf6, 0x1b, 0xe7, 0xfe, 0xbc, 0x09, 0x1a, 0xe0, 0xd6, 0x34,
    0x02, 0xfb, 0xe2, 0xfc, 0x3d, 0xe3, 0xe2, 0x26, 0xef, 0xf8, 0xea, 0x02, 0x2d,
    0xd5, 0xdb, 0x1f, 0xff, 0xfa, 0xdf, 0x18, 0x23, 0xe0, 0xfa, 0x1f, 0xee, 0xf4,
    0xca, 0xfa, 0x32, 0x02, 0x05, 0x18, 0xee, 0x0d, 0xcd, 0x28, 0x58, 0xe9, 0xfa,
    0x0f, 0xeb, 0xde, 0xe3, 0x04, 0x44, 0xd0, 0xe9, 0x09, 0xee, 0xe5, 0xe6, 0x2c,
    0x4d, 0xff, 0xd4, 0x22, 0xe4, 0xcd, 0xbe, 0x22, 0x0c, 0xd7, 0xeb, 0x2d, 0xea,
    0xf3, 0xea, 0x11, 0x1e, 0xd0, 0x02, 0xf7, 0xc6, 0xff, 0xc2, 0x02, 0x17, 0xd5,
    0xf9, 0x27, 0xce, 0xfc, 0xcf, 0x15, 0x3c, 0xe8, 0xdc, 0x02, 0xdd, 0xdd, 0xe3,
    0x2e, 0x25, 0xe1, 0xf0, 0x11, 0xfa, 0xe4, 0xe2, 0x00, 0x3f, 0xd9, 0xe0, 0x36,
    0xe9, 0xf2, 0xd7, 0x31, 0x26, 0xe1, 0xf9, 0x24, 0xcd, 0xdc, 0xda, 0x07, 0x36,
    0xdd, 0xe6, 0x19, 0xf1, 0x08, 0xd0, 0x17, 0x2e, 0xfe, 0xf2, 0x26, 0xe7, 0xde,
    0xf1, 0x3a, 0x30, 0xe9, 0xd9, 0x0b, 0xff, 0xf8, 0xed, 0x1c, 0x35, 0xe1, 0xdd,
    0x2c, 0xd7, 0xf6, 0xe8, 0xfe, 0x22, 0xcd, 0xee, 0x26, 0xd9, 0xf0, 0xc9, 0xfc,
    0x2f, 0xf5, 0xe5, 0x1f, 0xd8, 0xed, 0xbb, 0x05, 0x2d, 0xc4, 0xe4, 0x37, 0xcd,
    0x10, 0xde, 0x25, 0x4a, 0xc7, 0xeb, 0x05, 0xd8, 0x1b, 0xd2, 0x36, 0x35, 0xc8,
    0xee, 0x22, 0xf8, 0xfd, 0xc9, 0x1b, 0x2d, 0xca, 0xff, 0x08, 0xec, 0xf4, 0xd1,
    0x1d, 0x5a, 0xe1, 0x02, 0x35, 0xc7, 0xdf, 0xc3, 0xfa, 0x32, 0xec, 0x05, 0x2e,
    0xee, 0xe1, 0xce, 0x32, 0x3a, 0xb6, 0xef, 0x11, 0xee, 0xf7, 0xda, 0x13, 0x2f,
    0xc8, 0xe9, 0x28, 0xcf, 0xe3, 0xd3, 0x1d, 0x30, 0xe9, 0xe2, 0x31, 0xc2, 0xdc,
    0xe4, 0xf4, 0x45, 0xe7, 0xe7, 0x1a, 0xfc, 0xfd, 0xd1, 0x2b, 0x1f, 0xfc, 0xdd,
    0x3c, 0xef, 0x0e, 0xc3, 0x28, 0x2f, 0xf8, 0x09, 0x18, 0xf1, 0x01, 0xdb, 0x17,
    0x51, 0xe3, 0xe9, 0x23, 0x01, 0xdf, 0xde, 0x14, 0x14, 0xca, 0xf2, 0x02, 0xdc,
    0xf9, 0xd2, 0x28, 0x39, 0xd7, 0xd1, 0x13, 0xff, 0xdf, 0xcb, 0x0f, 0x39, 0xd6,
    0xe6, 0x03, 0xdf, 0xe1, 0xda, 0x34, 0x42, 0xd2, 0xd8, 0x3d, 0xd8, 0xe5, 0xd8,
    0x07, 0x57, 0xd9, 0xe2, 0x0f, 0xcc, 0xd8, 0xd8, 0x19, 0x37, 0x01, 0xd3, 0x25,
    0xed, 0xf9, 0xd4, 0x0f, 0x40, 0xd3, 0xdf, 0x00, 0xda, 0xd9, 0xcc, 0x1e, 0x2e,
    0xd5, 0xfa, 0x1c, 0xfe, 0xf8, 0xbc, 0x25, 0x35, 0xd3, 0xf3, 0x22, 0xf3, 0xdf,
    0xc1, 0x3d, 0x0b, 0xc4, 0xe0, 0x14, 0xec, 0xf9, 0xd5, 0x19, 0x16, 0xd1, 0xe0,
    0x29, 0xe7, 0xe0, 0xc7, 0x2b, 0x18, 0xfd, 0xf6, 0x22, 0xe2, 0xea, 0xb8, 0x10,
    0x19, 0xd7, 0xfa, 0x42, 0xea, 0xe6, 0xdd, 0x16, 0x40, 0xd8, 0xe6, 0x2b, 0xf4,
    0xfd, 0xd3, 0x34, 0x31, 0xee, 0xcd, 0x1b, 0xf6, 0xf3, 0xc0, 0x08, 0x16, 0xfd,
    0xcd, 0x08, 0xe1, 0xf8, 0xef, 0x13, 0x35, 0xf3, 0xea, 0x2a, 0xf8, 0xc9, 0xf3,
    0x11, 0x20, 0xe9, 0xfc, 0x42, 0xe3, 0x09, 0xc0, 0xf7, 0x40, 0xd9, 0xf5, 0x1d,
    0xc0, 0xdf, 0xcd, 0x2c, 0x10, 0xdc, 0xf4, 0x09, 0xd3, 0xef, 0xd7, 0x21, 0x26,
    0xd7, 0xde, 0x18, 0xf8, 0xd9, 0xce, 0xee, 0x2b, 0xd8, 0xcc, 0x1b, 0xfe, 0xe7,
    0xe7, 0x28, 0x27, 0x00, 0xe2, 0x21, 0xd8, 0xd8, 0xd6, 0x21, 0x16, 0xc2, 0xd5,
    0x37, 0xf1, 0x0c, 0xe0, 0x32, 0x14, 0xec, 0x03, 0x22, 0xf7, 0x14, 0xe1, 0xff,
    0x1b, 0xe6, 0xda, 0x2c, 0xd3, 0xd9, 0xc7, 0x09, 0x12, 0xc6, 0xda, 0x26, 0x00,
    0x00, 0x00, 0x00, 0x00, 0x00, 0x00, 0x00, 0x00, 0x00, 0x00, 0x00, 0x00, 0x00,
    0x00, 0x00, 0x00, 0x00, 0x00, 0x00, 0x00, 0x00, 0x00, 0x00, 0x00, 0x00, 0x00,
    0x00, 0x00, 0x00, 0x00, 0x00, 0x00, 0x00, 0x00, 0x00, 0x00, 0x00, 0x00, 0x00,
    0x00, 0x00, 0x00, 0x00, 0x00, 0x00, 0x00, 0x00, 0x00, 0x00, 0x00, 0x00, 0x00,
    0x00, 0x00, 0x00, 0x00, 0x00, 0x00, 0x00, 0x00, 0x00, 0x00, 0x00, 0x00, 0x00,
    0x00, 0x00, 0x00, 0x00, 0x00, 0x00, 0x00, 0x00, 0x00, 0x00, 0x00, 0x00, 0x00,
    0x00, 0x00, 0x00, 0x00, 0x00, 0x00, 0x00, 0x00, 0x00, 0x00, 0x00, 0x00, 0x00,
    0x00, 0x00, 0x00, 0x00, 0x00, 0x00, 0x00, 0x00, 0x00, 0x00, 0x00, 0x00, 0x00,
    0x00, 0x00, 0x00, 0x00, 0x00, 0x00, 0x00, 0x00, 0x00, 0x00, 0x00, 0x00, 0x00,
    0x00, 0x00, 0x00, 0x00, 0x00, 0x00, 0x00, 0x00, 0x00, 0x00, 0x00, 0x00, 0x00,
    0x00, 0x00, 0x00, 0x00, 0x00, 0x00, 0x00, 0x00, 0x00, 0x00, 0x00, 0x00, 0x00,
    0x00, 0x00, 0x00, 0x00, 0x00, 0x00, 0x00, 0x00, 0x00, 0x00, 0x00, 0x00, 0x00,
    0x00, 0x00, 0x00, 0x00, 0x00, 0x00, 0x00, 0x00, 0x00, 0x00, 0x00, 0x00, 0x00,
    0x00, 0x00, 0x00, 0x00, 0x00, 0x00, 0x00, 0x00, 0x00, 0x00, 0x00, 0x00, 0x00,
    0x00, 0x00, 0x00, 0x00, 0x00, 0x00, 0x00, 0x00, 0x00, 0x00, 0x00, 0x00, 0x00,
    0x00, 0x00, 0x00, 0x00, 0x00, 0x00, 0x00, 0x00, 0x00, 0x00, 0x00, 0x00, 0x00,
    0x00, 0x00, 0x00, 0x00, 0x00, 0x00, 0x00, 0x00, 0x00, 0x00, 0x00, 0x00, 0x00,
    0x00, 0x00, 0x00, 0x00, 0x00, 0x00, 0x00, 0x00, 0x00, 0x00, 0x00, 0x00, 0x00,
    0x00, 0x00, 0x00, 0x00, 0x00, 0x00, 0x00, 0x00, 0x00, 0x00, 0x00, 0x00, 0x00,
    0x00, 0x00, 0x00, 0x00, 0x00, 0x00, 0x00, 0x00, 0x00, 0x00, 0x00, 0x00, 0x00,
    0x00, 0x00, 0x00, 0x00, 0x00, 0x00, 0x00, 0x00, 0x00, 0x00, 0x00, 0x00, 0x00,
    0x00, 0x00, 0x00, 0x00, 0x00, 0x00, 0x00, 0x00, 0x00, 0x00, 0x00, 0x00, 0x00,
    0x00, 0x00, 0x00, 0x00, 0x00, 0x00, 0x00, 0x00, 0x00, 0x00, 0x00, 0x00, 0x00,
    0x00, 0x00, 0x00, 0x00, 0x00, 0x00, 0x00, 0x00, 0x00, 0x00, 0x00, 0x00, 0x00,
    0x00, 0x00, 0x00, 0x00, 0x00, 0x00, 0x00, 0x00, 0x00, 0x00, 0x00, 0x00, 0x00,
    0x00, 0x00, 0x00, 0x00, 0x00, 0x00, 0x00, 0x00, 0x00, 0x00, 0x00, 0x00, 0x00,
    0x00, 0x00, 0x00, 0x00, 0x00, 0x00, 0x00, 0x00, 0x00, 0x00, 0x00, 0x00, 0x00,
    0x00, 0x00, 0x00, 0x00, 0x00, 0x00, 0x00, 0x00, 0x00, 0x00, 0x00, 0x00, 0x00,
    0x00, 0x00, 0x00, 0x00, 0x00, 0x00, 0x00, 0x00, 0x00, 0x00, 0x00, 0x00, 0x00,
    0x00, 0x00, 0x00, 0x00, 0x00, 0x00, 0x00, 0x00, 0x00, 0x00, 0x00, 0x00, 0x00,
    0x00, 0x00, 0x00, 0x00, 0x00, 0x00, 0x00, 0x00, 0x00, 0x00, 0x00, 0x00, 0x00,
    0x00, 0x00, 0x00, 0x00, 0x00, 0x00, 0x00, 0x00, 0x00, 0x00, 0x00, 0x00, 0x00,
    0x00, 0x00, 0x00, 0x00, 0x00, 0x00, 0x00, 0x00, 0x00, 0x00, 0x00, 0x00, 0x00,
    0x00, 0x00, 0x00, 0x00, 0x00, 0x00, 0x00, 0x00, 0x00, 0x00, 0x00, 0x00, 0x00,
    0x00, 0x00, 0x00, 0x00, 0x00, 0x00, 0x00, 0x00, 0x00, 0x00, 0x00, 0x00, 0x00,
    0x00, 0x00, 0x00, 0x00, 0x00, 0x00, 0x00, 0x00, 0x00, 0x00, 0x00, 0x00, 0x00,
    0x00, 0x00, 0x00, 0x00, 0x00, 0x00, 0x00, 0x00, 0x00, 0x00, 0x00, 0x00, 0x00,
    0x00, 0x00, 0x00, 0x00, 0x00, 0x00, 0x00, 0x00, 0x00, 0x00, 0x00, 0x00, 0x00,
    0x00, 0x00, 0x00, 0x00, 0x00, 0x00, 0x00, 0x00, 0x00, 0x00, 0x00, 0x00, 0x00,
    0x00, 0x00, 0x00, 0x00, 0x00, 0x00, 0x00, 0x00, 0x00, 0x00, 0x00, 0x00, 0x00,
    0x00, 0x00, 0x00, 0x00, 0x00, 0x00, 0x00, 0x00, 0x00, 0x00, 0x00, 0x00, 0x00,
    0x00, 0x00, 0x00, 0x00, 0x00, 0x00, 0x00, 0x00, 0x00, 0x00, 0x00, 0x00, 0x00,
    0x00, 0x00, 0x00, 0x00, 0x00, 0x00, 0x00, 0x00, 0x00, 0x00, 0x00, 0x00, 0x00,
    0x00, 0x00, 0x00, 0x00, 0x00, 0x00, 0x00, 0x00, 0x00, 0x00, 0x00, 0x00, 0x00,
    0x00, 0x00, 0x00, 0x00, 0x00, 0x00, 0x00, 0x00, 0x00, 0x00, 0x00, 0x00, 0x00,
    0x00, 0x00, 0x00, 0x00, 0x00, 0x00, 0x00, 0x00, 0x00, 0x00, 0x00, 0x00, 0x00,
    0x00, 0x00, 0x00, 0x00, 0x00, 0x00, 0x00, 0x00, 0x00, 0x00, 0x00, 0x00, 0x00,
    0x00, 0x00, 0x00, 0x00, 0x00, 0x00, 0x00, 0x00, 0x00, 0x00, 0x00, 0x00, 0x00,
    0x00, 0x00, 0x00, 0x00, 0x00, 0x00, 0x00, 0x00, 0x00, 0x00, 0x00, 0x00, 0x00,
    0x00, 0x00, 0x00, 0x00, 0x00, 0x00, 0x00, 0x00, 0x00, 0x00, 0x00, 0x00, 0x00,
    0x00, 0x00, 0x00, 0x00, 0x00, 0x00, 0x00, 0x00, 0x00, 0x00, 0x00, 0x00, 0x00,
    0x00, 0x00, 0x00, 0x00, 0x00, 0x00, 0x00, 0x00, 0x00, 0x00, 0x00, 0x00, 0x00,
    0x00, 0x00, 0x00, 0x00, 0x00, 0x00, 0x00, 0x00, 0x00, 0x00, 0x00, 0x00, 0x00,
    0x00, 0x00, 0x00, 0x00, 0x00, 0x00, 0x00, 0x00, 0x00, 0x00, 0x00, 0x00, 0x00,
    0x00, 0x00, 0x00, 0x00, 0x00, 0x00, 0x00, 0x00, 0x00, 0x00, 0x00, 0x00, 0x00,
    0x00, 0x00, 0x00, 0x00, 0x00, 0x00, 0x00, 0x00, 0x00, 0x00, 0x00, 0x00, 0x00,
    0x00, 0x00, 0x00, 0x00, 0x00, 0x00, 0x00, 0x00, 0x00, 0x00, 0x00, 0x00, 0x00,
    0x00, 0x00, 0x00, 0x00, 0x00, 0x00, 0x00, 0x00, 0x00, 0x00, 0x00, 0x00, 0x00,
    0x00, 0x00, 0x00, 0x00, 0x00, 0x00, 0x00, 0x00, 0x00, 0x00, 0x00, 0x00, 0x00,
    0x00, 0x00, 0x00, 0x00, 0x00, 0x00, 0x00, 0x00, 0x00, 0x00, 0x00, 0x00, 0x00,
    0x00, 0x00, 0x00, 0x00, 0x00, 0x00, 0x00, 0x00, 0x00, 0x00, 0x00, 0x00, 0x00,
    0x00, 0x00, 0x00, 0x00, 0x00, 0x00, 0x00, 0x00, 0x00, 0x00, 0x00, 0x00, 0x00,
    0x00, 0x00, 0x00, 0x00, 0x00, 0x00, 0x00, 0x00, 0x00, 0x00, 0x00, 0x00, 0x00,
    0x00, 0x00, 0x00, 0x00, 0x00, 0x00, 0x00, 0x00, 0x00, 0x00, 0x00, 0x00, 0x00,
    0x00, 0x00, 0x00, 0x00, 0x00, 0x00, 0x00, 0x00, 0x00, 0x00, 0x00, 0x00, 0x00,
    0x00, 0x00, 0x00, 0x00, 0x00, 0x00, 0x00, 0x00, 0x00, 0x00, 0x00, 0x00, 0x00,
    0x00, 0x00, 0x00, 0x00, 0x00, 0x00, 0x00, 0x00, 0x00, 0x00, 0x00, 0x00, 0x00,
    0x00, 0x00, 0x00, 0x00, 0x00, 0x00, 0x00, 0x00, 0x00, 0x00, 0x00, 0x00, 0x00,
    0x00, 0x00, 0x00, 0x00, 0x00, 0x00, 0x00, 0x00, 0x00, 0x00, 0x00, 0x00, 0x00,
    0x00, 0x00, 0x00, 0x00, 0x00, 0x00, 0x00, 0x00, 0x00, 0x00, 0x00, 0x00, 0x00,
    0x00, 0x00, 0x00, 0x00, 0x00, 0x00, 0x00, 0x00, 0x00, 0x00, 0x00, 0x00, 0x00,
    0x00, 0x00, 0x00, 0x00, 0x00, 0x00, 0x00, 0x00, 0x00, 0x00, 0x00, 0x00, 0x00,
    0x00, 0x00, 0x00, 0x00, 0x00, 0x00, 0x00, 0x00, 0x00, 0x00, 0x00, 0x00, 0x00,
    0x00, 0x00, 0x00, 0x00, 0x00, 0x00, 0x00, 0x00, 0x00, 0x00, 0x00, 0x00, 0x00,
    0x00, 0x00, 0x00, 0x00, 0x00, 0x00, 0x00, 0x00, 0x00, 0x00, 0x00, 0x00, 0x00,
    0x00, 0x00, 0x00, 0x00, 0x00, 0x00, 0x00, 0x00, 0x00, 0x00, 0x00, 0x00, 0x00,
    0x00, 0x00, 0x00, 0x00, 0x00, 0x00, 0x00, 0x00, 0x00, 0x00, 0x00, 0x00, 0x00,
    0x00, 0x00, 0x00, 0x00, 0x00, 0x00, 0x00, 0x00, 0x00, 0x00, 0x00, 0x00, 0x00,
    0x00, 0x00, 0x00, 0x00, 0x00, 0x00, 0x00, 0x00, 0x00, 0x00, 0x00, 0x00, 0x00,
    0x00, 0x00, 0x00, 0x00, 0x00, 0x00, 0x00, 0x00, 0x00, 0x00, 0x00, 0x00, 0x00,
    0x00, 0x00, 0x00, 0x00, 0x00, 0x00, 0x00, 0x00, 0x00, 0x00, 0x00, 0x00, 0x00,
    0x00, 0x00, 0x00, 0x00, 0x00, 0x00, 0x00, 0x00, 0x00, 0x00, 0x00, 0x00, 0x00,
    0x00, 0x00, 0x00, 0x00, 0x00, 0x00, 0x00, 0x00, 0x00, 0x00, 0x00, 0x00, 0x00,
    0x00, 0x00, 0x00, 0x00, 0x00, 0x00, 0x00, 0x00, 0x00, 0x00, 0x00, 0x00, 0x00,
    0x00, 0x00, 0x00, 0x00, 0x00, 0x00, 0x00, 0x00, 0x00, 0x00, 0x00, 0x00, 0x00,
    0x00, 0x00, 0x00, 0x00, 0x00, 0x00, 0x00, 0x00, 0x00, 0x00, 0x00, 0x00, 0x00,
    0x00, 0x00, 0x00, 0x00, 0x00, 0x00, 0x00, 0x00, 0x00, 0x00, 0x00, 0x00, 0x00,
    0x00, 0x00, 0x00, 0x00, 0x00, 0x00, 0x00, 0x00, 0x00, 0x00, 0x00, 0x00, 0x00,
    0x00, 0x00, 0x00, 0x00, 0x00, 0x00, 0x00, 0x00, 0x00, 0x00, 0x00, 0x00, 0x00,
    0x00, 0x00, 0x00, 0x00, 0x00, 0x00, 0x00, 0x00, 0x00, 0x00, 0x00, 0x00, 0x00,
    0x00, 0x00, 0x00, 0x00, 0x00, 0x00, 0x00, 0x00, 0x00, 0x00, 0x00, 0x00, 0x00,
    0x00, 0x00, 0x00, 0x00, 0x00, 0x00, 0x00, 0x00, 0x00, 0x00, 0x00, 0x00, 0x00,
    0x00, 0x00, 0x00, 0x00, 0x00, 0x00, 0x00, 0x00, 0x00, 0x00, 0x00, 0x00, 0x00,
    0x00, 0x00, 0x00, 0x00, 0x00, 0x00, 0x00, 0x00, 0x00, 0x00, 0x00, 0x00, 0x00,
    0x00, 0x00, 0x00, 0x00, 0x00, 0x00, 0x00, 0x00, 0x00, 0x00, 0x00, 0x00, 0x00,
    0x00, 0x00, 0x00, 0x00, 0x00, 0x00, 0x00, 0x00, 0x00, 0x00, 0x00, 0x00, 0x00,
    0x00, 0x00, 0x00, 0x00, 0x00, 0x00, 0x00, 0x00, 0x00, 0x00, 0x00, 0x00, 0x00,
    0x00, 0x00, 0x00, 0x00, 0x00, 0x00, 0x00, 0x00, 0x00, 0x00, 0x00, 0x00, 0x00,
    0x00, 0x00, 0x00, 0x00, 0x00, 0x00, 0x00, 0x00, 0x00, 0x00, 0x00, 0x00, 0x00,
    0x00, 0x00, 0x00, 0x00, 0x00, 0x00, 0x00, 0x00, 0x00, 0x00, 0x00, 0x00, 0x00,
    0x00, 0x00, 0x00, 0x00, 0x00, 0x00, 0x00, 0x00, 0x00, 0x00, 0x00, 0x00, 0x00,
    0x00, 0x00, 0x00, 0x00, 0x00, 0x00, 0x00, 0x00, 0x00, 0x00, 0x00, 0x00, 0x00,
    0x00, 0x00, 0x00, 0x00, 0x00, 0x00, 0x00, 0x00, 0x00, 0x00, 0x00, 0x00, 0x00,
    0x00, 0x00, 0x00, 0x00, 0x00, 0x00, 0x00, 0x00, 0x00, 0x00, 0x00, 0x00, 0x00,
    0x00, 0x00, 0x00, 0x00, 0x00, 0x00, 0x00, 0x00, 0x00, 0x00, 0x00, 0x00, 0x00,
    0x00, 0x00, 0x00, 0x00, 0x00, 0x00, 0x00, 0x00, 0x00, 0x00, 0x00, 0x00, 0x00,
    0x00, 0x00, 0x00, 0x00, 0x00, 0x00, 0x00, 0x00, 0x00, 0x00, 0x00, 0x00, 0x00,
    0x00, 0x00, 0x00, 0x00, 0x00, 0x00, 0x00, 0x00, 0x00, 0x00, 0x00, 0x00, 0x00,
    0x00, 0x00, 0x00, 0x00, 0x00, 0x00, 0x00, 0x00, 0x00, 0x00, 0x00, 0x00, 0x00,
    0x00, 0x00, 0x00, 0x00, 0x00, 0x00, 0x00, 0x00, 0x00, 0x00, 0x00, 0x00, 0x00,
    0x00, 0x00, 0x00, 0x00, 0x00, 0x00, 0x00, 0x00, 0x00, 0x00, 0x00, 0x00, 0x00,
    0x00, 0x00, 0x00, 0x00, 0x00, 0x00, 0x00, 0x00, 0x00, 0x00, 0x00, 0x00, 0x00,
    0x00, 0x00, 0x00, 0x00, 0x00, 0x00, 0x00, 0x00, 0x00, 0x00, 0x00, 0x00, 0x00,
    0x00, 0x00, 0x00, 0x00, 0x00, 0x00, 0x00, 0x00, 0x00, 0x00, 0x00, 0x00, 0x00,
    0x00, 0x00, 0x00, 0x00, 0x00, 0x00, 0x00, 0x00, 0x00, 0x00, 0x00, 0x00, 0x00,
    0x00, 0x00, 0x00, 0x00, 0x00, 0x00, 0x00, 0x00, 0x00, 0x00, 0x00, 0x00, 0x00,
    0x00, 0x00, 0x00, 0x00, 0x00, 0x00, 0x00, 0x00, 0x00, 0x00, 0x00, 0x00, 0x00,
    0x00, 0x00, 0x00, 0x00, 0x00, 0x00, 0x00, 0x00, 0x00, 0x00, 0x00, 0x00, 0x00,
    0x00, 0x00, 0x00, 0x00, 0x00, 0x00, 0x00, 0x00, 0x00, 0x00, 0x00, 0x00, 0x00,
    0x00, 0x00, 0x00, 0x00, 0x00, 0x00, 0x00, 0x00, 0x00, 0x00, 0x00, 0x00, 0x00,
    0x00, 0x00, 0x00, 0x00, 0x00, 0x00, 0x00, 0x00, 0x00, 0x00, 0x00, 0x00, 0x00,
    0x00, 0x00, 0x00, 0x00, 0x00, 0x00, 0x00, 0x00, 0x00, 0x00, 0x00, 0x00, 0x00,
    0x00, 0x00, 0x00, 0x00, 0x00, 0x00, 0x00, 0x00, 0x00, 0x00, 0x00, 0x00, 0x00,
    0x00, 0x00, 0x00, 0x00, 0x00, 0x00, 0x00, 0x00, 0x00, 0x00, 0x00, 0x00, 0x00,
    0x00, 0x00, 0x00, 0x00, 0x00, 0x00, 0x00, 0x00, 0x00, 0x00, 0x00, 0x00, 0x00,
    0x00, 0x00, 0x00, 0x00, 0x00, 0x00, 0x00, 0x00, 0x00, 0x00, 0x00, 0x00, 0x00,
    0x00, 0x00, 0x00, 0x00, 0x00, 0x00, 0x00, 0x00, 0x00, 0x00, 0x00, 0x00, 0x00,
    0x00, 0x00, 0x00, 0x00, 0x00, 0x00, 0x00, 0x00, 0x00, 0x00, 0x00, 0x00, 0x00,
    0x00, 0x00, 0x00, 0x00, 0x00, 0x00, 0x00, 0x00, 0x00, 0x00, 0x00, 0x00, 0x00,
    0x00, 0x00, 0x00, 0x00, 0x00, 0x00, 0x00, 0x00, 0x00, 0x00, 0x00, 0x00, 0x00,
    0x00, 0x00, 0x00, 0x00, 0x00, 0x00, 0x00, 0x00, 0x00, 0x00, 0x00, 0x00, 0x00,
    0x00, 0x00, 0x00, 0x00, 0x00, 0x00, 0x00, 0x00, 0x00, 0x00, 0x00, 0x00, 0x00,
    0x00, 0x00, 0x00, 0x00, 0x00, 0x00, 0x00, 0x00, 0x00, 0x00, 0x00, 0x00, 0x00,
    0x00, 0x00, 0x00, 0x00, 0x00, 0x00, 0x00, 0x00, 0x00, 0x00, 0x00, 0x00, 0x00,
    0x00, 0x00, 0x00, 0x00, 0x00, 0x00, 0x00, 0x00, 0x00, 0x00, 0x00, 0x00, 0x00,
    0x00, 0x00, 0x00, 0x00, 0x00, 0x00, 0x00, 0x00, 0x00, 0x00, 0x00, 0x00, 0x00,
    0x00, 0x00, 0x00, 0x00, 0x00, 0x00, 0x00, 0x00, 0x00, 0x00, 0x00, 0x00, 0x00,
    0x00, 0x00, 0x00, 0x00, 0x00, 0x00, 0x00, 0x00, 0x00, 0x00, 0x00, 0x00, 0x00,
    0x00, 0x00, 0x00, 0x00, 0x00, 0x00, 0x00, 0x00, 0x00, 0x00, 0x00, 0x00, 0x00,
    0x00, 0x00, 0x00, 0x00, 0x00, 0x00, 0x00, 0x00, 0x00, 0x00, 0x00, 0x00, 0x00,
    0x00, 0x00, 0x00, 0x00, 0x00, 0x00, 0x00, 0x00, 0x00, 0x00, 0x00, 0x00, 0x00,
    0x00, 0x00, 0x00, 0x00, 0x00, 0x00, 0x00, 0x00, 0x00, 0x00, 0x00, 0x00, 0x00,
    0x00, 0x00, 0x00, 0x00, 0x00, 0x00, 0x00, 0x00, 0x00, 0x00, 0x00, 0x00, 0x00,
    0x00, 0x00, 0x00, 0x00, 0x00, 0x00, 0x00, 0x00, 0x00, 0x00, 0x00, 0x00, 0x00,
    0x00, 0x00, 0x00, 0x00, 0x00, 0x00, 0x00, 0x00, 0x00, 0x00, 0x00, 0x00, 0x00,
    0x00, 0x00, 0x00, 0x00, 0x00, 0x00, 0x00, 0x00, 0x00, 0x00, 0x00, 0x00, 0x00,
    0x00, 0x00, 0x00, 0x00, 0x00, 0x00, 0x00, 0x00, 0x00, 0x00, 0x00, 0x00, 0x00,
    0x00, 0x00, 0x00, 0x00, 0x00, 0x00, 0x00, 0x00, 0x00, 0x00, 0x00, 0x00, 0x00,
    0x00, 0x00, 0x00, 0x00, 0x00, 0x00, 0x00, 0x00, 0x00, 0x00, 0x00, 0x00, 0x00,
    0x00, 0x00, 0x00, 0x00, 0x00, 0x00, 0x00, 0x00, 0x00, 0x00, 0x00, 0x00, 0x00,
    0x00, 0x00, 0x00, 0x00, 0x00, 0x00, 0x00, 0x00, 0x00, 0x00, 0x00, 0x00, 0x00,
    0x00, 0x00, 0x00, 0x00, 0x00, 0x00, 0x00, 0x00, 0x00, 0x00, 0x00, 0x00, 0x00,
    0x00, 0x00, 0x00, 0x00, 0x00, 0x00, 0x00, 0x00, 0x00, 0x00, 0x00, 0x00, 0x00,
    0x00, 0x00, 0x00, 0x00, 0x00, 0x00, 0x00, 0x00, 0x00, 0x00, 0x00, 0x00, 0x00,
    0x00, 0x00, 0x00, 0x00, 0x00, 0x00, 0x00, 0x00, 0x00, 0x00, 0x00, 0x00, 0x00,
    0x00, 0x00, 0x00, 0x00, 0x00, 0x00, 0x00, 0x00, 0x00, 0x00, 0x00, 0x00, 0x00,
    0x00, 0x00, 0x00, 0xdb, 0x1d, 0xec, 0x00, 0x06, 0xd1, 0xef, 0x12, 0xe2, 0x23,
    0xe8, 0xfd, 0x1c, 0xdd, 0xe1, 0x10, 0xeb, 0x26, 0xe1, 0xfe, 0x19, 0xd1, 0xe8,
    0x11, 0xd6, 0x25, 0xe8, 0x03, 0x16, 0xd1, 0xe4, 0x0f, 0xda, 0x25, 0xf0, 0xff,
    0x1a, 0xd2, 0xea, 0x13, 0xdf, 0x26, 0xf1, 0x07, 0x10, 0xd7, 0xee, 0x1a, 0xdc,
    0x24, 0xea, 0x02, 0x15, 0xd6, 0xeb, 0x08, 0xec, 0x19, 0xea, 0xf8, 0x14, 0xdd,
    0xe6, 0x0b, 0xed, 0x2b, 0xd9, 0xf9, 0x14, 0xd8, 0xf4, 0x05, 0xee, 0x1a, 0xf6,
    0xff, 0x0a, 0xce, 0xdf, 0x08, 0xdd, 0x1f, 0xe1, 0x0b, 0x1e, 0xcb, 0xe7, 0x10,
    0xd4, 0x17, 0xe4, 0x0a, 0x0b, 0xca, 0xe0, 0x08, 0xe7, 0x20, 0xeb, 0xff, 0x0b,
    0xd2, 0xec, 0x0d, 0xf0, 0x1a, 0xe0, 0x03, 0x0c, 0xda, 0xf0, 0x13, 0xf0, 0x1f,
    0xf4, 0x0b, 0x01, 0xd6, 0xe8, 0x0a, 0xdf, 0x26, 0xe5, 0x01, 0x14, 0xcf, 0xd6,
    0x0b, 0xe4, 0x25, 0xde, 0xf0, 0x13, 0xcf, 0xec, 0x15, 0xe5, 0x20, 0xec, 0xfc,
    0x21, 0xdf, 0xe7, 0x1b, 0xda, 0x1e, 0xe4, 0xff, 0x0d, 0xcd, 0xf3, 0x14, 0xe7,
    0x1e, 0xe8, 0x0c, 0x00, 0xd0, 0xed, 0x07, 0xe4, 0x1d, 0xe6, 0x05, 0x17, 0xde,
    0xf0, 0x06, 0xe8, 0x2c, 0xed, 0xfb, 0x0f, 0xd1, 0xe9, 0x10, 0xe1, 0x1a, 0xed,
    0x06, 0x0c, 0xd7, 0xf2, 0x09, 0xe8, 0x2b, 0xeb, 0xf6, 0x12, 0xd9, 0xf1, 0x0f,
    0xe4, 0x23, 0xef, 0xfd, 0x13, 0xe2, 0xe8, 0x06, 0xf0, 0x22, 0xe4, 0x02, 0x0b,
    0xd3, 0xf2, 0x13, 0xe8, 0x26, 0xe7, 0xf2, 0x13, 0xd3, 0xf5, 0x07, 0xe9, 0x1a,
    0xe8, 0x05, 0x1f, 0xd8, 0xea, 0x15, 0xe3, 0x2a, 0xe3, 0x01, 0x13, 0xd8, 0xdd,
    0x07, 0xeb, 0x1b, 0xf3, 0x08, 0x09, 0xcd, 0xe9, 0x11, 0xe9, 0x1f, 0xeb, 0x01,
    0x13, 0xc8, 0xee, 0x0e, 0xf0, 0x29, 0xe6, 0x0a, 0x18, 0xd4, 0xf3, 0x0a, 0xed,
    0x1c, 0xe9, 0xf7, 0x0f, 0xdb, 0xfb, 0x11, 0xea, 0x2e, 0xe0, 0xff, 0x15, 0xe1,
    0xf0, 0x18, 0xe3, 0x1f, 0xe3, 0x04, 0x13, 0xd4, 0xed, 0x0f, 0xe3, 0x21, 0xf2,
    0x0a, 0x0a, 0xcd, 0xf3, 0x1a, 0xf1, 0x1d, 0xe8, 0x00, 0x0c, 0xde, 0xf0, 0x0e,
    0xf3, 0x25, 0xe4, 0x06, 0x16, 0xe1, 0xf3, 0x10, 0xe9, 0x19, 0xeb, 0x0b, 0x0d,
    0xd7, 0xe2, 0x07, 0xe6, 0x23, 0xe3, 0x01, 0x11, 0xdf, 0xed, 0x01, 0xea, 0x2f,
    0xe7, 0x05, 0x16, 0xd6, 0xe7, 0x06, 0xe9, 0x21, 0xee, 0x05, 0x10, 0xd8, 0xe3,
    0x0f, 0xec, 0x1a, 0xe3, 0xfd, 0x11, 0xe3, 0xfb, 0x0f, 0xed, 0x19, 0xe5, 0x05,
    0x11, 0xd5, 0xe6, 0x0b, 0xda, 0x1a, 0xee, 0xff, 0x10, 0xc8, 0xdd, 0x07, 0xe8,
    0x21, 0xf0, 0x0b, 0x18, 0xda, 0xdd, 0x08, 0xdf, 0x24, 0xf1, 0x0c, 0x1b, 0xcf,
    0xec, 0x0c, 0xe9, 0x19, 0xf9, 0xff, 0x0e, 0xd0, 0xec, 0x10, 0xed, 0x20, 0xe2,
    0x02, 0x12, 0xcf, 0xeb, 0x09, 0xe7, 0x27, 0xec, 0xfd, 0x08, 0xce, 0xf1, 0x05,
    0xdd, 0x20, 0xe9, 0x09, 0x12, 0xd4, 0xe1, 0x0c, 0xdd, 0x19, 0xea, 0xfd, 0x15,
    0xd0, 0xea, 0x05, 0xeb, 0x17, 0xef, 0x06, 0x10, 0xde, 0xf2, 0x05, 0xec, 0x26,
    0xe4, 0xfb, 0x0d, 0xd8, 0xf6, 0x06, 0xe3, 0x17, 0xf3, 0x02, 0x15, 0xcd, 0xe3,
    0x0d, 0xe9, 0x23, 0xea, 0xff, 0x19, 0xd7, 0xd9, 0x15, 0xe7, 0x20, 0xee, 0x09,
    0x10, 0xcd, 0xe7, 0x0b, 0xe4, 0x26, 0xec, 0x02, 0x17, 0xd3, 0xd9, 0x11, 0xf1,
    0x1d, 0xeb, 0xf8, 0x20, 0xe2, 0xf4, 0x0f, 0xd8, 0x1d, 0xe5, 0x06, 0x0c, 0xd6,
    0xee, 0x05, 0xeb, 0x21, 0xe8, 0x06, 0x12, 0xdc, 0xe5, 0x0b, 0xe7, 0x23, 0xf6,
    0xfd, 0x17, 0xcc, 0xe6, 0x09, 0xe5, 0x29, 0xe0, 0x05, 0x0b, 0xc9, 0xe7, 0x05,
    0xe1, 0x2a, 0xe3, 0x08, 0x12, 0xdb, 0xe9, 0x15, 0xdf, 0x1c, 0xe0, 0x06, 0x10,
    0xd4, 0xe3, 0x10, 0xd8, 0x19, 0xed, 0x08, 0x09, 0xca, 0xe1, 0x16, 0xee, 0x25,
    0xeb, 0xf8, 0x17, 0xd4, 0xea, 0x09, 0xe5, 0x1d, 0xdf, 0xfe, 0x13, 0xca, 0xef,
    0x0d, 0xf1, 0x1e, 0xe0, 0xff, 0x10, 0xd9, 0xed, 0x07, 0xe7, 0x21, 0xeb, 0x01,
    0x0f, 0xd4, 0xed, 0x0c, 0xeb, 0x18, 0xe7, 0x05, 0x0b, 0xce, 0xda, 0x07, 0xe7,
    0x1e, 0xdf, 0x06, 0x0c, 0xca, 0xe1, 0x0b, 0xf2, 0x23, 0xea, 0x09, 0x0d, 0xce,
    0xfc, 0x07, 0xdf, 0x24, 0xed, 0x07, 0x0d, 0xda, 0xec, 0x12, 0xe8, 0x2d, 0xdc,
    0x00, 0x18, 0xd6, 0xec, 0x0d, 0xe1, 0x13, 0xe2, 0xfe, 0x0a, 0xd2, 0xde, 0x05,
    0xee, 0x20, 0xf4, 0xfd, 0x14, 0xda, 0xf6, 0x11, 0xee, 0x1a, 0xec, 0x03, 0x15,
    0xe0, 0xe5, 0x0a, 0xee, 0x27, 0xe7, 0x07, 0x0f, 0xd2, 0xe7, 0x08, 0xe6, 0x23,
    0xf1, 0x05, 0x0d, 0xe8, 0xe9, 0x0b, 0xee, 0x24, 0xf3, 0xfe, 0x0e, 0xcc, 0xe8,
    0x02, 0xef, 0x1b, 0xe9, 0xfd, 0x13, 0xd7, 0xe9, 0x14, 0xda, 0x27, 0xea, 0xfe,
    0x0e, 0xce, 0xf8, 0x0d, 0xf3, 0x19, 0xf1, 0x09, 0x08, 0xca, 0xea, 0x03, 0xdc,
    0x11, 0xe7, 0x09, 0x1e, 0xd7, 0xf4, 0x0f, 0xe1, 0x22, 0xf9, 0xfa, 0x17, 0xcd,
    0xf2, 0x0f, 0xe5, 0x25, 0xe5, 0xfb, 0x0e, 0xd5, 0xed, 0x13, 0xe0, 0x21, 0xf4,
    0xfe, 0x17, 0xd4, 0xe5, 0x0b, 0xf6, 0x26, 0xd9, 0x01, 0x13, 0xce, 0xe6, 0x0e,
    0xec, 0x2b, 0xe4, 0xfa, 0x05, 0xd7, 0xe8, 0x0f, 0xdc, 0x21, 0xe4, 0x01, 0x07,
    0xd8, 0xe8, 0x17, 0xe6, 0x23, 0xef, 0xfd, 0x0d, 0xd2, 0xea, 0x11, 0xe0, 0x26,
    0xdd, 0x0a, 0x14, 0xca, 0xef, 0x0b, 0xe2, 0x1d, 0xe5, 0xf7, 0x0d, 0xde, 0xe7,
    0x14, 0xeb, 0x1e, 0xf1, 0xfa, 0xfd, 0xc6, 0xf7, 0x0f, 0xf1, 0x19, 0xe6, 0x08,
    0x0d, 0xc9, 0xec, 0x11, 0xdd, 0x21, 0xed, 0x09, 0x15, 0xdc, 0xeb, 0x0c, 0xdf,
    0x1e, 0xec, 0xf8, 0x15, 0xd5, 0xea, 0x0e, 0xe6, 0x1f, 0xe6, 0x0a, 0x0a, 0xcc,
    0xe0, 0x10, 0xe4, 0x1f, 0xe4, 0xfa, 0x14, 0xcd, 0xda, 0x0d, 0xe7, 0x23, 0xe3,
    0x02, 0x12, 0xdd, 0xf9, 0x05, 0xe1, 0x21, 0xe6, 0xfa, 0x0b, 0xd1, 0xf5, 0x11,
    0xe7, 0x27, 0xef, 0x09, 0x0f, 0xd0, 0xe5, 0x15, 0xea, 0x24, 0xf2, 0x09, 0x09,
    0xda, 0xe5, 0x0b, 0xe4, 0x22, 0xef, 0x07, 0x17, 0xd7, 0xe5, 0x09, 0xe1, 0x2b,
    0xe6, 0xfb, 0x13, 0xcc, 0xfb, 0x08, 0xe2, 0x16, 0xf6, 0xfd, 0x12, 0xd6, 0xe6,
    0x11, 0xe1, 0x1c, 0xf1, 0x04, 0x13, 0xd7, 0xee, 0x0a, 0xef, 0x19, 0xed, 0xfd,
    0x10, 0xca, 0xe6, 0x0a, 0xdc, 0x21, 0xeb, 0x01, 0x15, 0xdd, 0xe3, 0x1c, 0xda,
    0x1d, 0xe6, 0xfc, 0x1d, 0xc6, 0xec, 0x0b, 0xe6, 0x29, 0xf6, 0xfa, 0x0f, 0xd3,
    0xe5, 0x12, 0xe0, 0x19, 0xe5, 0x08, 0x17, 0xd5, 0xeb, 0x07, 0xe2, 0x24, 0xda,
    0xfe, 0x19, 0xd7, 0xe1, 0x1b, 0xe7, 0x1d, 0xf4, 0x04, 0x13, 0xcc, 0xf1, 0x02,
    0xef, 0x1f, 0xe0, 0x03, 0x12, 0xd0, 0xe6, 0x0d, 0xf6, 0x2e, 0xf4, 0x07, 0x0a,
    0xd4, 0xe0, 0x09, 0xe8, 0x1f, 0xe2, 0x04, 0x13, 0xd9, 0xe8, 0x0c, 0xe3, 0x17,
    0xe1, 0xff, 0x0a, 0xc9, 0xe7, 0x12, 0xec, 0x27, 0xe7, 0x09, 0x1a, 0xdc, 0xe8,
    0x1a, 0xe3, 0x1a, 0xf8, 0x05, 0x0e, 0xda, 0xee, 0x12, 0xe1, 0x28, 0xe9, 0x01,
    0x18, 0xdc, 0xec, 0x07, 0xe6, 0x21, 0xeb, 0xfb, 0x0e, 0xd1, 0xee, 0x0b, 0xe5,
    0x23, 0xeb, 0x05, 0x1b, 0xda, 0xec, 0xfb, 0xda, 0x1d, 0xf3, 0x08, 0x18, 0xdd,
    0xd8, 0x08, 0xe6, 0x18, 0xe9, 0x05, 0x0a, 0xdb, 0xea, 0xff, 0xe3, 0x22, 0xe8,
    0xf1, 0x09, 0xd4, 0xe9, 0x13, 0x2a, 0x22, 0x1a, 0x0f, 0xde, 0x2d, 0xfb, 0xd3,
    0x67, 0x3b, 0x49, 0x28, 0xc8, 0x4a, 0x10, 0xf0, 0x4a, 0x29, 0x33, 0x04, 0xe6,
    0x2b, 0x39, 0xde, 0x39, 0x17, 0x30, 0x35, 0xcd, 0x4a, 0x02, 0x0c, 0x44, 0x2e,
    0x03, 0x0f, 0xd4, 0x33, 0x2b, 0x06, 0x33, 0x20, 0x1f, 0x17, 0xd8, 0x41, 0x0d,
    0xcf, 0x4b, 0x0a, 0x43, 0x36, 0xb8, 0x22, 0xf7, 0x05, 0x5a, 0x17, 0x4f, 0x49,
    0xe2, 0x53, 0x39, 0x00, 0x47, 0x3e, 0x2b, 0x19, 0xe8, 0x2d, 0x3a, 0xeb, 0x43,
    0x44, 0x11, 0x03, 0xd6, 0x4c, 0x00, 0xcc, 0x30, 0x58, 0x3e, 0x28, 0xc9, 0x34,
    0x2b, 0x02, 0x56, 0x44, 0x23, 0x1f, 0xed, 0x67, 0x0b, 0xd2, 0x68, 0x04, 0x30,
    0x3a, 0xf4, 0x47, 0x11, 0xfb, 0x53, 0x07, 0x33, 0x05, 0xf4, 0x6a, 0x1c, 0xbf,
    0x4b, 0x43, 0x26, 0x25, 0xd5, 0x38, 0x48, 0xe8, 0x44, 0x1b, 0x23, 0x33, 0x11,
    0x27, 0x14, 0xdb, 0x61, 0x23, 0x19, 0x12, 0xb9, 0x36, 0x0c, 0xf1, 0x15, 0x2b,
    0x2a, 0x16, 0xe6, 0x67, 0x2e, 0x0f, 0x3b, 0x00, 0x3c, 0x18, 0xba, 0x2b, 0x2a,
    0xc1, 0x44, 0x25, 0x45, 0x1d, 0xba, 0x4b, 0x20, 0xd2, 0x4b, 0x0b, 0x4b, 0x1f,
    0x13, 0x42, 0x3c, 0xf0, 0x2c, 0x30, 0x17, 0x55, 0xec, 0x62, 0x2a, 0xf0, 0x26,
    0x42, 0x28, 0x42, 0xbc, 0x29, 0x3a, 0xeb, 0x2d, 0x3c, 0x44, 0x5c, 0xd9, 0x37,
    0x31, 0xe1, 0x50, 0x24, 0x1e, 0x34, 0xce, 0x3d, 0x0a, 0xf0, 0x4f, 0x17, 0x4d,
    0x44, 0xd3, 0x36, 0x18, 0xe3, 0x1e, 0x54, 0x2b, 0x26, 0xc8, 0x22, 0x38, 0xf6,
    0x28, 0x4a, 0x3b, 0x05, 0xd2, 0x35, 0xf6, 0xf5, 0x3a, 0x07, 0x55, 0x39, 0xd5,
    0x2c, 0x2a, 0xfc, 0x63, 0x43, 0x03, 0x02, 0xd7, 0x4d, 0x24, 0x01, 0x57, 0xfb,
    0x41, 0x4f, 0xce, 0x52, 0x19, 0xdf, 0x49, 0x2d, 0x30, 0x4b, 0xd5, 0x53, 0x06,
    0xd4, 0x14, 0x3b, 0x20, 0x39, 0xad, 0x44, 0x0e, 0x09, 0x3b, 0x4e, 0x17, 0x05,
    0xc8, 0x24, 0x38, 0x05, 0x2b, 0x23, 0x2a, 0x43, 0xc2, 0x50, 0x0d, 0xf0, 0x3b,
    0x08, 0x0e, 0x23, 0xd5, 0x15, 0x0a, 0xcc, 0x4e, 0x22, 0x3d, 0x5c, 0xb6, 0x48,
    0x04, 0xd5, 0x5d, 0x1b, 0x3f, 0x44, 0xc2, 0x28, 0xf7, 0x05, 0x5f, 0x48, 0x33,
    0x48, 0xb0, 0x59, 0x36, 0xe6, 0x2b, 0x4a, 0x34, 0x4e, 0xe3, 0x2f, 0x17, 0xfa,
    0x29, 0x2c, 0x44, 0x44, 0xd0, 0x32, 0x01, 0x04, 0x4f, 0x1a, 0x33, 0x41, 0xf0,
    0x2f, 0xf8, 0xde, 0x43, 0x48, 0x48, 0x16, 0xff, 0x3e, 0x47, 0x01, 0x37, 0x0a,
    0x1c, 0x0e, 0xc1, 0x2a, 0x27, 0xeb, 0x62, 0x56, 0x1d, 0x24, 0xe7, 0x3a, 0x17,
    0xdb, 0x45, 0x2e, 0x46, 0x3d, 0xdd, 0x36, 0x2c, 0xf4, 0x2d, 0x2c, 0x17, 0x35,
    0xdf, 0x58, 0x0f, 0xf7, 0x34, 0x3b, 0x39, 0x21, 0xea, 0x24, 0x07, 0xe8, 0x27,
    0x3f, 0x25, 0x24, 0xd2, 0x0f, 0x16, 0xd3, 0x62, 0x3e, 0x12, 0x4a, 0xd1, 0x5d,
    0x2e, 0xf4, 0x2b, 0x3a, 0x55, 0x1f, 0xf8, 0x5b, 0x16, 0xde, 0x2f, 0x1a, 0xf7,
    0x54, 0xec, 0x4b, 0x3c, 0xcc, 0x63, 0x40, 0x0f, 0x4b, 0xf2, 0x1c, 0x06, 0xe6,
    0x3e, 0x1e, 0x32, 0x19, 0xc3, 0x54, 0x37, 0xf5, 0x67, 0x39, 0x4a, 0x41, 0xd1,
    0x4e, 0x3a, 0x05, 0x35, 0x35, 0x1a, 0x5a, 0xea, 0x57, 0x38, 0xf0, 0x47, 0xf5,
    0x10, 0x22, 0xba, 0x3b, 0xfc, 0xe2, 0x5b, 0x21, 0x46, 0x32, 0xf7, 0x49, 0x0d,
    0xd4, 0x1b, 0x63, 0x1b, 0x3c, 0xd3, 0x24, 0x36, 0xe4, 0x38, 0x03, 0x0b, 0x0e,
    0xf9, 0x44, 0x35, 0x07, 0x33, 0x2d, 0x39, 0x41, 0xd9, 0x5d, 0xfc, 0xf7, 0x5c,
    0x4a, 0x22, 0x05, 0xf9, 0x1f, 0x19, 0xdc, 0x29, 0x2d, 0x11, 0x0f, 0xb7, 0x3e,
    0x0f, 0xe4, 0x4b, 0x2e, 0x36, 0x4f, 0xbe, 0x51, 0xf8, 0xee, 0x2e, 0x4b, 0x35,
    0x31, 0xf4, 0x38, 0x21, 0xfe, 0x4e, 0x3f, 0x27, 0x53, 0x01, 0x2c, 0x1e, 0x09,
    0x4a, 0x55, 0x1d, 0x40, 0xfe, 0x25, 0x03, 0xd8, 0x22, 0xff, 0x24, 0x1a, 0x12,
    0x31, 0x29, 0xf1, 0x5c, 0x16, 0x45, 0x24, 0xcf, 0x56, 0xf9, 0x1c, 0x59, 0x43,
    0x28, 0x1c, 0xcd, 0x48, 0x0c, 0xf2, 0x5f, 0x25, 0x21, 0x37, 0xe6, 0x66, 0x19,
    0xbf, 0x24, 0x4d, 0xf5, 0x46, 0xe2, 0x18, 0x1f, 0xe0, 0x2f, 0x3a, 0x5b, 0x0a,
    0x09, 0x4f, 0x0c, 0xd2, 0x5d, 0x10, 0x1c, 0x1a, 0xf7, 0x63, 0x0b, 0x0b, 0x4c,
    0x1b, 0x2c, 0x25, 0xe8, 0x2f, 0x07, 0xf9, 0x32, 0x12, 0x24, 0x35, 0xca, 0x4d,
    0x35, 0xd4, 0x4f, 0x41, 0x19, 0x1c, 0xdf, 0x26, 0x15, 0xc7, 0x5c, 0x1c, 0x1f,
    0x4f, 0xde, 0x59, 0x05, 0xbf, 0x49, 0x48, 0x18, 0x33, 0xf2, 0x3c, 0x3f, 0xc9,
    0x51, 0x33, 0x25, 0x18, 0xe9, 0x40, 0x0e, 0xf4, 0x2a, 0x40, 0x1a, 0x2a, 0xc9,
    0x60, 0x0f, 0x06, 0x32, 0x1a, 0x1d, 0x2f, 0x07, 0x4f, 0x24, 0x14, 0x40, 0x19,
    0x25, 0x14, 0xe7, 0x3c, 0x04, 0xc3, 0x52, 0x24, 0x2c, 0x49, 0xe4, 0x17, 0x1d,
    0xdd, 0x67, 0x20, 0x31, 0x39, 0xb9, 0x4d, 0x17, 0xe2, 0x43, 0x19, 0x4f, 0x07,
    0xec, 0x2b, 0x05, 0xff, 0x4a, 0x0f, 0x3d, 0x2a, 0xb8, 0x64, 0x15, 0xf8, 0x32,
    0x40, 0x12, 0x26, 0xdd, 0x44, 0x2c, 0xfa, 0x3f, 0x36, 0x61, 0x22, 0xf0, 0x21,
    0x33, 0xc2, 0x4b, 0x06, 0x3b, 0x62, 0xe5, 0x20, 0xf5, 0xd7, 0x68, 0x45, 0x29,
    0x08, 0xe0, 0x57, 0x1f, 0xe1, 0x5d, 0x48, 0x0b, 0x45, 0xde, 0x1d, 0x06, 0xbf,
    0x5d, 0x38, 0x0f, 0x1a, 0xff, 0x6e, 0x3e, 0xe8, 0x52, 0x4a, 0x36, 0x38, 0x02,
    0x47, 0x48, 0xde, 0x72, 0x04, 0x51, 0x32, 0xe8, 0x58, 0x37, 0xe5, 0x1f, 0x21,
    0x1e, 0x05, 0xcb, 0x24, 0x2e, 0xf8, 0x35, 0x21, 0x2d, 0x16, 0x03, 0x4a, 0x28,
    0x08, 0x48, 0x54, 0x27, 0x36, 0xec, 0x2e, 0x0e, 0xbe, 0x42, 0x36, 0x2a, 0x3c,
    0x0c, 0x30, 0x3d, 0xe9, 0x55, 0x29, 0x1d, 0x0c, 0xe3, 0x66, 0x2f, 0xe7, 0x35,
    0x31, 0x1b, 0x3f, 0xc0, 0x49, 0x05, 0x06, 0x30, 0x26, 0xf8, 0x52, 0x11, 0x26,
    0x29, 0xde, 0x2c, 0x3c, 0x30, 0x0a, 0xcb, 0x42, 0x10, 0xc5, 0x5a, 0x22, 0x3d,
    0x43, 0xf6, 0x37, 0x03, 0x09, 0x15, 0x1b, 0x28, 0x3a, 0xe3, 0x16, 0x2e, 0xc7,
    0x50, 0x26, 0x31, 0x46, 0xf5, 0x5d, 0x3d, 0xc6, 0x44, 0x4e, 0x14, 0x01, 0xcf,
    0x39, 0x0b, 0x01, 0x4f, 0x3f, 0x11, 0x14, 0xf7, 0x5f, 0x1d, 0x05, 0x56, 0x34,
    0x19, 0x25, 0xe2, 0x53, 0x01, 0xf1, 0x52, 0x43, 0x36, 0x47, 0xe8, 0x35, 0x07,
    0xd6, 0x5c, 0x28, 0x38, 0x57, 0xd6, 0x30, 0x0c, 0xf1, 0x35, 0x0a, 0x1c, 0x1e,
    0xd6, 0x40, 0x17, 0xdc, 0x60, 0x2f, 0x39, 0x36, 0xdb, 0x62, 0x2c, 0xfa, 0x42,
    0x42, 0x23, 0x16, 0x09, 0x15, 0x44, 0xee, 0x64, 0x46, 0x34, 0x42, 0xdb, 0x55,
    0x09, 0xe6, 0x33, 0x5a, 0x3b, 0x1d, 0xca, 0x2b, 0x32, 0xe7, 0x39, 0x26, 0x36,
    0x29, 0xe6, 0x33, 0x28, 0xf6, 0x32, 0x22, 0x20, 0x37, 0xf4, 0x34, 0x1e, 0xf8,
    0x5e, 0x55, 0x2d, 0x0d, 0xef, 0x40, 0x43, 0xfd, 0x5a, 0x22, 0xf6, 0x3a, 0xc7,
    0x46, 0x23, 0xfa, 0x22, 0x37, 0x2a, 0x4b, 0xcd, 0x1f, 0x1d, 0xdb, 0x45, 0x2b,
    0x3d, 0x0f, 0xd6, 0x3a, 0x3b, 0x06, 0x56, 0x53, 0x1a, 0x4b, 0x03, 0x33, 0xdb,
    0xd9, 0x52, 0x47, 0x35, 0x22, 0xe3, 0x41, 0x2e, 0xdb, 0x47, 0x47, 0x40, 0x63,
    0xd5, 0x60, 0x39, 0xe3, 0x2f, 0x4b, 0x11, 0xfc, 0xec, 0x24, 0x0d, 0x11, 0x60,
    0x39, 0x0b, 0x0f, 0xb7, 0x34, 0x21, 0xfb, 0x00, 0x00, 0x00, 0x00, 0x00, 0x00,
    0x00, 0x00, 0x00, 0x00, 0x00, 0x00, 0x00, 0x00, 0x00, 0x00, 0x00, 0x00, 0x00,
    0x00, 0x00, 0x00, 0x00, 0x00, 0x00, 0x00, 0x00, 0x00, 0x00, 0x00, 0x00, 0x00,
    0x00, 0x00, 0x00, 0x00, 0x00, 0x00, 0x00, 0x00, 0x00, 0x00, 0x00, 0x00, 0x00,
    0x00, 0x00, 0x00, 0x00, 0x00, 0x00, 0x00, 0x00, 0x00, 0x00, 0x00, 0x00, 0x00,
    0x00, 0x00, 0x00, 0x00, 0x00, 0x00, 0x00, 0x00, 0x00, 0x00, 0x00, 0x00, 0x00,
    0x00, 0x00, 0x00, 0x00, 0x00, 0x00, 0x00, 0x00, 0x00, 0x00, 0x00, 0x00, 0x00,
    0x00, 0x00, 0x00, 0x00, 0x00, 0x00, 0x00, 0x00, 0x00, 0x00, 0x00, 0x00, 0x00,
    0x00, 0x00, 0x00, 0x00, 0x00, 0x00, 0x00, 0x00, 0x00, 0x00, 0x00, 0x00, 0x00,
    0x00, 0x00, 0x00, 0x00, 0x00, 0x00, 0x00, 0x00, 0x00, 0x00, 0x00, 0x00, 0x00,
    0x00, 0x00, 0x00, 0x00, 0x00, 0x00, 0x00, 0x00, 0x00, 0x00, 0x00, 0x00, 0x00,
    0x00, 0x00, 0x00, 0x00, 0x00, 0x00, 0x00, 0x00, 0x00, 0x00, 0x00, 0x00, 0x00,
    0x00, 0x00, 0x00, 0x00, 0x00, 0x00, 0x00, 0x00, 0x00, 0x00, 0x00, 0x00, 0x00,
    0x00, 0x00, 0x00, 0x00, 0x00, 0x00, 0x00, 0x00, 0x00, 0x00, 0x00, 0x00, 0x00,
    0x00, 0x00, 0x00, 0x00, 0x00, 0x00, 0x00, 0x00, 0x00, 0x00, 0x00, 0x00, 0x00,
    0x00, 0x00, 0x00, 0x00, 0x00, 0x00, 0x00, 0x00, 0x00, 0x00, 0x00, 0x00, 0x00,
    0x00, 0x00, 0x00, 0x00, 0x00, 0x00, 0x00, 0x00, 0x00, 0x00, 0x00, 0x00, 0x00,
    0x00, 0x00, 0x00, 0x00, 0x00, 0x00, 0x00, 0x00, 0x00, 0x00, 0x00, 0x00, 0x00,
    0x00, 0x00, 0x00, 0x00, 0x00, 0x00, 0x00, 0x00, 0x00, 0x00, 0x00, 0x00, 0x00,
    0x00, 0x00, 0x00, 0x00, 0x00, 0x00, 0x00, 0x00, 0x00, 0x00, 0x00, 0x00, 0x00,
    0x00, 0x00, 0x00, 0x00, 0x00, 0x00, 0x00, 0x00, 0x00, 0x00, 0x00, 0x00, 0x00,
    0x00, 0x00, 0x00, 0x00, 0x00, 0x00, 0x00, 0x00, 0x00, 0x00, 0x00, 0x00, 0x00,
    0x00, 0x00, 0x00, 0x00, 0x00, 0x00, 0x00, 0x00, 0x00, 0x00, 0x00, 0x00, 0x00,
    0x00, 0x00, 0x00, 0x00, 0x00, 0x00, 0x00, 0x00, 0x00, 0x00, 0x00, 0x00, 0x00,
    0x00, 0x00, 0x00, 0x00, 0x00, 0x00, 0x00, 0x00, 0x00, 0x00, 0x00, 0x00, 0x00,
    0x00, 0x00, 0x00, 0x00, 0x00, 0x00, 0x00, 0x00, 0x00, 0x00, 0x00, 0x00, 0x00,
    0x00, 0x00, 0x00, 0x00, 0x00, 0x00, 0x00, 0x00, 0x00, 0x00, 0x00, 0x00, 0x00,
    0x00, 0x00, 0x00, 0x00, 0x00, 0x00, 0x00, 0x00, 0x00, 0x00, 0x00, 0x00, 0x00,
    0x00, 0x00, 0x00, 0x00, 0x00, 0x00, 0x00, 0x00, 0x00, 0x00, 0x00, 0x00, 0x00,
    0x00, 0x00, 0x00, 0x00, 0x00, 0x00, 0x00, 0x00, 0x00, 0x00, 0x00, 0x00, 0x00,
    0x00, 0x00, 0x00, 0x00, 0x00, 0x00, 0x00, 0x00, 0x00, 0x00, 0x00, 0x00, 0x00,
    0x00, 0x00, 0x00, 0x00, 0x00, 0x00, 0x00, 0x00, 0x00, 0x00, 0x00, 0x00, 0x00,
    0x00, 0x00, 0x00, 0x00, 0x00, 0x00, 0x00, 0x00, 0x00, 0x00, 0x00, 0x00, 0x00,
    0x00, 0x00, 0x00, 0x00, 0x00, 0x00, 0x00, 0x00, 0x00, 0x00, 0x00, 0x00, 0x00,
    0x00, 0x00, 0x00, 0x00, 0x00, 0x00, 0x00, 0x00, 0x00, 0x00, 0x00, 0x00, 0x00,
    0x00, 0x00, 0x00, 0x00, 0x00, 0x00, 0x00, 0x00, 0x00, 0x00, 0x00, 0x00, 0x00,
    0x00, 0x00, 0x00, 0x00, 0x00, 0x00, 0x00, 0x00, 0x00, 0x00, 0x00, 0x00, 0x00,
    0x00, 0x00, 0x00, 0x00, 0x00, 0x00, 0x00, 0x00, 0x00, 0x00, 0x00, 0x00, 0x00,
    0x00, 0x00, 0x00, 0x00, 0x00, 0x00, 0x00, 0x00, 0x00, 0x00, 0x00, 0x00, 0x00,
    0x00, 0x00, 0x00, 0x00, 0x00, 0x00, 0x00, 0x00, 0x00, 0x00, 0x00, 0x00, 0x00,
    0x00, 0x00, 0x00, 0x00, 0x00, 0x00, 0x00, 0x00, 0x00, 0x00, 0x00, 0x00, 0x00,
    0x00, 0x00, 0x00, 0x00, 0x00, 0x00, 0x00, 0x00, 0x00, 0x00, 0x00, 0x00, 0x00,
    0x00, 0x00, 0x00, 0x00, 0x00, 0x00, 0x00, 0x00, 0x00, 0x00, 0x00, 0x00, 0x00,
    0x00, 0x00, 0x00, 0x00, 0x00, 0x00, 0x00, 0x00, 0x00, 0x00, 0x00, 0x00, 0x00,
    0x00, 0x00, 0x00, 0x00, 0x00, 0x00, 0x00, 0x00, 0x00, 0x00, 0x00, 0x00, 0x00,
    0x00, 0x00, 0x00, 0x00, 0x00, 0x00, 0x00, 0x00, 0x00, 0x00, 0x00, 0x00, 0x00,
    0x00, 0x00, 0x00, 0x00, 0x00, 0x00, 0x00, 0x00, 0x00, 0x00, 0x00, 0x00, 0x00,
    0x00, 0x00, 0x00, 0x00, 0x00, 0x00, 0x00, 0x00, 0x00, 0x00, 0x00, 0x00, 0x00,
    0x00, 0x00, 0x00, 0x00, 0x00, 0x00, 0x00, 0x00, 0x00, 0x00, 0x00, 0x00, 0x00,
    0x00, 0x00, 0x00, 0x00, 0x00, 0x00, 0x00, 0x00, 0x00, 0x00, 0x00, 0x00, 0x00,
    0x00, 0x00, 0x00, 0x00, 0x00, 0x00, 0x00, 0x00, 0x00, 0x00, 0x00, 0x00, 0x00,
    0x00, 0x00, 0x00, 0x00, 0x00, 0x00, 0x00, 0x00, 0x00, 0x00, 0x00, 0x00, 0x00,
    0x00, 0x00, 0x00, 0x00, 0x00, 0x00, 0x00, 0x00, 0x00, 0x00, 0x00, 0x00, 0x00,
    0x00, 0x00, 0x00, 0x00, 0x00, 0x00, 0x00, 0x00, 0x00, 0x00, 0x00, 0x00, 0x00,
    0x00, 0x00, 0x00, 0x00, 0x00, 0x00, 0x00, 0x00, 0x00, 0x00, 0x00, 0x00, 0x00,
    0x00, 0x00, 0x00, 0x00, 0x00, 0x00, 0x00, 0x00, 0x00, 0x00, 0x00, 0x00, 0x00,
    0x00, 0x00, 0x00, 0x00, 0x00, 0x00, 0x00, 0x00, 0x00, 0x00, 0x00, 0x00, 0x00,
    0x00, 0x00, 0x00, 0x00, 0x00, 0x00, 0x00, 0x00, 0x00, 0x00, 0x00, 0x00, 0x00,
    0x00, 0x00, 0x00, 0x00, 0x00, 0x00, 0x00, 0x00, 0x00, 0x00, 0x00, 0x00, 0x00,
    0x00, 0x00, 0x00, 0x00, 0x00, 0x00, 0x00, 0x00, 0x00, 0x00, 0x00, 0x00, 0x00,
    0x00, 0x00, 0x00, 0x00, 0x00, 0x00, 0x00, 0x00, 0x00, 0x00, 0x00, 0x00, 0x00,
    0x00, 0x00, 0x00, 0x00, 0x00, 0x00, 0x00, 0x00, 0x00, 0x00, 0x00, 0x00, 0x00,
    0x00, 0x00, 0x00, 0x00, 0x00, 0x00, 0x00, 0x00, 0x00, 0x00, 0x00, 0x00, 0x00,
    0x00, 0x00, 0x00, 0x00, 0x00, 0x00, 0x00, 0x00, 0x00, 0x00, 0x00, 0x00, 0x00,
    0x00, 0x00, 0x00, 0x00, 0x00, 0x00, 0x00, 0x00, 0x00, 0x00, 0x00, 0x00, 0x00,
    0x00, 0x00, 0x00, 0x00, 0x00, 0x00, 0x00, 0x00, 0x00, 0x00, 0x00, 0x00, 0x00,
    0x00, 0x00, 0x00, 0x00, 0x00, 0x00, 0x00, 0x00, 0x00, 0x00, 0x00, 0x00, 0x00,
    0x00, 0x00, 0x00, 0x00, 0x00, 0x00, 0x00, 0x00, 0x00, 0x00, 0x00, 0x00, 0x00,
    0x00, 0x00, 0x00, 0x00, 0x00, 0x00, 0x00, 0x00, 0x00, 0x00, 0x00, 0x00, 0x00,
    0x00, 0x00, 0x00, 0x00, 0x00, 0x00, 0x00, 0x00, 0x00, 0x00, 0x00, 0x00, 0x00,
    0x00, 0x00, 0x00, 0x00, 0x00, 0x00, 0x00, 0x00, 0x00, 0x00, 0x00, 0x00, 0x00,
    0x00, 0x00, 0x00, 0x00, 0x00, 0x00, 0x00, 0x00, 0x00, 0x00, 0x00, 0x00, 0x00,
    0x00, 0x00, 0x00, 0x00, 0x00, 0x00, 0x00, 0x00, 0x00, 0x00, 0x00, 0x00, 0x00,
    0x00, 0x00, 0x00, 0x00, 0x00, 0x00, 0x00, 0x00, 0x00, 0x00, 0x00, 0x00, 0x00,
    0x00, 0x00, 0x00, 0x00, 0x00, 0x00, 0x00, 0x00, 0x00, 0x00, 0x00, 0x00, 0x00,
    0x00, 0x00, 0x00, 0x00, 0x00, 0x00, 0x00, 0x00, 0x00, 0x00, 0x00, 0x00, 0x00,
    0x00, 0x00, 0x00, 0x00, 0x00, 0x00, 0x00, 0x00, 0x00, 0x00, 0x00, 0x00, 0x00,
    0x00, 0x00, 0x00, 0x00, 0x00, 0x00, 0x00, 0x00, 0x00, 0x00, 0x00, 0x00, 0x00,
    0x00, 0x00, 0x00, 0x00, 0x00, 0x00, 0x00, 0x00, 0x00, 0x00, 0x00, 0x00, 0x00,
    0x00, 0x00, 0x00, 0x00, 0x00, 0x00, 0x00, 0x00, 0x00, 0x00, 0x00, 0x00, 0x00,
    0x00, 0x00, 0x00, 0x00, 0x00, 0x00, 0x00, 0x00, 0x00, 0x00, 0x00, 0x00, 0x00,
    0x00, 0x00, 0x00, 0x00, 0x00, 0x00, 0x00, 0x00, 0x00, 0x00, 0x00, 0x00, 0x00,
    0x00, 0x00, 0x00, 0x00, 0x00, 0x00, 0x00, 0x00, 0x00, 0x00, 0x00, 0x00, 0x00,
    0x00, 0x00, 0x00, 0x00, 0x00, 0x00, 0x00, 0x00, 0x00, 0x00, 0x00, 0x00, 0x00,
    0x00, 0x00, 0x00, 0x00, 0x00, 0x00, 0x00, 0x00, 0x00, 0x00, 0x00, 0x00, 0x00,
    0x00, 0x00, 0x00, 0x00, 0x00, 0x00, 0x00, 0x00, 0x00, 0x00, 0x00, 0x00, 0x00,
    0x00, 0x00, 0x00, 0x00, 0x00, 0x00, 0x00, 0x00, 0x00, 0x00, 0x00, 0x00, 0x00,
    0x00, 0x00, 0x00, 0x00, 0x00, 0x00, 0x00, 0x00, 0x00, 0x00, 0x00, 0x00, 0x00,
    0x00, 0x00, 0x00, 0x00, 0x00, 0x00, 0x00, 0x00, 0x00, 0x00, 0x00, 0x00, 0x00,
    0x00, 0x00, 0x00, 0x00, 0x00, 0x00, 0x00, 0x00, 0x00, 0x00, 0x00, 0x00, 0x00,
    0x00, 0x00, 0x00, 0x00, 0x00, 0x00, 0x00, 0x00, 0x00, 0x00, 0x00, 0x00, 0x00,
    0x00, 0x00, 0x00, 0x00, 0x00, 0x00, 0x00, 0x00, 0x00, 0x00, 0x00, 0x00, 0x00,
    0x00, 0x00, 0x00, 0x00, 0x00, 0x00, 0x00, 0x00, 0x00, 0x00, 0x00, 0x00, 0x00,
    0x00, 0x00, 0x00, 0x00, 0x00, 0x00, 0x00, 0x00, 0x00, 0x00, 0x00, 0x00, 0x00,
    0x00, 0x00, 0x00, 0x00, 0x00, 0x00, 0x00, 0x00, 0x00, 0x00, 0x00, 0x00, 0x00,
    0x00, 0x00, 0x00, 0x00, 0x00, 0x00, 0x00, 0x00, 0x00, 0x00, 0x00, 0x00, 0x00,
    0x00, 0x00, 0x00, 0x00, 0x00, 0x00, 0x00, 0x00, 0x00, 0x00, 0x00, 0x00, 0x00,
    0x00, 0x00, 0x00, 0x00, 0x00, 0x00, 0x00, 0x00, 0x00, 0x00, 0x00, 0x00, 0x00,
    0x00, 0x00, 0x00, 0x00, 0x00, 0x00, 0x00, 0x00, 0x00, 0x00, 0x00, 0x00, 0x00,
    0x00, 0x00, 0x00, 0x00, 0x00, 0x00, 0x00, 0x00, 0x00, 0x00, 0x00, 0x00, 0x00,
    0x00, 0x00, 0x00, 0x00, 0x00, 0x00, 0x00, 0x00, 0x00, 0x00, 0x00, 0x00, 0x00,
    0x00, 0x00, 0x00, 0x00, 0x00, 0x00, 0x00, 0x00, 0x00, 0x00, 0x00, 0x00, 0x00,
    0x00, 0x00, 0x00, 0x00, 0x00, 0x00, 0x00, 0x00, 0x00, 0x00, 0x00, 0x00, 0x00,
    0x00, 0x00, 0x00, 0x00, 0x00, 0x00, 0x00, 0x00, 0x00, 0x00, 0x00, 0x00, 0x00,
    0x00, 0x00, 0x00, 0x00, 0x00, 0x00, 0x00, 0x00, 0x00, 0x00, 0x00, 0x00, 0x00,
    0x00, 0x00, 0x00, 0x00, 0x00, 0x00, 0x00, 0x00, 0x00, 0x00, 0x00, 0x00, 0x00,
    0x00, 0x00, 0x00, 0x00, 0x00, 0x00, 0x00, 0x00, 0x00, 0x00, 0x00, 0x00, 0x00,
    0x00, 0x00, 0x00, 0x00, 0x00, 0x00, 0x00, 0x00, 0x00, 0x00, 0x00, 0x00, 0x00,
    0x00, 0x00, 0x00, 0x00, 0x00, 0x00, 0x00, 0x00, 0x00, 0x00, 0x00, 0x00, 0x00,
    0x00, 0x00, 0x00, 0x00, 0x00, 0x00, 0x00, 0x00, 0x00, 0x00, 0x00, 0x00, 0x00,
    0x00, 0x00, 0x00, 0x00, 0x00, 0x00, 0x00, 0x00, 0x00, 0x00, 0x00, 0x00, 0x00,
    0x00, 0x00, 0x00, 0x00, 0x00, 0x00, 0x00, 0x00, 0x00, 0x00, 0x00, 0x00, 0x00,
    0x00, 0x00, 0x00, 0x00, 0x00, 0x00, 0x00, 0x00, 0x00, 0x00, 0x00, 0x00, 0x00,
    0x00, 0x00, 0x00, 0x00, 0x00, 0x00, 0x00, 0x00, 0x00, 0x00, 0x00, 0x00, 0x00,
    0x00, 0x00, 0x00, 0x00, 0x00, 0x00, 0x00, 0x00, 0x00, 0x00, 0x00, 0x00, 0x00,
    0x00, 0x00, 0x00, 0x00, 0x00, 0x00, 0x00, 0x00, 0x00, 0x00, 0x00, 0x00, 0x00,
    0x00, 0x00, 0x00, 0x00, 0x00, 0x00, 0x00, 0x00, 0x00, 0x00, 0x00, 0x00, 0x00,
    0x00, 0x00, 0x00, 0x00, 0x00, 0x00, 0x00, 0x00, 0x00, 0x00, 0x00, 0x00, 0x00,
    0x00, 0x00, 0x00, 0x00, 0x00, 0x00, 0x00, 0x00, 0x00, 0x00, 0x00, 0x00, 0x00,
    0x00, 0x00, 0x00, 0x00, 0x00, 0x00, 0x00, 0x00, 0x00, 0x00, 0x00, 0x00, 0x00,
    0x00, 0x00, 0x00, 0x00, 0x00, 0x00, 0x00, 0x00, 0x00, 0x00, 0x00, 0x00, 0x00,
    0x00, 0x00, 0x00, 0x00, 0x00, 0x00, 0x00, 0x00, 0x00, 0x00, 0x00, 0x00, 0x00,
    0x00, 0x00, 0x00, 0x00, 0x00, 0x00, 0x00, 0x00, 0x00, 0x00, 0x00, 0x00, 0x00,
    0x00, 0x00, 0x00, 0x00, 0x00, 0x00, 0x00, 0x00, 0x00, 0x00, 0x00, 0x00, 0x00,
    0x00, 0x00, 0x00, 0x00, 0x00, 0x00, 0x00, 0x00, 0x00, 0x00, 0x00, 0x00, 0x00,
    0x00, 0x00, 0x00, 0x00, 0x00, 0x00, 0x00, 0x00, 0x00, 0x00, 0x00, 0x00, 0x00,
    0x00, 0x00, 0x00, 0x00, 0x00, 0x00, 0x00, 0x00, 0x00, 0x00, 0x00, 0x00, 0x00,
    0x00, 0x00, 0x00, 0x00, 0x00, 0x00, 0x00, 0x00, 0x00, 0x00, 0x00, 0x00, 0x00,
    0x00, 0x00, 0x00, 0x00, 0x00, 0x00, 0x00, 0x00, 0x00, 0x00, 0x00, 0x00, 0x00,
    0x00, 0x00, 0x00, 0x00, 0x00, 0x00, 0x00, 0x00, 0x00, 0x00, 0x00, 0x00, 0x00,
    0x00, 0x00, 0x00, 0x00, 0x00, 0x00, 0x00, 0x00, 0x00, 0x00, 0x00, 0x00, 0x00,
    0x00, 0x00, 0x00, 0x00, 0x00, 0x00, 0x00, 0x00, 0x00, 0x00, 0x00, 0x00, 0x00,
    0x00, 0x00, 0x00, 0x00, 0x00, 0x00, 0x00, 0x00, 0x00, 0x00, 0x00, 0x00, 0x00,
    0x00, 0x00, 0x00, 0x00, 0x00, 0x00, 0x00, 0x00, 0x00, 0x00, 0x00, 0x00, 0x00,
    0x00, 0x00, 0x00, 0x00, 0x00, 0x00, 0x00, 0x00, 0x00, 0x00, 0x00, 0x00, 0x00,
    0x00, 0x00, 0x00, 0x00, 0x00, 0x00, 0x00, 0x00, 0x00, 0x00, 0x00, 0x00, 0x00,
    0x00, 0x00, 0x00, 0x00, 0x00, 0x00, 0x00, 0x00, 0x00, 0x00, 0x00, 0x00, 0x00,
    0x00, 0x00, 0x00, 0x00, 0x00, 0x00, 0x00, 0x00, 0x00, 0x00, 0x00, 0x00, 0x00,
    0x00, 0x00, 0x00, 0x00, 0x00, 0x00, 0x00, 0x00, 0x00, 0x00, 0x00, 0x00, 0x00,
    0x00, 0x00, 0x00, 0x00, 0x00, 0x00, 0x00, 0x00, 0x00, 0x00, 0x00, 0x00, 0x00,
    0x00, 0x00, 0x00, 0x00, 0x00, 0x00, 0x00, 0x00, 0x00, 0x00, 0x00, 0x00, 0x00,
    0x00, 0x00, 0x00, 0x00, 0x00, 0x00, 0x00, 0x00, 0x00, 0x00, 0x00, 0x00, 0x00,
    0x00, 0x00, 0x00, 0x00, 0x00, 0x00, 0x00, 0x00, 0x00, 0x00, 0x00, 0x00, 0x00,
    0x00, 0x00, 0x00, 0x00, 0x00, 0x00, 0x00, 0x00, 0x00, 0x00, 0x00, 0x00, 0x00,
    0x00, 0x00, 0x00, 0x00, 0x00, 0x00, 0x00, 0x00, 0x00, 0x00, 0x00, 0x00, 0x00,
    0x00, 0x00, 0x00, 0x00, 0x00, 0x00, 0x00, 0x00, 0x00, 0x00, 0x00, 0x00, 0x00,
    0x00, 0x00, 0x00, 0x00, 0x00, 0x00, 0x00, 0x00, 0x00, 0x00, 0x00, 0x00, 0x00,
    0x00, 0x00, 0x00, 0x00, 0x00, 0x00, 0x00, 0x00, 0x00, 0x00, 0x00, 0x00, 0x00,
    0x00, 0x00, 0x00, 0x00, 0x00, 0x00, 0x00, 0x00, 0x00, 0x00, 0x00, 0x00, 0x00,
    0x00, 0x00, 0x00, 0x00, 0x00, 0x00, 0x00, 0x00, 0x00, 0x00, 0x00, 0x00, 0x00,
    0x00, 0x00, 0x00, 0x00, 0x00, 0x00, 0x00, 0x00, 0x00, 0x00, 0x00, 0x00, 0x00,
    0x00, 0x00, 0x00, 0x00, 0x00, 0x00, 0x00, 0x00, 0x00, 0x00, 0x00, 0x00, 0x00,
    0x00, 0x00, 0x00, 0x00, 0x00, 0x00, 0x00, 0x00, 0x00, 0x00, 0x00, 0x00, 0x00,
    0x00, 0x00, 0x00, 0x00, 0x00, 0x00, 0x00, 0x00, 0x00, 0x00, 0x00, 0x00, 0x00,
    0x00, 0x00, 0x00, 0x00, 0x00, 0x00, 0x00, 0x00, 0x00, 0x00, 0x00, 0x00, 0x00,
    0x00, 0x00, 0x00, 0x00, 0x00, 0x00, 0x00, 0x00, 0x00, 0x00, 0x00, 0x00, 0x00,
    0x00, 0x00, 0x00, 0x00, 0x00, 0x00, 0x00, 0x00, 0x00, 0x00, 0x00, 0x21, 0x18,
    0x02, 0x30, 0xf4, 0x23, 0x0a, 0xa1, 0x21, 0x12, 0x01, 0x3b, 0xe4, 0x0f, 0xf2,
    0xd1, 0x2f, 0x20, 0x05, 0x35, 0xd9, 0x2b, 0x13, 0xa2, 0x0c, 0xfa, 0xfe, 0x30,
    0xe8, 0x1c, 0x14, 0xd0, 0x0b, 0x1d, 0x08, 0x1c, 0xfc, 0x0d, 0x15, 0xca, 0x0e,
    0xee, 0x1c, 0x3b, 0xcc, 0x21, 0x01, 0xb6, 0x23, 0x11, 0xee, 0x2f, 0xe2, 0x12,
    0x16, 0xb8, 0x40, 0x0b, 0xe9, 0x1a, 0xce, 0x25, 0x0a, 0xb9, 0x21, 0x2d, 0xff,
    0x31, 0xd2, 0x23, 0x0f, 0xbd, 0x0e, 0x17, 0x21, 0x0a, 0xfc, 0x3b, 0xdc, 0xb3,
    0x44, 0x23, 0xf2, 0xfe, 0xef, 0x1a, 0x04, 0xa5, 0x10, 0x30, 0x0d, 0x12, 0xff,
    0x39, 0xf7, 0xb9, 0x14, 0x2f, 0xec, 0x2b, 0xd0, 0x2c, 0xf5, 0x97, 0x21, 0x1a,
    0xe6, 0x1e, 0xf8, 0x3c, 0x04, 0xbc, 0x18, 0xea, 0xe2, 0x24, 0xe7, 0x40, 0xfe,
    0xd2, 0x14, 0xfe, 0xe7, 0x30, 0xd0, 0x1d, 0xe9, 0xae, 0x14, 0xf6, 0xda, 0x4a,
    0xed, 0x38, 0x01, 0xc3, 0xff, 0x17, 0xf3, 0x2a, 0xea, 0x20, 0x05, 0xa5, 0x0d,
    0x13, 0xe4, 0x2d, 0xea, 0x25, 0x12, 0xc0, 0x2f, 0x12, 0xf3, 0x33, 0xd9, 0x3a,
    0x0b, 0x96, 0x34, 0x15, 0xfc, 0x30, 0xe5, 0x4c, 0xf8, 0xb2, 0x22, 0x0e, 0xef,
    0x1a, 0xf6, 0x14, 0xf4, 0xd3, 0x2c, 0x13, 0x03, 0xfe, 0x07, 0x29, 0xf2, 0x9f,
    0x1e, 0x0d, 0xf7, 0x10, 0xd1, 0x2c, 0x03, 0xa7, 0x20, 0xfe, 0xed, 0x14, 0xd8,
    0x1c, 0x0f, 0xc7, 0x09, 0x09, 0x18, 0x36, 0xfb, 0x3b, 0xf0, 0xc3, 0x20, 0x07,
    0x06, 0x0a, 0xd8, 0x1f, 0x10, 0xcc, 0x13, 0x0a, 0xe6, 0x0e, 0xbf, 0x31, 0xf6,
    0xc1, 0x39, 0x01, 0xff, 0x16, 0xdb, 0x2d, 0xea, 0xd2, 0x31, 0x1c, 0xf9, 0x24,
    0xd6, 0x48, 0xe5, 0xb7, 0x0b, 0x2f, 0xea, 0x34, 0xe9, 0x29, 0xd3, 0xcc, 0xfc,
    0x0c, 0xfa, 0x31, 0xdd, 0x13, 0x10, 0xd6, 0x04, 0x28, 0xf5, 0x35, 0xcd, 0x33,
    0x20, 0xba, 0x22, 0x1f, 0x08, 0x29, 0xe6, 0x32, 0x0f, 0xaf, 0x23, 0x26, 0x18,
    0x26, 0xe7, 0x32, 0x14, 0xcd, 0x0c, 0xfe, 0x00, 0x21, 0xcb, 0x1a, 0xe4, 0xc8,
    0x13, 0x04, 0xe0, 0x49, 0x0b, 0x17, 0x0b, 0xc0, 0x19, 0x2d, 0x04, 0x28, 0xe5,
    0x38, 0x10, 0xd0, 0x11, 0x32, 0x01, 0x38, 0xe7, 0x39, 0x0e, 0xc0, 0x23, 0x14,
    0xf2, 0x11, 0xf6, 0x3c, 0xe8, 0xaf, 0x1b, 0x10, 0xfe, 0x20, 0xce, 0x43, 0xfe,
    0xdb, 0x1a, 0x11, 0xf7, 0x10, 0xe1, 0x2f, 0xf0, 0xb0, 0x31, 0xf9, 0x0e, 0x14,
    0xf4, 0x37, 0x10, 0xae, 0x09, 0x00, 0x15, 0x23, 0xf3, 0x3c, 0x05, 0xb3, 0x13,
    0x05, 0xe6, 0x34, 0xe8, 0x1c, 0xec, 0xbc, 0x3e, 0x21, 0xec, 0x18, 0xcd, 0x33,
    0xdb, 0xc4, 0xfe, 0x2a, 0xf8, 0x11, 0xda, 0x2b, 0x0b, 0xd4, 0x17, 0x28, 0xf3,
    0x34, 0xcc, 0x3b, 0xe6, 0xd0, 0x31, 0x0e, 0x05, 0x2a, 0xeb, 0x28, 0xdf, 0xd0,
    0x10, 0x16, 0xf4, 0x19, 0xf7, 0x33, 0xfa, 0xb0, 0x16, 0x27, 0xf1, 0x23, 0xf0,
    0x14, 0xe9, 0xdb, 0x01, 0x2a, 0xf0, 0x23, 0xef, 0x37, 0xf8, 0xb8, 0x1e, 0x12,
    0x00, 0x35, 0xd3, 0x39, 0xf0, 0xa3, 0x19, 0x24, 0x1e, 0x2a, 0xd8, 0x1c, 0x0b,
    0xdc, 0x22, 0x12, 0xf3, 0x29, 0xf7, 0x23, 0xef, 0xa6, 0x13, 0x19, 0xda, 0x20,
    0xd7, 0x27, 0xff, 0x8f, 0x22, 0x1f, 0xe7, 0x31, 0xe5, 0x28, 0x13, 0x9c, 0x1a,
    0x15, 0xff, 0x23, 0xe2, 0x2b, 0x0a, 0x95, 0x25, 0x24, 0xf4, 0x27, 0xd4, 0x0d,
    0x18, 0xb9, 0x26, 0xfc, 0x0f, 0x07, 0xeb, 0xff, 0x0a, 0xd7, 0x30, 0x0e, 0xe8,
    0x20, 0xec, 0x1b, 0x06, 0xa8, 0x02, 0x0b, 0xe7, 0x27, 0xce, 0x10, 0xfa, 0xa1,
    0x2c, 0x02, 0x16, 0x12, 0xe0, 0x43, 0xf7, 0xae, 0x09, 0x22, 0xe5, 0x18, 0xca,
    0x2f, 0xe0, 0xb4, 0x26, 0x16, 0x11, 0x1a, 0xf2, 0x18, 0xe5, 0xa9, 0x06, 0x0e,
    0x28, 0x28, 0xd7, 0x2d, 0xfb, 0xae, 0x19, 0xfb, 0x03, 0x38, 0xe5, 0x13, 0x14,
    0x9b, 0x29, 0xed, 0xf6, 0x30, 0xf2, 0x17, 0xfa, 0xbf, 0xfb, 0x0a, 0xf6, 0x35,
    0xf9, 0x41, 0x0a, 0xc0, 0x27, 0x18, 0xeb, 0x2a, 0xc8, 0x31, 0x06, 0xb5, 0x29,
    0x26, 0x07, 0x19, 0xea, 0x53, 0xe9, 0xc5, 0x13, 0x27, 0xfa, 0x23, 0xcb, 0x2e,
    0x04, 0xa2, 0x31, 0x2a, 0xf2, 0x27, 0xd8, 0x3a, 0x0c, 0xcd, 0x15, 0x02, 0x09,
    0x0d, 0x0b, 0x2c, 0xe5, 0xbd, 0x35, 0x28, 0xff, 0x18, 0xf7, 0x21, 0xda, 0xce,
    0x17, 0x17, 0x0a, 0x08, 0xe7, 0x46, 0x06, 0xcd, 0x39, 0x10, 0xe0, 0x1d, 0xf8,
    0x21, 0x10, 0xc7, 0x1b, 0x03, 0xfb, 0x21, 0xcd, 0x24, 0x07, 0xb8, 0x0c, 0x25,
    0x11, 0xf7, 0xcb, 0x2d, 0x25, 0xc6, 0x0c, 0x31, 0x0a, 0x36, 0xdb, 0x33, 0x01,
    0x9e, 0x1d, 0x15, 0x14, 0x06, 0xeb, 0x1b, 0xf1, 0xb9, 0x17, 0x27, 0xe9, 0x2a,
    0xeb, 0x2d, 0xea, 0xb5, 0x1d, 0x00, 0x0e, 0x35, 0xcd, 0x2b, 0x09, 0xb7, 0x18,
    0xfc, 0x02, 0x26, 0xdb, 0x18, 0xf9, 0xb7, 0x18, 0xf5, 0xec, 0x14, 0xbd, 0x29,
    0x12, 0xbb, 0x1d, 0x0e, 0x0b, 0x1a, 0xf1, 0x1f, 0xf4, 0xab, 0x1b, 0x2c, 0x0d,
    0x33, 0xd7, 0x35, 0x0a, 0xae, 0x40, 0x21, 0xfc, 0x0b, 0xe3, 0x28, 0x07, 0xa9,
    0x1f, 0x0f, 0x08, 0x3d, 0xe6, 0x0b, 0xdf, 0x9a, 0x2b, 0x1b, 0x05, 0x1b, 0xc6,
    0x3a, 0xfd, 0xc1, 0x06, 0x00, 0xfc, 0x18, 0xf0, 0x08, 0x09, 0x9d, 0x0f, 0x06,
    0xf1, 0x37, 0xd6, 0x46, 0x03, 0xcc, 0xfa, 0x27, 0xfc, 0x2f, 0xf4, 0x36, 0xef,
    0xb0, 0x43, 0x1b, 0xf8, 0x0d, 0xd3, 0x2a, 0x03, 0xc1, 0x13, 0x14, 0xfc, 0x32,
    0xe6, 0x3a, 0xfa, 0xaf, 0x2c, 0x12, 0xe0, 0x08, 0xde, 0x2e, 0x14, 0xc1, 0x23,
    0x1b, 0x0f, 0x0f, 0xe9, 0x16, 0xf8, 0x94, 0x0e, 0x0c, 0xf6, 0x0a, 0xef, 0x30,
    0x08, 0xb7, 0x2c, 0x11, 0xfb, 0x2d, 0xe8, 0x1a, 0xf4, 0xb6, 0x14, 0x12, 0x02,
    0x2b, 0xde, 0x36, 0x00, 0xbf, 0x1a, 0x1a, 0x0f, 0x1f, 0xe4, 0x41, 0xf9, 0xd0,
    0x33, 0x31, 0xdd, 0x13, 0xf3, 0x21, 0x1a, 0xc5, 0x27, 0x1f, 0x17, 0x15, 0xe7,
    0x25, 0xf6, 0xb1, 0x24, 0x1c, 0xea, 0x1d, 0xd8, 0x21, 0x0d, 0xaf, 0x0f, 0x1f,
